#ifndef CNN_1D_STRUCT_PRUNED_INT8_H
#define CNN_1D_STRUCT_PRUNED_INT8_H

#include <stdint.h>

const unsigned int cnn_1d_struct_pruned_int8_len = 20232;
alignas(16) const unsigned char cnn_1d_struct_pruned_int8[] = {
 0x20, 0x00, 0x00, 0x00, 0x54, 0x46, 0x4c, 0x33, 0x00, 0x00, 0x00, 0x00, 
 0x14, 0x00, 0x20, 0x00, 0x1c, 0x00, 0x18, 0x00, 0x14, 0x00, 0x10, 0x00, 
 0x0c, 0x00, 0x00, 0x00, 0x08, 0x00, 0x04, 0x00, 0x14, 0x00, 0x00, 0x00, 
 0x1c, 0x00, 0x00, 0x00, 0x80, 0x00, 0x00, 0x00, 0xd8, 0x00, 0x00, 0x00, 
 0x80, 0x1a, 0x00, 0x00, 0x90, 0x1a, 0x00, 0x00, 0x0c, 0x4e, 0x00, 0x00, 
 0x03, 0x00, 0x00, 0x00, 0x01, 0x00, 0x00, 0x00, 0x04, 0x00, 0x00, 0x00, 
 0xb2, 0xdf, 0xff, 0xff, 0x0c, 0x00, 0x00, 0x00, 0x1c, 0x00, 0x00, 0x00, 
 0x38, 0x00, 0x00, 0x00, 0x0f, 0x00, 0x00, 0x00, 0x73, 0x65, 0x72, 0x76, 
 0x69, 0x6e, 0x67, 0x5f, 0x64, 0x65, 0x66, 0x61, 0x75, 0x6c, 0x74, 0x00, 
 0x01, 0x00, 0x00, 0x00, 0x04, 0x00, 0x00, 0x00, 0x9c, 0xff, 0xff, 0xff, 
 0x35, 0x00, 0x00, 0x00, 0x04, 0x00, 0x00, 0x00, 0x04, 0x00, 0x00, 0x00, 
 0x70, 0x72, 0x65, 0x64, 0x00, 0x00, 0x00, 0x00, 0x01, 0x00, 0x00, 0x00, 
 0x04, 0x00, 0x00, 0x00, 0xde, 0xe4, 0xff, 0xff, 0x04, 0x00, 0x00, 0x00, 
 0x04, 0x00, 0x00, 0x00, 0x78, 0x5f, 0x69, 0x6e, 0x00, 0x00, 0x00, 0x00, 
 0x02, 0x00, 0x00, 0x00, 0x34, 0x00, 0x00, 0x00, 0x04, 0x00, 0x00, 0x00, 
 0xdc, 0xff, 0xff, 0xff, 0x38, 0x00, 0x00, 0x00, 0x04, 0x00, 0x00, 0x00, 
 0x13, 0x00, 0x00, 0x00, 0x43, 0x4f, 0x4e, 0x56, 0x45, 0x52, 0x53, 0x49, 
 0x4f, 0x4e, 0x5f, 0x4d, 0x45, 0x54, 0x41, 0x44, 0x41, 0x54, 0x41, 0x00, 
 0x08, 0x00, 0x0c, 0x00, 0x08, 0x00, 0x04, 0x00, 0x08, 0x00, 0x00, 0x00, 
 0x37, 0x00, 0x00, 0x00, 0x04, 0x00, 0x00, 0x00, 0x13, 0x00, 0x00, 0x00, 
 0x6d, 0x69, 0x6e, 0x5f, 0x72, 0x75, 0x6e, 0x74, 0x69, 0x6d, 0x65, 0x5f, 
 0x76, 0x65, 0x72, 0x73, 0x69, 0x6f, 0x6e, 0x00, 0x39, 0x00, 0x00, 0x00, 
 0xa4, 0x19, 0x00, 0x00, 0x9c, 0x19, 0x00, 0x00, 0x88, 0x19, 0x00, 0x00, 
 0x6c, 0x19, 0x00, 0x00, 0x58, 0x19, 0x00, 0x00, 0x3c, 0x19, 0x00, 0x00, 
 0x20, 0x19, 0x00, 0x00, 0x04, 0x19, 0x00, 0x00, 0xe8, 0x18, 0x00, 0x00, 
 0xcc, 0x18, 0x00, 0x00, 0xb0, 0x18, 0x00, 0x00, 0x94, 0x18, 0x00, 0x00, 
 0x80, 0x18, 0x00, 0x00, 0x68, 0x18, 0x00, 0x00, 0x08, 0x18, 0x00, 0x00, 
 0x5c, 0x17, 0x00, 0x00, 0x58, 0x11, 0x00, 0x00, 0xac, 0x10, 0x00, 0x00, 
 0x78, 0x07, 0x00, 0x00, 0x18, 0x07, 0x00, 0x00, 0x20, 0x03, 0x00, 0x00, 
 0xe8, 0x02, 0x00, 0x00, 0xdc, 0x01, 0x00, 0x00, 0xb8, 0x01, 0x00, 0x00, 
 0x84, 0x01, 0x00, 0x00, 0x7c, 0x01, 0x00, 0x00, 0x74, 0x01, 0x00, 0x00, 
 0x6c, 0x01, 0x00, 0x00, 0x64, 0x01, 0x00, 0x00, 0x5c, 0x01, 0x00, 0x00, 
 0x54, 0x01, 0x00, 0x00, 0x4c, 0x01, 0x00, 0x00, 0x44, 0x01, 0x00, 0x00, 
 0x3c, 0x01, 0x00, 0x00, 0x34, 0x01, 0x00, 0x00, 0x2c, 0x01, 0x00, 0x00, 
 0x24, 0x01, 0x00, 0x00, 0x1c, 0x01, 0x00, 0x00, 0x14, 0x01, 0x00, 0x00, 
 0x0c, 0x01, 0x00, 0x00, 0x04, 0x01, 0x00, 0x00, 0xfc, 0x00, 0x00, 0x00, 
 0xf4, 0x00, 0x00, 0x00, 0xec, 0x00, 0x00, 0x00, 0xe4, 0x00, 0x00, 0x00, 
 0xdc, 0x00, 0x00, 0x00, 0xd4, 0x00, 0x00, 0x00, 0xcc, 0x00, 0x00, 0x00, 
 0xc4, 0x00, 0x00, 0x00, 0xbc, 0x00, 0x00, 0x00, 0xb4, 0x00, 0x00, 0x00, 
 0xac, 0x00, 0x00, 0x00, 0xa4, 0x00, 0x00, 0x00, 0x9c, 0x00, 0x00, 0x00, 
 0x94, 0x00, 0x00, 0x00, 0x74, 0x00, 0x00, 0x00, 0x04, 0x00, 0x00, 0x00, 
 0x36, 0xe6, 0xff, 0xff, 0x04, 0x00, 0x00, 0x00, 0x60, 0x00, 0x00, 0x00, 
 0x0c, 0x00, 0x00, 0x00, 0x08, 0x00, 0x0e, 0x00, 0x08, 0x00, 0x04, 0x00, 
 0x08, 0x00, 0x00, 0x00, 0x10, 0x00, 0x00, 0x00, 0x28, 0x00, 0x00, 0x00, 
 0x00, 0x00, 0x06, 0x00, 0x08, 0x00, 0x04, 0x00, 0x06, 0x00, 0x00, 0x00, 
 0x04, 0x00, 0x00, 0x00, 0x01, 0x00, 0x00, 0x00, 0xeb, 0x03, 0x00, 0x00, 
 0x0c, 0x00, 0x18, 0x00, 0x14, 0x00, 0x10, 0x00, 0x0c, 0x00, 0x04, 0x00, 
 0x0c, 0x00, 0x00, 0x00, 0x51, 0x84, 0x6a, 0x95, 0xff, 0xf1, 0xa2, 0x47, 
 0x02, 0x00, 0x00, 0x00, 0x02, 0x00, 0x00, 0x00, 0x04, 0x00, 0x00, 0x00, 
 0x06, 0x00, 0x00, 0x00, 0x32, 0x2e, 0x32, 0x30, 0x2e, 0x30, 0x00, 0x00, 
 0xa2, 0xe6, 0xff, 0xff, 0x04, 0x00, 0x00, 0x00, 0x10, 0x00, 0x00, 0x00, 
 0x31, 0x2e, 0x31, 0x34, 0x2e, 0x30, 0x00, 0x00, 0x00, 0x00, 0x00, 0x00, 
 0x00, 0x00, 0x00, 0x00, 0x64, 0xb4, 0xff, 0xff, 0x68, 0xb4, 0xff, 0xff, 
 0x6c, 0xb4, 0xff, 0xff, 0x70, 0xb4, 0xff, 0xff, 0x74, 0xb4, 0xff, 0xff, 
 0x78, 0xb4, 0xff, 0xff, 0x7c, 0xb4, 0xff, 0xff, 0x80, 0xb4, 0xff, 0xff, 
 0x84, 0xb4, 0xff, 0xff, 0x88, 0xb4, 0xff, 0xff, 0x8c, 0xb4, 0xff, 0xff, 
 0x90, 0xb4, 0xff, 0xff, 0x94, 0xb4, 0xff, 0xff, 0x98, 0xb4, 0xff, 0xff, 
 0x9c, 0xb4, 0xff, 0xff, 0xa0, 0xb4, 0xff, 0xff, 0xa4, 0xb4, 0xff, 0xff, 
 0xa8, 0xb4, 0xff, 0xff, 0xac, 0xb4, 0xff, 0xff, 0xb0, 0xb4, 0xff, 0xff, 
 0xb4, 0xb4, 0xff, 0xff, 0xb8, 0xb4, 0xff, 0xff, 0xbc, 0xb4, 0xff, 0xff, 
 0xc0, 0xb4, 0xff, 0xff, 0xc4, 0xb4, 0xff, 0xff, 0xc8, 0xb4, 0xff, 0xff, 
 0xcc, 0xb4, 0xff, 0xff, 0xd0, 0xb4, 0xff, 0xff, 0xd4, 0xb4, 0xff, 0xff, 
 0xd8, 0xb4, 0xff, 0xff, 0x36, 0xe7, 0xff, 0xff, 0x04, 0x00, 0x00, 0x00, 
 0x23, 0x00, 0x00, 0x00, 0x58, 0x84, 0x81, 0xb2, 0xed, 0xd0, 0x55, 0x7f, 
 0xb3, 0xb8, 0xff, 0xf0, 0xc8, 0x9e, 0x81, 0x8a, 0x28, 0x8f, 0x44, 0xbc, 
 0x58, 0x33, 0x65, 0x99, 0x81, 0x54, 0x9a, 0x67, 0x8f, 0xb1, 0x2d, 0x74, 
 0x7f, 0x7a, 0xa6, 0x00, 0x66, 0xe7, 0xff, 0xff, 0x04, 0x00, 0x00, 0x00, 
 0x14, 0x00, 0x00, 0x00, 0x83, 0x00, 0x00, 0x00, 0x63, 0x02, 0x00, 0x00, 
 0x9d, 0x00, 0x00, 0x00, 0x43, 0x00, 0x00, 0x00, 0xbd, 0x00, 0x00, 0x00, 
 0x86, 0xe7, 0xff, 0xff, 0x04, 0x00, 0x00, 0x00, 0xfa, 0x00, 0x00, 0x00, 
 0x2d, 0x12, 0xd3, 0x3a, 0xa1, 0x53, 0xe0, 0x43, 0x35, 0xf2, 0x1f, 0xd4, 
 0x43, 0x81, 0xf8, 0x53, 0xe2, 0x49, 0x85, 0xd0, 0xe2, 0x84, 0xc8, 0xc7, 
 0x88, 0x26, 0xdd, 0x2e, 0x54, 0x10, 0xb6, 0x52, 0xcd, 0xbe, 0xb9, 0xb3, 
 0xc5, 0xb6, 0x59, 0x47, 0x1d, 0x81, 0x53, 0x3e, 0xaf, 0xe1, 0x00, 0xbe, 
 0x7d, 0xed, 0xd0, 0x64, 0xec, 0x72, 0x15, 0x62, 0xc3, 0x3f, 0xed, 0xc2, 
 0x4c, 0x3c, 0xb0, 0xf1, 0xa6, 0x32, 0xcc, 0xe4, 0xd2, 0x81, 0x1d, 0x0f, 
 0xa2, 0x4e, 0x9c, 0x22, 0x99, 0x77, 0x81, 0x1f, 0xbb, 0xa8, 0xb7, 0x38, 
 0x54, 0x4a, 0x09, 0xb5, 0xb3, 0xce, 0x5b, 0xae, 0xd3, 0x41, 0xd5, 0x2d, 
 0xcd, 0x49, 0x9e, 0xcb, 0x34, 0xfd, 0xac, 0xf2, 0x2d, 0xfe, 0x81, 0x41, 
 0x3b, 0x35, 0xbe, 0xc8, 0x3c, 0xd8, 0x81, 0xfc, 0x40, 0xda, 0xc1, 0x5d, 
 0x2a, 0x8a, 0xa5, 0x9c, 0x21, 0x3f, 0x5e, 0xc1, 0x61, 0x07, 0x24, 0xc0, 
 0x36, 0xfe, 0x76, 0xdb, 0x99, 0x4b, 0xa5, 0x62, 0xda, 0x24, 0x81, 0xdb, 
 0x82, 0x84, 0xc0, 0x07, 0xa9, 0xd1, 0xae, 0x84, 0xe4, 0x58, 0x0b, 0x9c, 
 0x5a, 0x3c, 0x12, 0xac, 0x2c, 0x90, 0x02, 0x52, 0x7f, 0xfd, 0x1b, 0xad, 
 0x28, 0xb3, 0xa6, 0x37, 0x5b, 0x2a, 0xd3, 0x5c, 0xc7, 0x9a, 0x22, 0xcb, 
 0x42, 0x2f, 0x45, 0xa6, 0x3a, 0xd6, 0xa9, 0x25, 0xb9, 0xcc, 0xcb, 0xfc, 
 0x25, 0x9a, 0x23, 0x56, 0x19, 0x40, 0x81, 0x36, 0xb4, 0xc3, 0x95, 0x5f, 
 0xf0, 0x91, 0xbe, 0x8e, 0xf8, 0x81, 0x1d, 0x41, 0xde, 0x37, 0x85, 0xfb, 
 0x3b, 0xb3, 0x26, 0x28, 0x49, 0x57, 0x46, 0x8a, 0xe5, 0x0e, 0x51, 0x54, 
 0xa0, 0x71, 0xf9, 0xdf, 0x3d, 0x08, 0x8d, 0x92, 0x21, 0x56, 0xc8, 0x58, 
 0x4a, 0xad, 0xba, 0xdd, 0x81, 0x8c, 0xab, 0x10, 0x95, 0xfb, 0x00, 0x00, 
 0x8e, 0xe8, 0xff, 0xff, 0x04, 0x00, 0x00, 0x00, 0x28, 0x00, 0x00, 0x00, 
 0x9c, 0x06, 0x00, 0x00, 0x4f, 0x02, 0x00, 0x00, 0x11, 0x02, 0x00, 0x00, 
 0x41, 0x07, 0x00, 0x00, 0xf9, 0x05, 0x00, 0x00, 0xa1, 0x05, 0x00, 0x00, 
 0x99, 0x00, 0x00, 0x00, 0x8c, 0x02, 0x00, 0x00, 0xab, 0x06, 0x00, 0x00, 
 0x24, 0x06, 0x00, 0x00, 0xc2, 0xe8, 0xff, 0xff, 0x04, 0x00, 0x00, 0x00, 
 0xe8, 0x03, 0x00, 0x00, 0xa8, 0xd7, 0xa2, 0x07, 0xbf, 0xaa, 0x36, 0xe6, 
 0xcc, 0x04, 0xb0, 0x15, 0xb7, 0xda, 0x15, 0x3f, 0xfa, 0xd6, 0x0b, 0xe1, 
 0xdb, 0xc2, 0xd8, 0x34, 0x16, 0x12, 0xd9, 0xe5, 0xf7, 0x07, 0x2d, 0xeb, 
 0x18, 0x81, 0x30, 0x29, 0xe7, 0xc8, 0xe7, 0xcf, 0xc6, 0xf2, 0xdd, 0xec, 
 0xf6, 0xc7, 0x36, 0x18, 0x09, 0xcb, 0xf0, 0xf1, 0x24, 0xc5, 0x06, 0xa1, 
 0xda, 0x24, 0xd8, 0xe0, 0xf3, 0xb0, 0x33, 0xe6, 0x10, 0x31, 0xb7, 0xd7, 
 0x24, 0xda, 0xf0, 0xb8, 0xda, 0xbd, 0x02, 0x09, 0xd8, 0xf2, 0x3c, 0x81, 
 0x11, 0xa2, 0xf4, 0xa1, 0x23, 0x24, 0xee, 0xdd, 0xee, 0x9c, 0xd2, 0xb1, 
 0x20, 0x0a, 0x10, 0x30, 0xb5, 0x9f, 0x4c, 0x15, 0xf4, 0xd2, 0xb8, 0xb4, 
 0x04, 0xf4, 0xd9, 0xc6, 0x82, 0xa0, 0x22, 0xd5, 0x51, 0x69, 0x32, 0x1e, 
 0xef, 0xc2, 0x90, 0x3b, 0xd0, 0xd8, 0xc9, 0xe5, 0xf1, 0x3f, 0xad, 0xcc, 
 0x99, 0x7f, 0x98, 0x50, 0x0c, 0xca, 0xd6, 0x0a, 0xdd, 0x2b, 0x55, 0xe3, 
 0xea, 0x91, 0x61, 0x34, 0x61, 0xf8, 0xc2, 0xcd, 0xdb, 0x25, 0x18, 0xc8, 
 0x0a, 0x69, 0x50, 0x06, 0x69, 0xbd, 0x08, 0xae, 0x3a, 0xc8, 0x05, 0xdf, 
 0x29, 0x02, 0x63, 0x9b, 0xf1, 0xcf, 0x1d, 0xbe, 0xf1, 0xfa, 0x0f, 0x16, 
 0x48, 0xdf, 0xce, 0x0d, 0xc9, 0x2a, 0x57, 0x57, 0x32, 0x5a, 0xd8, 0x50, 
 0x2c, 0x7f, 0x90, 0x31, 0x41, 0x67, 0x84, 0xe7, 0x9a, 0xa9, 0x2b, 0x16, 
 0x45, 0xe6, 0xd1, 0xc9, 0xdc, 0xc1, 0xe6, 0x0b, 0x29, 0x00, 0x05, 0x97, 
 0x8c, 0xcd, 0x07, 0x06, 0x85, 0xcb, 0xa9, 0xc7, 0x9f, 0x21, 0xee, 0xd0, 
 0x09, 0xba, 0xc2, 0x28, 0xb8, 0xcf, 0xb5, 0x24, 0x27, 0xd3, 0x1d, 0xf8, 
 0x81, 0x21, 0xf0, 0x2e, 0x19, 0xf6, 0xf0, 0x3f, 0x23, 0xb4, 0xc0, 0xa2, 
 0x0e, 0x47, 0xe0, 0x22, 0x49, 0x74, 0x35, 0xee, 0xd1, 0xef, 0xd2, 0xfa, 
 0xa3, 0xb3, 0xf2, 0x2b, 0x34, 0x1f, 0x37, 0x3a, 0x1d, 0x19, 0x07, 0x2e, 
 0xdb, 0xfd, 0xdf, 0x20, 0x03, 0x3b, 0x4f, 0x1b, 0xb9, 0x29, 0x0b, 0xb9, 
 0xcf, 0x36, 0x4b, 0x0e, 0x2c, 0x81, 0x32, 0xbf, 0x0c, 0xae, 0x9c, 0xf6, 
 0x37, 0xe9, 0x9c, 0xcf, 0xe8, 0x68, 0x2d, 0x51, 0xb0, 0x81, 0xfa, 0xda, 
 0xcd, 0x18, 0x2b, 0x29, 0x11, 0x28, 0xe7, 0x15, 0x45, 0x12, 0xe3, 0xd7, 
 0x02, 0xe7, 0x2d, 0xad, 0x1e, 0xb4, 0xb8, 0x15, 0xd9, 0x85, 0x39, 0xee, 
 0x23, 0xc7, 0x18, 0x20, 0x07, 0xee, 0xfd, 0x06, 0xd0, 0xea, 0x06, 0xd4, 
 0x05, 0x28, 0x9f, 0xde, 0xa2, 0x13, 0x2e, 0xe7, 0x23, 0x2d, 0xed, 0x50, 
 0xf3, 0xcd, 0x0c, 0x66, 0x2a, 0xca, 0xed, 0x56, 0xbf, 0x12, 0xe8, 0xc7, 
 0xed, 0xf3, 0x3d, 0x2e, 0x01, 0x31, 0x13, 0x07, 0x36, 0x21, 0x32, 0x81, 
 0xeb, 0xe4, 0x42, 0xca, 0xcf, 0x4d, 0x88, 0xec, 0xff, 0xe2, 0x38, 0x67, 
 0x77, 0xd7, 0xcc, 0x18, 0x2f, 0xb6, 0x47, 0xd1, 0xdb, 0x9e, 0x26, 0x28, 
 0x16, 0xbe, 0x81, 0x3c, 0xe2, 0x3f, 0x3b, 0xea, 0xdf, 0x2b, 0xc4, 0x21, 
 0x29, 0x38, 0xe8, 0xaf, 0xd7, 0xf9, 0xf9, 0xd8, 0x43, 0xf5, 0x15, 0x46, 
 0x3b, 0x93, 0xfc, 0x30, 0xc1, 0xba, 0xf8, 0xed, 0xfc, 0xae, 0xb6, 0x43, 
 0x1c, 0x05, 0xa3, 0xe7, 0x16, 0x39, 0x13, 0x1a, 0x03, 0x2e, 0x48, 0xd4, 
 0xff, 0xee, 0xe0, 0x82, 0xce, 0xb2, 0xd5, 0x4b, 0x94, 0x34, 0xb3, 0x18, 
 0x96, 0x81, 0xe1, 0xbe, 0xa6, 0x3b, 0x5c, 0x46, 0x14, 0xae, 0xf9, 0x1a, 
 0xbc, 0x36, 0x46, 0xe3, 0x39, 0x9e, 0x40, 0x12, 0xc6, 0x25, 0x8a, 0x15, 
 0xab, 0xbf, 0xb5, 0x3b, 0x85, 0x2e, 0x60, 0x51, 0xd2, 0x4f, 0xb8, 0x72, 
 0x3c, 0x4c, 0x05, 0xf6, 0x4d, 0xb1, 0x3d, 0xcf, 0xf5, 0xc1, 0x60, 0x20, 
 0xfd, 0xfb, 0xed, 0xb6, 0xfc, 0xce, 0x3a, 0xf0, 0xf9, 0x81, 0x0e, 0xef, 
 0xc0, 0x5f, 0x8e, 0xd0, 0x33, 0xd0, 0xf1, 0x9f, 0xef, 0x08, 0x32, 0x78, 
 0x85, 0x2b, 0x26, 0x23, 0xed, 0x33, 0xa4, 0x08, 0x59, 0x15, 0xb3, 0x36, 
 0xc2, 0x3e, 0x37, 0x89, 0xad, 0x8a, 0xa0, 0xc9, 0xfc, 0xe7, 0xf9, 0x9a, 
 0xfe, 0xad, 0xf6, 0x0e, 0xf1, 0x62, 0xc3, 0xd5, 0x06, 0xc8, 0x5c, 0x14, 
 0xc6, 0x81, 0x26, 0xb8, 0xce, 0x23, 0x5f, 0xa2, 0xad, 0xb9, 0xfa, 0xfb, 
 0xe6, 0xc5, 0xbe, 0x0b, 0x38, 0xb2, 0x9e, 0x2b, 0x57, 0x44, 0x92, 0x2d, 
 0x49, 0x16, 0x27, 0xc8, 0xcf, 0x04, 0x39, 0xbe, 0x35, 0x43, 0x06, 0x39, 
 0xb1, 0xb1, 0x25, 0xe2, 0x9e, 0xbb, 0x28, 0x27, 0x81, 0x31, 0xfc, 0x26, 
 0xf6, 0x3e, 0xa2, 0x42, 0xcc, 0x3b, 0xc1, 0xbf, 0x0d, 0x43, 0x01, 0xd9, 
 0x14, 0x54, 0x24, 0x04, 0x42, 0x9a, 0xba, 0xc0, 0xc4, 0xde, 0xed, 0x19, 
 0xd2, 0xd2, 0xab, 0xb2, 0xb3, 0x87, 0x42, 0xf2, 0xcf, 0x9b, 0x06, 0x3b, 
 0xf6, 0xec, 0xf8, 0xf8, 0x33, 0xe8, 0xbc, 0x51, 0xe7, 0x37, 0x81, 0x0a, 
 0xed, 0x17, 0x1c, 0xdf, 0xb4, 0x1b, 0xf7, 0xe0, 0x15, 0xcb, 0x0d, 0xf2, 
 0xe2, 0x1c, 0xfe, 0x19, 0xd5, 0x98, 0x25, 0x0c, 0x27, 0x01, 0xce, 0xd7, 
 0x19, 0xc2, 0xc1, 0xde, 0x42, 0xc5, 0x37, 0xd5, 0xcb, 0xbd, 0x31, 0xe9, 
 0xc7, 0xe8, 0xcb, 0xc3, 0x2b, 0xd1, 0x25, 0xdd, 0x17, 0xe5, 0x02, 0xc7, 
 0xa7, 0x1a, 0xe4, 0xe5, 0x1c, 0xe0, 0xcb, 0x0b, 0xee, 0xee, 0xc1, 0xd6, 
 0x30, 0xd1, 0xd0, 0xcf, 0x07, 0xe4, 0xdf, 0xe5, 0xd1, 0x21, 0x38, 0xcc, 
 0xe7, 0x17, 0x13, 0xf6, 0xb6, 0xe5, 0xf8, 0xfe, 0xfc, 0x81, 0xe0, 0xad, 
 0xe4, 0x3e, 0xf6, 0xd4, 0xbc, 0xd8, 0x10, 0x1e, 0xc9, 0x1b, 0xc5, 0x7b, 
 0xaf, 0xbd, 0x2e, 0xf6, 0x2e, 0x3a, 0x47, 0x12, 0xf7, 0x11, 0xed, 0x13, 
 0x24, 0xf7, 0xd3, 0xdd, 0xf4, 0xf6, 0xaa, 0xd4, 0xc3, 0xf4, 0xf2, 0x2a, 
 0x1f, 0xc5, 0x25, 0x14, 0x81, 0x01, 0x52, 0x30, 0x97, 0x1e, 0x87, 0xfe, 
 0x5e, 0x51, 0xaa, 0xea, 0x04, 0xcf, 0xb4, 0xa1, 0xd3, 0x64, 0x4f, 0xaa, 
 0x2d, 0x20, 0x06, 0xf9, 0xc8, 0x94, 0x44, 0x1c, 0xc1, 0x05, 0x60, 0x3c, 
 0x81, 0xe9, 0x2c, 0x11, 0xed, 0xa3, 0xd3, 0xa0, 0xac, 0x12, 0xf2, 0x73, 
 0x3c, 0x61, 0x52, 0xe1, 0xc3, 0xb6, 0xa2, 0xb9, 0xbf, 0xde, 0xb6, 0x46, 
 0xa8, 0xb8, 0xc0, 0xed, 0xb2, 0x7f, 0x4b, 0xdc, 0xc6, 0x07, 0x06, 0x4d, 
 0xe5, 0x3c, 0x27, 0x13, 0xce, 0xbb, 0x54, 0x20, 0x31, 0x16, 0xcd, 0xef, 
 0x21, 0x06, 0xd1, 0xeb, 0xbb, 0xcc, 0xe3, 0xec, 0x3f, 0x14, 0x14, 0x91, 
 0x3f, 0xec, 0xe2, 0xd7, 0x07, 0xdf, 0x20, 0x3a, 0xdd, 0xb2, 0x21, 0xe8, 
 0x44, 0xc8, 0x03, 0x2b, 0xfe, 0x20, 0x4a, 0x33, 0xbb, 0xbe, 0x28, 0x0a, 
 0x18, 0x43, 0xf0, 0x0c, 0xf6, 0x6a, 0x2a, 0x9f, 0x58, 0xe4, 0xd4, 0xc6, 
 0xfa, 0xfc, 0xec, 0xe0, 0x26, 0x2b, 0x40, 0xcf, 0x18, 0x2a, 0x19, 0x4c, 
 0x4d, 0x43, 0x81, 0x13, 0x44, 0x21, 0x11, 0x38, 0xf4, 0xa2, 0x55, 0x94, 
 0x39, 0xe6, 0x98, 0x05, 0xd8, 0x25, 0x3f, 0x91, 0xa8, 0xaf, 0xf1, 0xe6, 
 0x81, 0xff, 0xe8, 0x39, 0xd1, 0xb9, 0x06, 0x48, 0xc8, 0xd6, 0xde, 0xa3, 
 0xdd, 0x4d, 0x3a, 0xee, 0x24, 0x65, 0x50, 0xcd, 0xe6, 0xbd, 0xcd, 0xca, 
 0xf4, 0x87, 0xb4, 0x61, 0xfd, 0x1a, 0x1a, 0x35, 0xed, 0x04, 0xdc, 0x0e, 
 0xa4, 0xd3, 0x52, 0xe9, 0xe2, 0x4e, 0x0f, 0xc9, 0xb6, 0xec, 0xff, 0xff, 
 0x04, 0x00, 0x00, 0x00, 0x50, 0x00, 0x00, 0x00, 0xb5, 0x18, 0x00, 0x00, 
 0x24, 0x18, 0x00, 0x00, 0xfc, 0x10, 0x00, 0x00, 0x36, 0xf4, 0xff, 0xff, 
 0xbe, 0x1f, 0x00, 0x00, 0x0d, 0xfd, 0xff, 0xff, 0x03, 0x09, 0x00, 0x00, 
 0xee, 0xf2, 0xff, 0xff, 0x4a, 0x06, 0x00, 0x00, 0xdd, 0x0e, 0x00, 0x00, 
 0x46, 0x01, 0x00, 0x00, 0x5b, 0x19, 0x00, 0x00, 0x41, 0x14, 0x00, 0x00, 
 0x5a, 0x0d, 0x00, 0x00, 0x61, 0x19, 0x00, 0x00, 0x24, 0x0c, 0x00, 0x00, 
 0xe7, 0x0f, 0x00, 0x00, 0xfd, 0x01, 0x00, 0x00, 0x76, 0xf4, 0xff, 0xff, 
 0x02, 0x11, 0x00, 0x00, 0x12, 0xed, 0xff, 0xff, 0x04, 0x00, 0x00, 0x00, 
 0x24, 0x09, 0x00, 0x00, 0x00, 0xd6, 0xcc, 0xa6, 0x10, 0xee, 0x0d, 0x27, 
 0x4f, 0xc9, 0xb7, 0x39, 0xc3, 0xcb, 0xf2, 0x20, 0x42, 0xa4, 0x51, 0xc1, 
 0x5c, 0x1f, 0xf1, 0xb9, 0x06, 0xdf, 0xfa, 0xc5, 0x2b, 0xc4, 0xeb, 0xd6, 
 0x05, 0x5b, 0x65, 0xe2, 0xe9, 0xb6, 0x42, 0x12, 0x0c, 0x76, 0xb4, 0x32, 
 0xf1, 0x08, 0x2f, 0xf2, 0x08, 0x0a, 0x20, 0x64, 0x98, 0x21, 0x7f, 0xeb, 
 0x4e, 0xc8, 0x12, 0x12, 0x8b, 0x14, 0x04, 0x29, 0xb9, 0xda, 0xc5, 0xd1, 
 0x5c, 0x17, 0xfd, 0xd6, 0x5f, 0x6a, 0x69, 0x7c, 0xd8, 0xc6, 0xc6, 0xd6, 
 0x25, 0x4f, 0x9c, 0x23, 0x0b, 0xab, 0xda, 0xb9, 0x5d, 0x33, 0x99, 0xd1, 
 0xc1, 0x9b, 0xf4, 0x52, 0xe6, 0xf8, 0xdc, 0x08, 0x16, 0x49, 0x1c, 0x42, 
 0xb7, 0x25, 0x28, 0xf1, 0xd6, 0x21, 0xce, 0x7f, 0xd9, 0xfb, 0xee, 0xbd, 
 0xdb, 0xf1, 0x34, 0xdb, 0x34, 0x63, 0x6f, 0xe3, 0xfc, 0x75, 0x01, 0xc0, 
 0x15, 0xe5, 0xb9, 0x69, 0xd2, 0xd1, 0x5e, 0x95, 0x9c, 0x2c, 0x5c, 0xaf, 
 0x10, 0xc8, 0xdf, 0x20, 0xe0, 0x6a, 0xbf, 0x08, 0x24, 0xba, 0xe8, 0x5c, 
 0x3e, 0x2c, 0x1e, 0x08, 0xba, 0x20, 0x51, 0x42, 0xd4, 0x38, 0x5f, 0xf3, 
 0xd4, 0xc0, 0x45, 0x7f, 0xe7, 0x2b, 0x3b, 0x3b, 0x23, 0x29, 0x49, 0xf2, 
 0x00, 0x14, 0x6f, 0x37, 0x17, 0xb3, 0xff, 0x12, 0xca, 0x44, 0x1c, 0xff, 
 0xd7, 0xea, 0x37, 0x0d, 0xb4, 0xb4, 0xcb, 0x25, 0xf0, 0x43, 0x97, 0xca, 
 0x2e, 0xd5, 0xfe, 0x08, 0x25, 0x33, 0x3e, 0x0d, 0x04, 0xb2, 0xd6, 0xd9, 
 0x14, 0x85, 0xdb, 0x26, 0x2d, 0x29, 0xfc, 0xf7, 0xe8, 0x1a, 0x23, 0x51, 
 0x42, 0xb8, 0xa5, 0x31, 0xee, 0x0c, 0xdd, 0xf4, 0xd0, 0x1a, 0x91, 0x7f, 
 0xc2, 0xae, 0x04, 0x26, 0x01, 0x72, 0xff, 0xc9, 0x2f, 0xc3, 0x8a, 0xb4, 
 0x27, 0xd4, 0x56, 0x4d, 0xcd, 0x1b, 0x7f, 0xcf, 0x2b, 0xbf, 0x68, 0xd4, 
 0x07, 0x28, 0xc7, 0xce, 0xe3, 0x20, 0x28, 0xed, 0x11, 0xe8, 0x38, 0xe6, 
 0x41, 0x36, 0x66, 0x5c, 0xee, 0xcb, 0xac, 0xca, 0xf5, 0x26, 0xd4, 0xc2, 
 0x27, 0x3a, 0x11, 0x51, 0xff, 0x0d, 0x5c, 0x50, 0x1f, 0xda, 0x03, 0x53, 
 0xfe, 0xdb, 0xa7, 0x33, 0x17, 0xb2, 0x2b, 0xa6, 0xf0, 0x2d, 0xe7, 0x14, 
 0xd0, 0xe2, 0x4f, 0xe8, 0xe0, 0x25, 0xa5, 0xc4, 0xf8, 0x0e, 0xb4, 0x7f, 
 0x37, 0xfe, 0x43, 0xa4, 0xf1, 0x42, 0x46, 0xf5, 0xdc, 0x18, 0x3c, 0xf9, 
 0x1c, 0xac, 0xfb, 0xd3, 0x16, 0xe6, 0xd6, 0x28, 0xc4, 0x49, 0xd8, 0xe1, 
 0xf5, 0x2f, 0x0b, 0xef, 0x9a, 0xe9, 0x3e, 0xeb, 0x3e, 0xaf, 0xa7, 0x73, 
 0x01, 0x23, 0x16, 0x48, 0xd4, 0x33, 0x36, 0x1e, 0xa4, 0x38, 0xfc, 0x0b, 
 0x9d, 0xd0, 0xff, 0x26, 0x49, 0xc0, 0x2e, 0x1f, 0x3b, 0xfd, 0xcd, 0x4d, 
 0x35, 0xfe, 0x43, 0x16, 0x2a, 0x04, 0x3c, 0x42, 0xb4, 0x35, 0xce, 0xf3, 
 0xfb, 0xd3, 0xb4, 0xf5, 0x12, 0x4f, 0x7f, 0x3d, 0x9c, 0xe0, 0xf5, 0xd8, 
 0xbf, 0x54, 0x36, 0x3c, 0xff, 0x20, 0xc6, 0xe1, 0x26, 0xd6, 0xd4, 0x08, 
 0x40, 0x2c, 0x2b, 0xc5, 0x37, 0xd8, 0x41, 0x44, 0x2a, 0xe1, 0x01, 0xfa, 
 0x9f, 0x00, 0x0d, 0xf4, 0xe8, 0xd3, 0xef, 0x53, 0xee, 0x2c, 0x32, 0xa4, 
 0x24, 0x09, 0x40, 0x0e, 0x38, 0xce, 0x45, 0x1a, 0x1e, 0xdc, 0xd9, 0x1c, 
 0x27, 0xc3, 0x07, 0xf3, 0xee, 0xd3, 0x42, 0x11, 0x33, 0xf7, 0x7f, 0xd8, 
 0xe6, 0xf0, 0x22, 0x1f, 0xe5, 0x1f, 0xd9, 0x22, 0x2c, 0xe7, 0xd2, 0xb8, 
 0x2b, 0x17, 0x28, 0x2f, 0x98, 0x6c, 0x2a, 0xe7, 0x69, 0x19, 0x26, 0x2d, 
 0xdb, 0xdd, 0x32, 0x2f, 0x24, 0x5a, 0x24, 0x36, 0x2f, 0xf4, 0x28, 0xcf, 
 0xe3, 0x37, 0x04, 0xd8, 0xa1, 0x40, 0xac, 0xf1, 0x6f, 0xf5, 0xf9, 0x35, 
 0xe6, 0x28, 0xd0, 0x6a, 0xd2, 0x3c, 0x14, 0x39, 0xbd, 0xc9, 0xea, 0x4f, 
 0x2f, 0xc9, 0x81, 0xc4, 0xf4, 0xdc, 0xc7, 0x2b, 0x2c, 0xec, 0xb8, 0xe7, 
 0x0b, 0xf4, 0x2d, 0xd0, 0xe7, 0x11, 0x34, 0x78, 0xee, 0x0b, 0xe4, 0xe5, 
 0xae, 0x49, 0x2a, 0x02, 0xdd, 0xe1, 0x0d, 0xd4, 0x23, 0xc5, 0x48, 0xf1, 
 0x35, 0x08, 0x1f, 0x7f, 0x2c, 0xcb, 0x6d, 0x22, 0xe4, 0xff, 0x2c, 0xf1, 
 0x65, 0xf6, 0xd9, 0x2c, 0xbf, 0x3f, 0x5b, 0x18, 0x69, 0x1b, 0x47, 0x5d, 
 0xaf, 0xba, 0xec, 0xd8, 0xb5, 0x32, 0x11, 0x26, 0xd7, 0xcc, 0xfc, 0x5b, 
 0xdf, 0xce, 0x2a, 0xdb, 0xc4, 0x08, 0x21, 0x01, 0xf1, 0xfa, 0x43, 0xf9, 
 0x37, 0xf8, 0xcc, 0xf2, 0xe9, 0x7f, 0x5a, 0x32, 0x0c, 0x25, 0x9f, 0x77, 
 0xc3, 0xf6, 0x17, 0x51, 0xed, 0xf0, 0x15, 0xdd, 0x17, 0x1c, 0xe8, 0x42, 
 0xde, 0xc0, 0xcc, 0x49, 0xd4, 0xec, 0xc2, 0xdb, 0xf2, 0xf6, 0x17, 0x14, 
 0x09, 0xfb, 0x03, 0xc5, 0xe4, 0xd1, 0x10, 0x22, 0x15, 0x2c, 0xcd, 0xd7, 
 0x1d, 0x3b, 0x23, 0xe6, 0x24, 0xef, 0xb9, 0x20, 0xff, 0xbd, 0xcc, 0xa7, 
 0x1a, 0x26, 0x3f, 0x62, 0x4e, 0xb7, 0x26, 0x4b, 0xe3, 0xee, 0x37, 0xae, 
 0xc4, 0xeb, 0xad, 0x19, 0xce, 0xb5, 0x2a, 0xb9, 0x04, 0xe3, 0xe3, 0x56, 
 0xdd, 0x0a, 0x38, 0xd9, 0x2e, 0x36, 0xe3, 0x06, 0x1c, 0x00, 0xcb, 0x44, 
 0x2e, 0xc4, 0x33, 0x11, 0xe5, 0xd1, 0x10, 0x4c, 0xc6, 0xbf, 0x23, 0x7f, 
 0xf6, 0x30, 0xc1, 0x10, 0xb3, 0xd7, 0x20, 0xfe, 0xee, 0x36, 0x28, 0x24, 
 0xd1, 0x01, 0xad, 0x02, 0xd3, 0xfe, 0xdf, 0xeb, 0x1b, 0x01, 0x4f, 0xcf, 
 0xca, 0x0d, 0xfb, 0x3a, 0xe6, 0xbd, 0xcc, 0x19, 0x1d, 0xb0, 0x00, 0xd4, 
 0xf0, 0xd2, 0x81, 0xd6, 0xc8, 0xe9, 0x2e, 0xa4, 0xe6, 0x0b, 0x05, 0xef, 
 0xa9, 0xf8, 0x5a, 0x35, 0xb2, 0xdc, 0x36, 0xc2, 0xdc, 0x50, 0x8f, 0xd5, 
 0x02, 0x2a, 0x0a, 0xf5, 0x1e, 0xfb, 0xfd, 0xd5, 0xc3, 0xf1, 0x0d, 0x21, 
 0xeb, 0x1d, 0x35, 0xe4, 0x0e, 0x81, 0x8b, 0x03, 0x3f, 0xcb, 0x4a, 0xb7, 
 0xfc, 0xcc, 0xfa, 0xd3, 0x55, 0x68, 0xbb, 0xda, 0xae, 0xf4, 0x09, 0xe8, 
 0xb3, 0x1b, 0xbc, 0x22, 0x28, 0x48, 0x29, 0x24, 0x23, 0xd2, 0x4b, 0xda, 
 0x45, 0xeb, 0xd3, 0x37, 0xad, 0x73, 0x11, 0x07, 0x21, 0x44, 0xea, 0xc5, 
 0xd7, 0xdf, 0xc4, 0x46, 0xf8, 0x27, 0x99, 0xc2, 0x0e, 0xba, 0x98, 0xe3, 
 0xbd, 0xe1, 0x1b, 0x3d, 0x7a, 0xa7, 0xf5, 0xa1, 0x38, 0xd1, 0xe0, 0x9d, 
 0xf1, 0xed, 0x1a, 0x20, 0x9c, 0x1b, 0xe7, 0x02, 0x77, 0xf5, 0xb4, 0xfb, 
 0xd2, 0xbc, 0xcc, 0x11, 0x50, 0xe1, 0xda, 0xa4, 0x0a, 0x20, 0x04, 0x45, 
 0xc2, 0xae, 0x1e, 0x4a, 0xcb, 0xdf, 0x37, 0x66, 0xb2, 0x45, 0x0a, 0x81, 
 0xd0, 0xea, 0x93, 0x18, 0xc4, 0xd3, 0xf1, 0xc6, 0xd0, 0xae, 0xaf, 0x31, 
 0x41, 0x2c, 0xc0, 0xa0, 0x00, 0x12, 0x39, 0xff, 0x2d, 0xa9, 0xd7, 0x6e, 
 0x40, 0x55, 0x2b, 0xc4, 0x44, 0xcd, 0xa7, 0x01, 0x0e, 0x32, 0xf5, 0xdd, 
 0x2d, 0xe8, 0xb7, 0xba, 0xe8, 0x21, 0xc5, 0x28, 0x5a, 0x55, 0x1b, 0xce, 
 0x81, 0xe6, 0x31, 0xb2, 0x31, 0x11, 0x46, 0x2f, 0xb0, 0x21, 0x4d, 0x33, 
 0xe7, 0xe3, 0x51, 0x00, 0x9a, 0x12, 0x67, 0xb4, 0xfc, 0x10, 0x81, 0x70, 
 0xbb, 0xd3, 0x27, 0x0b, 0xea, 0x18, 0x2e, 0xb6, 0x0d, 0x07, 0x6b, 0x6d, 
 0xd4, 0xe7, 0x2f, 0xa0, 0xf0, 0xba, 0xc5, 0x15, 0x36, 0x26, 0x53, 0xdd, 
 0xd9, 0xe9, 0x54, 0xcf, 0x1e, 0x9e, 0xdc, 0xe1, 0xac, 0xd2, 0xd5, 0x96, 
 0x12, 0x17, 0x4f, 0x31, 0x1c, 0x9a, 0xdc, 0x9f, 0x03, 0x63, 0x69, 0xf8, 
 0x2f, 0x1e, 0x52, 0xc7, 0x3f, 0x3f, 0xee, 0x36, 0xd1, 0x23, 0xc5, 0xcb, 
 0x8e, 0x14, 0x09, 0xf9, 0xc5, 0x61, 0xc3, 0xba, 0xfa, 0x10, 0xe4, 0x6f, 
 0x7f, 0x1c, 0x5b, 0xc6, 0xd1, 0x12, 0xb3, 0x1f, 0xb0, 0x5d, 0x05, 0xaf, 
 0x29, 0x2a, 0x0f, 0xa4, 0x3b, 0xfb, 0x00, 0xf5, 0xa6, 0x9d, 0x5a, 0x52, 
 0xce, 0xfa, 0x4f, 0x1d, 0x8b, 0x62, 0x43, 0x24, 0x93, 0x04, 0xac, 0xb5, 
 0xe3, 0x45, 0x0d, 0x14, 0xcb, 0x15, 0x24, 0x0d, 0x50, 0xac, 0xd7, 0xb3, 
 0x05, 0xa2, 0x2a, 0x4c, 0x53, 0x08, 0x08, 0xe6, 0x3e, 0xf0, 0x18, 0x81, 
 0xb4, 0x46, 0xd6, 0xe9, 0x0a, 0x36, 0x0c, 0x9b, 0x4b, 0x2c, 0xf7, 0x2e, 
 0xa7, 0x01, 0x37, 0x23, 0x13, 0xe3, 0x05, 0x64, 0xd6, 0x11, 0xae, 0x44, 
 0xe4, 0xf7, 0xb0, 0x2f, 0x46, 0xd5, 0x1d, 0xfc, 0xc4, 0x0c, 0x51, 0xd9, 
 0xe6, 0xe3, 0x34, 0xf8, 0x98, 0xfe, 0xe3, 0x24, 0x0f, 0x2c, 0xce, 0x81, 
 0x11, 0x96, 0xc3, 0x1c, 0x3b, 0x14, 0x4f, 0x1b, 0xe3, 0xf2, 0xf7, 0xaf, 
 0xa2, 0x0d, 0xb6, 0x1b, 0xad, 0x09, 0xd1, 0xaa, 0x04, 0x1d, 0xe5, 0xf5, 
 0x08, 0x11, 0x1b, 0x71, 0x05, 0x1d, 0x9e, 0x18, 0xa1, 0xea, 0x9f, 0x58, 
 0x0a, 0x10, 0xac, 0xf6, 0xc1, 0xee, 0xdf, 0x73, 0x4c, 0x01, 0x39, 0x49, 
 0x29, 0x95, 0x00, 0xc0, 0x26, 0x0d, 0xee, 0x47, 0xe8, 0x44, 0x1f, 0x9f, 
 0xf1, 0xd7, 0x0d, 0x3e, 0xce, 0xe6, 0x34, 0x4b, 0x2c, 0xbc, 0x9b, 0x54, 
 0xcc, 0x12, 0xf4, 0x2c, 0x24, 0xf4, 0x16, 0x3d, 0x18, 0xcb, 0x27, 0x1b, 
 0x2f, 0xd7, 0x19, 0xce, 0x14, 0xc2, 0x4e, 0xc3, 0x15, 0xdc, 0xc5, 0xba, 
 0xcc, 0xe0, 0xf7, 0x85, 0xf8, 0x01, 0x3f, 0x23, 0xd6, 0x42, 0x0d, 0x7f, 
 0xe5, 0x29, 0x26, 0x38, 0x0d, 0xfa, 0xac, 0xe3, 0xf2, 0x37, 0x10, 0x81, 
 0x09, 0xc8, 0x27, 0x3b, 0xf6, 0x4d, 0x29, 0x6a, 0x15, 0xec, 0xf2, 0x54, 
 0xc7, 0x47, 0x33, 0x1e, 0x23, 0xd6, 0x98, 0x43, 0x3f, 0x01, 0x20, 0x7c, 
 0x45, 0x10, 0x77, 0x9c, 0xf0, 0xd5, 0x46, 0x8e, 0xf3, 0xeb, 0x06, 0x06, 
 0xac, 0xb0, 0x11, 0x99, 0x3e, 0xed, 0x48, 0x15, 0xee, 0x10, 0xd4, 0x45, 
 0xd3, 0xff, 0xab, 0x75, 0xd5, 0x20, 0xe2, 0xc0, 0x7e, 0x1c, 0xfb, 0x43, 
 0xac, 0x18, 0xe9, 0xea, 0x26, 0xbe, 0xf1, 0xfa, 0x34, 0x26, 0xb6, 0x3b, 
 0xf2, 0xd2, 0xd3, 0xb7, 0x29, 0x41, 0x04, 0x5f, 0x81, 0xf4, 0x20, 0xd8, 
 0x2f, 0xd9, 0xc7, 0xf5, 0x27, 0x2c, 0x16, 0xd3, 0x39, 0x53, 0x3d, 0x0b, 
 0xf1, 0x00, 0x13, 0x27, 0xc5, 0xbe, 0x28, 0x1b, 0xd8, 0xc5, 0xbb, 0x5d, 
 0xc9, 0xfb, 0xe1, 0x22, 0x46, 0xf0, 0xf2, 0x0d, 0xee, 0xb3, 0xaf, 0x20, 
 0x47, 0xd2, 0xd2, 0x0f, 0xfe, 0xbd, 0xe5, 0xec, 0x0b, 0xb1, 0x3d, 0x11, 
 0x19, 0x37, 0x00, 0xf3, 0x3a, 0xbf, 0x32, 0xd0, 0x21, 0x29, 0x18, 0x43, 
 0xfd, 0x08, 0x68, 0xf2, 0x1b, 0xc9, 0xd4, 0xe1, 0xd1, 0x68, 0xe0, 0x3f, 
 0x34, 0x3b, 0x0a, 0xf4, 0x33, 0xde, 0x27, 0x38, 0x81, 0x25, 0x0c, 0x2f, 
 0x24, 0x02, 0x13, 0xf2, 0x21, 0x40, 0x09, 0x7f, 0x1d, 0x2b, 0xcc, 0xfb, 
 0x53, 0x14, 0xd1, 0x6b, 0x4b, 0x22, 0x18, 0x05, 0x1b, 0xb8, 0xb6, 0xc8, 
 0x08, 0x4d, 0xc7, 0xe8, 0x20, 0xd7, 0x55, 0xb7, 0xf2, 0x2f, 0xfb, 0xe0, 
 0x24, 0x30, 0x26, 0x1a, 0xdb, 0xc2, 0xbe, 0x30, 0x13, 0x0d, 0xa3, 0x7d, 
 0x25, 0xd4, 0xbc, 0x01, 0x57, 0x10, 0xd5, 0xf0, 0xcb, 0xe2, 0xef, 0x55, 
 0x1f, 0xe5, 0xd5, 0xb9, 0xc9, 0xb5, 0x31, 0x39, 0xb9, 0xff, 0x24, 0xf0, 
 0xb2, 0x38, 0x05, 0x29, 0xc4, 0x15, 0x23, 0xd1, 0x33, 0x2e, 0xb2, 0xc2, 
 0xba, 0xf6, 0x20, 0x1f, 0x12, 0xd6, 0x10, 0x2a, 0xc8, 0x37, 0x33, 0x06, 
 0x50, 0x3c, 0xfc, 0x27, 0x0d, 0x2c, 0x0f, 0xa3, 0xf5, 0x27, 0x50, 0x51, 
 0xed, 0xec, 0x7f, 0x36, 0xd6, 0xb9, 0xdb, 0x0d, 0xaf, 0xe8, 0x81, 0xbe, 
 0xe7, 0xf5, 0x56, 0xbc, 0x04, 0x5d, 0xfc, 0x12, 0xde, 0x45, 0xc6, 0x34, 
 0xf7, 0xfb, 0xca, 0xc9, 0xf2, 0x39, 0x61, 0x21, 0xad, 0x2f, 0x06, 0x13, 
 0xbd, 0xf9, 0x2b, 0x01, 0x2f, 0x3d, 0x4a, 0x36, 0xf7, 0xae, 0x51, 0x0e, 
 0xba, 0x40, 0xde, 0x31, 0xb5, 0xf0, 0x09, 0xc8, 0x23, 0xf9, 0xe0, 0x06, 
 0xe3, 0xc0, 0xe4, 0x50, 0x82, 0x02, 0x5a, 0x16, 0xcc, 0xec, 0x1e, 0x7f, 
 0xab, 0x3d, 0x63, 0xe2, 0xc1, 0xe8, 0xda, 0x1c, 0x12, 0x13, 0x20, 0x0c, 
 0xde, 0x2f, 0x3f, 0x26, 0x6a, 0xaa, 0x57, 0x81, 0x55, 0xa3, 0x41, 0xd4, 
 0x37, 0x4a, 0xce, 0xb9, 0x54, 0xe4, 0xff, 0xf6, 0x58, 0xcc, 0xd4, 0x26, 
 0xe2, 0x87, 0x11, 0x1a, 0x4a, 0xf2, 0x14, 0xaf, 0x79, 0xb1, 0x9a, 0xdb, 
 0x04, 0xab, 0x2d, 0x3c, 0x09, 0x42, 0x30, 0x47, 0xb9, 0x33, 0x64, 0xf0, 
 0xf4, 0x4d, 0xc4, 0x51, 0xc2, 0xfb, 0xfb, 0x25, 0x56, 0xbe, 0xa9, 0xae, 
 0x5b, 0x31, 0x2f, 0xc9, 0x1a, 0x39, 0x32, 0x0a, 0xf6, 0x12, 0xfd, 0xcf, 
 0xe8, 0xe7, 0xb8, 0x4c, 0x42, 0xc1, 0xc8, 0x26, 0x5d, 0xd7, 0x26, 0xee, 
 0x01, 0x3c, 0x39, 0x44, 0xb3, 0x54, 0x94, 0xad, 0xd1, 0x50, 0xec, 0x70, 
 0xa3, 0xb6, 0x3e, 0xb0, 0x12, 0xdc, 0xe6, 0x7f, 0x50, 0xc3, 0x4f, 0xe6, 
 0xb1, 0xb3, 0xe6, 0xfd, 0x57, 0x66, 0x40, 0x6f, 0x0a, 0x1e, 0xde, 0x72, 
 0xdf, 0xc2, 0x4e, 0xa1, 0x55, 0x20, 0x63, 0x27, 0xfb, 0x1a, 0x54, 0x48, 
 0x71, 0x0b, 0x3f, 0x0f, 0x25, 0x14, 0x42, 0x7f, 0x12, 0x5b, 0x4c, 0x3e, 
 0xe4, 0x73, 0x46, 0x69, 0x07, 0x1e, 0xea, 0xed, 0x45, 0x24, 0x09, 0xd7, 
 0x91, 0xcc, 0xc1, 0x00, 0x03, 0xb2, 0x49, 0x48, 0xec, 0x25, 0xfd, 0x18, 
 0xd9, 0x5b, 0x14, 0xd4, 0x03, 0xe7, 0xf7, 0xcb, 0xe6, 0xd1, 0xd3, 0x40, 
 0xff, 0xe8, 0x07, 0x83, 0xbe, 0xa0, 0xc0, 0x11, 0x1f, 0x48, 0xe8, 0xc8, 
 0x43, 0x21, 0xdf, 0x15, 0x4f, 0xde, 0x13, 0x16, 0xae, 0x27, 0xb8, 0x8e, 
 0x06, 0x41, 0xdb, 0x4e, 0x18, 0x44, 0x37, 0x7f, 0x36, 0x18, 0x5d, 0xd7, 
 0x26, 0x1d, 0xfd, 0xe6, 0x19, 0x7e, 0x14, 0xf2, 0xc9, 0xfa, 0xe1, 0xaf, 
 0xf2, 0xce, 0xb1, 0x15, 0xa9, 0xf9, 0xff, 0x10, 0xb7, 0xce, 0x2d, 0xb5, 
 0x29, 0x36, 0xc7, 0x1d, 0xc2, 0xdb, 0x44, 0x31, 0xca, 0x36, 0xbe, 0x52, 
 0xfb, 0x3f, 0xb1, 0x55, 0xc4, 0x00, 0xb9, 0x22, 0xc8, 0x1e, 0xbd, 0x1f, 
 0x57, 0xe1, 0xf0, 0xd6, 0xe2, 0xe6, 0xfd, 0x89, 0xf7, 0x04, 0x81, 0xf6, 
 0x16, 0x0d, 0x34, 0x86, 0x18, 0x15, 0x36, 0xf1, 0x1d, 0x65, 0x4b, 0x44, 
 0xf7, 0xf9, 0xc5, 0xf4, 0x6a, 0xdb, 0x6e, 0x19, 0x7a, 0xfa, 0x0f, 0xf5, 
 0x8e, 0xe2, 0x0a, 0xd6, 0x47, 0xd5, 0xac, 0x2a, 0x3d, 0x34, 0xf0, 0x7f, 
 0x25, 0xdd, 0xff, 0xaa, 0x2c, 0xf2, 0x5c, 0x4b, 0xcd, 0x70, 0xcf, 0xf2, 
 0x48, 0x95, 0x15, 0xd8, 0xf8, 0x12, 0x25, 0x03, 0x9e, 0x21, 0xf1, 0x26, 
 0x07, 0x2b, 0x5c, 0x4f, 0xae, 0x34, 0xdb, 0xc3, 0xc5, 0x83, 0xe7, 0x2b, 
 0x2c, 0x20, 0x9f, 0x9b, 0xe9, 0xf0, 0xd1, 0x4e, 0x29, 0x18, 0x3d, 0x0e, 
 0x9c, 0xe2, 0x43, 0x9f, 0xc4, 0x51, 0x39, 0x08, 0x2a, 0x18, 0x33, 0x28, 
 0xcf, 0xd8, 0x36, 0x03, 0x2c, 0xd1, 0x2a, 0x6a, 0x9c, 0x27, 0x4f, 0x13, 
 0x2d, 0xd6, 0xde, 0xb0, 0xf6, 0xca, 0x46, 0xb6, 0x78, 0xbe, 0x7a, 0x13, 
 0xfa, 0xd1, 0x3e, 0x41, 0xec, 0x01, 0x4c, 0x0c, 0xfc, 0xe9, 0xd2, 0x81, 
 0x14, 0xe2, 0x35, 0xf9, 0xe4, 0x6a, 0xed, 0x00, 0xbe, 0xbb, 0xad, 0xb4, 
 0x03, 0xef, 0xfc, 0x71, 0x3b, 0xa7, 0x7f, 0xd4, 0xa9, 0xf7, 0x44, 0x28, 
 0x29, 0x1f, 0xaf, 0x91, 0x41, 0xa1, 0x37, 0x19, 0x19, 0xc2, 0x38, 0x57, 
 0x0a, 0x55, 0x2b, 0x0f, 0xc6, 0xcd, 0xe5, 0xd8, 0xd8, 0x2e, 0xf4, 0xb8, 
 0x02, 0x40, 0x38, 0x2d, 0x67, 0x53, 0xf5, 0x53, 0xba, 0xc8, 0xfb, 0x72, 
 0xd4, 0xdb, 0xac, 0x42, 0x62, 0xe4, 0x32, 0xc4, 0x76, 0x56, 0xbf, 0x60, 
 0x90, 0x4d, 0x12, 0x81, 0x3d, 0xd3, 0x2c, 0xb0, 0xc4, 0xbe, 0xdd, 0x3f, 
 0x02, 0x4d, 0x6a, 0x20, 0xc7, 0x26, 0xf2, 0xce, 0xaf, 0xef, 0x14, 0xf9, 
 0xe6, 0xd6, 0xc7, 0xca, 0x0e, 0xd1, 0xe9, 0xfe, 0x5f, 0xfb, 0xe6, 0xe9, 
 0x0e, 0x4d, 0x0f, 0x0f, 0x04, 0x5a, 0x0e, 0xab, 0xf5, 0x25, 0x0f, 0x02, 
 0xeb, 0xcd, 0x08, 0x54, 0x4a, 0xf6, 0x7f, 0xff, 0xae, 0xda, 0x05, 0x42, 
 0x02, 0xf4, 0x14, 0xac, 0x26, 0x39, 0x05, 0xfa, 0x3e, 0x0e, 0x01, 0x03, 
 0x15, 0xd9, 0x01, 0xca, 0xd6, 0x2f, 0xfe, 0x3c, 0xae, 0xe5, 0xe3, 0x1a, 
 0xc6, 0xe5, 0xfc, 0xc0, 0x34, 0xfc, 0x16, 0xd7, 0x0d, 0xa5, 0x39, 0x6d, 
 0x0b, 0x22, 0x77, 0xf1, 0x06, 0xd1, 0x4d, 0xc9, 0x47, 0x89, 0xe3, 0x6b, 
 0xf2, 0xca, 0x2e, 0xa5, 0xff, 0x23, 0x72, 0x40, 0xf7, 0xee, 0x44, 0xf1, 
 0xc5, 0x52, 0x11, 0x7f, 0xd2, 0xfe, 0x6b, 0x37, 0xfc, 0xaf, 0xd3, 0x41, 
 0xaa, 0x3f, 0xd0, 0x1e, 0x4d, 0xe3, 0x35, 0xf1, 0xc4, 0x26, 0x9d, 0x05, 
 0x3d, 0x1a, 0x0b, 0x30, 0x45, 0x39, 0x9c, 0xaf, 0x9d, 0x13, 0x19, 0x49, 
 0x89, 0x2f, 0x33, 0xe3, 0xfc, 0x33, 0x18, 0x48, 0x72, 0x9c, 0xd4, 0x59, 
 0xb6, 0xc0, 0xd8, 0xd6, 0x08, 0xa6, 0x26, 0x27, 0x0b, 0xf8, 0x97, 0xfd, 
 0x08, 0xa2, 0xeb, 0x4f, 0x0b, 0xdc, 0x9e, 0xaf, 0x0f, 0xa9, 0x03, 0xee, 
 0xf9, 0xe6, 0xb0, 0xcf, 0xff, 0xd1, 0x8b, 0xe4, 0x03, 0x03, 0xec, 0x6b, 
 0xe5, 0x03, 0x60, 0xee, 0xe2, 0xd1, 0x14, 0x6a, 0x28, 0xbc, 0xbc, 0xd2, 
 0xa1, 0xc3, 0xc3, 0xf0, 0x35, 0x10, 0xd6, 0x1e, 0x81, 0x81, 0x33, 0xd8, 
 0xfe, 0x0b, 0xdf, 0x1f, 0x42, 0xf6, 0xff, 0xff, 0x04, 0x00, 0x00, 0x00, 
 0x9c, 0x00, 0x00, 0x00, 0x31, 0xfb, 0xff, 0xff, 0xb2, 0x01, 0x00, 0x00, 
 0xcf, 0xdc, 0xff, 0xff, 0x90, 0x0b, 0x00, 0x00, 0x54, 0xf1, 0xff, 0xff, 
 0x59, 0x06, 0x00, 0x00, 0x3f, 0xf2, 0xff, 0xff, 0x08, 0xf5, 0xff, 0xff, 
 0xa3, 0xf4, 0xff, 0xff, 0x25, 0xea, 0xff, 0xff, 0x46, 0xf5, 0xff, 0xff, 
 0xf3, 0xfd, 0xff, 0xff, 0xaf, 0x1b, 0x00, 0x00, 0x63, 0x09, 0x00, 0x00, 
 0x7d, 0x20, 0x00, 0x00, 0xf5, 0x04, 0x00, 0x00, 0x0f, 0x08, 0x00, 0x00, 
 0x79, 0xff, 0xff, 0xff, 0xcc, 0xfd, 0xff, 0xff, 0x3d, 0x10, 0x00, 0x00, 
 0xca, 0xf8, 0xff, 0xff, 0x2f, 0xf3, 0xff, 0xff, 0x4f, 0x04, 0x00, 0x00, 
 0x1e, 0xf5, 0xff, 0xff, 0x20, 0xf1, 0xff, 0xff, 0xc4, 0xfe, 0xff, 0xff, 
 0x28, 0xf2, 0xff, 0xff, 0x65, 0xf6, 0xff, 0xff, 0xc1, 0xfa, 0xff, 0xff, 
 0x5b, 0xc5, 0xff, 0xff, 0x42, 0x05, 0x00, 0x00, 0x1c, 0x04, 0x00, 0x00, 
 0x99, 0xfb, 0xff, 0xff, 0x54, 0xf6, 0xff, 0xff, 0x04, 0xfa, 0xff, 0xff, 
 0x60, 0x02, 0x00, 0x00, 0xb2, 0xfc, 0xff, 0xff, 0xf5, 0xed, 0xff, 0xff, 
 0xe8, 0x28, 0x00, 0x00, 0xea, 0xf6, 0xff, 0xff, 0x04, 0x00, 0x00, 0x00, 
 0xf1, 0x05, 0x00, 0x00, 0x40, 0x20, 0xf6, 0x59, 0xdd, 0x0d, 0x39, 0x71, 
 0xc2, 0xe0, 0x25, 0xb0, 0x09, 0xdc, 0xef, 0x03, 0x57, 0x27, 0xe7, 0xb0, 
 0x24, 0x3b, 0xc0, 0x81, 0x3c, 0x63, 0x38, 0x34, 0x0e, 0xef, 0x3d, 0x8f, 
 0x23, 0x41, 0xb1, 0xd0, 0x60, 0x16, 0xf4, 0xd2, 0x64, 0xff, 0xd7, 0xce, 
 0x42, 0xb6, 0xc9, 0x5a, 0x35, 0x7f, 0x69, 0x15, 0xdd, 0x22, 0x0c, 0xd0, 
 0xcd, 0x39, 0x26, 0x01, 0xe9, 0xd0, 0x13, 0x48, 0x17, 0xe0, 0xda, 0x54, 
 0xcd, 0xe3, 0x72, 0xe9, 0xb9, 0xd9, 0x10, 0xa3, 0x3a, 0x09, 0x3c, 0xec, 
 0x02, 0x2e, 0xdd, 0x5f, 0x16, 0xe2, 0xa0, 0xdc, 0xd5, 0x38, 0x30, 0xf7, 
 0x03, 0xce, 0xc9, 0x64, 0xd0, 0x4c, 0x29, 0xa7, 0x48, 0x27, 0xe9, 0x05, 
 0xe9, 0xc1, 0x07, 0x02, 0x0b, 0xd6, 0x7f, 0xd1, 0x26, 0x14, 0xb4, 0xbe, 
 0x4d, 0x31, 0x25, 0xb6, 0xb6, 0x7f, 0xbf, 0x18, 0xfe, 0x11, 0x1a, 0x5a, 
 0xd6, 0x00, 0xf9, 0x5c, 0xf6, 0xef, 0x50, 0x3a, 0x02, 0x44, 0x56, 0xc2, 
 0x6e, 0x4d, 0xd0, 0xc0, 0x74, 0xeb, 0xa8, 0xa7, 0x3a, 0x0c, 0x50, 0xcf, 
 0x36, 0xbe, 0xd7, 0x2e, 0x66, 0x7f, 0x39, 0xe3, 0x68, 0xa3, 0x34, 0xfc, 
 0x0d, 0x3e, 0x44, 0xf6, 0xfd, 0x0b, 0x57, 0xdd, 0xd7, 0x9f, 0x30, 0x54, 
 0x1f, 0x31, 0xbc, 0xee, 0x5f, 0xdd, 0x25, 0xee, 0x65, 0xb2, 0xe6, 0xe9, 
 0x33, 0xb0, 0x7d, 0xb7, 0xe7, 0x34, 0x3b, 0x30, 0x41, 0x2d, 0xfd, 0x6b, 
 0xcb, 0xfc, 0xfa, 0xca, 0xc9, 0x2a, 0xe3, 0xa8, 0x95, 0x2e, 0x53, 0x4a, 
 0x0c, 0xe9, 0x7f, 0x79, 0xf2, 0xbe, 0x59, 0x13, 0x3f, 0x17, 0xc7, 0x7a, 
 0x1e, 0x04, 0xe3, 0x4c, 0x48, 0x78, 0xbb, 0x0f, 0xbd, 0x0d, 0xc7, 0x70, 
 0xa6, 0x23, 0xc6, 0xe4, 0x05, 0xd1, 0xd8, 0x4d, 0xe2, 0xb8, 0x49, 0x00, 
 0xe6, 0x0f, 0x0d, 0xd0, 0xc1, 0x7c, 0x05, 0x45, 0xc9, 0xc0, 0x7f, 0x09, 
 0xd7, 0x18, 0xde, 0xb0, 0xb8, 0x53, 0x25, 0xaf, 0x71, 0xb0, 0x19, 0xe9, 
 0x4c, 0x52, 0x23, 0x34, 0x7f, 0xa6, 0x6c, 0x09, 0x26, 0xe5, 0x54, 0x5c, 
 0x86, 0xc9, 0x1b, 0x0a, 0xc5, 0xec, 0xad, 0x04, 0x99, 0x5f, 0xf0, 0x26, 
 0xe5, 0x9a, 0x58, 0xbe, 0x41, 0xc3, 0xe6, 0xc5, 0xe3, 0x34, 0x08, 0x9d, 
 0x45, 0x0d, 0x76, 0xf4, 0xe9, 0x53, 0x2a, 0x12, 0xcc, 0x4a, 0x39, 0xb7, 
 0xe6, 0x07, 0x45, 0x38, 0x01, 0x98, 0xd9, 0x0f, 0x9c, 0x4d, 0x69, 0x7f, 
 0xd6, 0x61, 0xde, 0x12, 0x26, 0x50, 0x19, 0xa7, 0x7a, 0x84, 0xd8, 0x7c, 
 0xb4, 0xa9, 0x47, 0xac, 0x47, 0x34, 0x40, 0x6d, 0xec, 0x61, 0xa3, 0x7f, 
 0x33, 0xe3, 0xa8, 0x2d, 0xb1, 0x0c, 0x30, 0xbb, 0x1c, 0x61, 0xdc, 0x04, 
 0xfc, 0x76, 0xc8, 0x29, 0x69, 0x4c, 0x68, 0x63, 0xa5, 0x11, 0x60, 0xec, 
 0x5e, 0xae, 0xd9, 0xf8, 0xe2, 0x3f, 0x54, 0xbb, 0x66, 0xbd, 0xde, 0x5f, 
 0x00, 0xad, 0x52, 0x28, 0x03, 0x06, 0x4b, 0xd7, 0xf7, 0xa6, 0x7f, 0xb2, 
 0x94, 0xe0, 0xc1, 0x5d, 0xb0, 0x46, 0xf7, 0xd5, 0x45, 0xa9, 0x3e, 0xc8, 
 0x07, 0xf7, 0x97, 0x58, 0x29, 0x5b, 0x09, 0xab, 0xd4, 0x3d, 0xe7, 0x5d, 
 0xfb, 0xfb, 0x1e, 0xb3, 0x27, 0xbf, 0x30, 0xf0, 0xc8, 0x15, 0xa6, 0x18, 
 0x16, 0x2f, 0x25, 0x18, 0x27, 0xe1, 0x70, 0xf8, 0xf9, 0xd8, 0xe2, 0x26, 
 0x45, 0xb0, 0x63, 0xd6, 0xa6, 0xda, 0x11, 0x3e, 0xbe, 0x4e, 0xc6, 0x50, 
 0x7f, 0x5c, 0xd5, 0x3c, 0xec, 0xc4, 0x1f, 0x08, 0xbd, 0xef, 0x44, 0x1f, 
 0x49, 0x62, 0x06, 0x85, 0x4b, 0xd7, 0xc5, 0x97, 0xcb, 0xe3, 0x31, 0x81, 
 0x3b, 0xe2, 0xae, 0xa1, 0x17, 0x21, 0xb5, 0xe3, 0x35, 0x24, 0x57, 0x9e, 
 0x36, 0x60, 0xa5, 0xac, 0xf9, 0x43, 0xee, 0x86, 0x30, 0x26, 0x3d, 0xe3, 
 0x5c, 0x37, 0xfd, 0x97, 0x91, 0x81, 0xc8, 0xd8, 0x7f, 0x71, 0x79, 0x4c, 
 0xdc, 0xd4, 0x4f, 0x20, 0x22, 0x6a, 0xc7, 0x8b, 0xbd, 0x9d, 0xd8, 0x32, 
 0xb9, 0x7e, 0xbf, 0x49, 0xd0, 0xa1, 0x17, 0xdf, 0x39, 0x3b, 0x2a, 0x7f, 
 0x4c, 0x52, 0xb9, 0x29, 0xcf, 0xe5, 0xcc, 0x28, 0x55, 0x3f, 0xbe, 0x87, 
 0x69, 0x5b, 0xa1, 0x20, 0x58, 0x67, 0xda, 0x6d, 0x28, 0xb0, 0xeb, 0x33, 
 0x3d, 0x47, 0x5b, 0xa3, 0xfe, 0x00, 0x2f, 0xa9, 0x68, 0x0b, 0x8a, 0x22, 
 0x77, 0xa0, 0xad, 0xc5, 0x74, 0xa9, 0x61, 0xcb, 0x09, 0xcd, 0xb5, 0xec, 
 0xc0, 0x07, 0xfc, 0xcb, 0x48, 0x19, 0x30, 0xa8, 0x67, 0xce, 0xbe, 0x67, 
 0x2a, 0xe3, 0xd6, 0x41, 0x27, 0x55, 0x47, 0x51, 0x48, 0x7f, 0xdb, 0xd0, 
 0x32, 0xe2, 0xed, 0x61, 0xb2, 0xc1, 0x06, 0x43, 0x88, 0x7f, 0x17, 0xfa, 
 0xff, 0xda, 0xce, 0xfd, 0xf5, 0x05, 0x5f, 0x49, 0xd9, 0x3a, 0xaa, 0x60, 
 0xec, 0x55, 0xf1, 0xb6, 0xd9, 0xe9, 0x09, 0x2a, 0x94, 0x41, 0x7b, 0x32, 
 0x23, 0x64, 0x35, 0xda, 0x48, 0xc4, 0x9e, 0xa5, 0x3c, 0xb5, 0x3c, 0x4e, 
 0xe0, 0x06, 0x21, 0xa1, 0x9f, 0x01, 0xc2, 0xf3, 0x7f, 0x28, 0xc7, 0x07, 
 0x62, 0x00, 0x04, 0x31, 0x53, 0xf0, 0xd9, 0x9d, 0x07, 0x54, 0xbc, 0xad, 
 0x02, 0x4c, 0xd2, 0x6e, 0xe6, 0x51, 0xd7, 0xb8, 0x01, 0x41, 0x03, 0x20, 
 0x13, 0x7f, 0xdc, 0x11, 0xa0, 0xbe, 0x1f, 0xf5, 0x24, 0xfb, 0x32, 0x12, 
 0xe8, 0x3d, 0x05, 0xc8, 0x9f, 0xbe, 0x02, 0x01, 0x0d, 0x01, 0xfa, 0x52, 
 0xd6, 0x00, 0xe7, 0xbd, 0x6d, 0xd1, 0x0c, 0x46, 0xda, 0x13, 0x57, 0x11, 
 0xcd, 0xd0, 0x37, 0x1c, 0x9f, 0xa0, 0xd0, 0xb8, 0xe8, 0x06, 0x7d, 0x17, 
 0x1c, 0x37, 0x93, 0x98, 0xea, 0xce, 0x44, 0xb3, 0x94, 0xd3, 0x17, 0x37, 
 0x5b, 0x4e, 0x7f, 0x0a, 0xc0, 0x00, 0x09, 0xeb, 0xbd, 0x06, 0xa2, 0x1a, 
 0x07, 0xc5, 0xea, 0xb5, 0x47, 0xd9, 0x2e, 0x7f, 0xf3, 0xc7, 0x92, 0x76, 
 0xe0, 0x8d, 0xf8, 0xb0, 0x94, 0x6f, 0x14, 0x1f, 0x8d, 0x3c, 0x46, 0xa8, 
 0x4a, 0x60, 0x98, 0x11, 0xf2, 0xe2, 0x34, 0x48, 0x81, 0x64, 0x48, 0x91, 
 0xc8, 0xde, 0x47, 0x58, 0x9b, 0x55, 0xb7, 0x3a, 0x10, 0xc0, 0xea, 0x45, 
 0xfd, 0xcf, 0x27, 0x13, 0xb5, 0x02, 0x23, 0x35, 0xce, 0xf1, 0x0a, 0xca, 
 0xb6, 0xdd, 0x63, 0x4f, 0x7f, 0xcd, 0x26, 0x12, 0x3f, 0x22, 0xfd, 0x65, 
 0xa6, 0xe2, 0x68, 0xbe, 0x00, 0x2e, 0xcb, 0xd1, 0x69, 0x58, 0x61, 0x0e, 
 0x55, 0xde, 0x49, 0xe1, 0xfd, 0x98, 0x28, 0x53, 0x5a, 0x49, 0x25, 0xb5, 
 0xd4, 0xea, 0xce, 0xc1, 0x32, 0x6d, 0x22, 0x53, 0xd3, 0x71, 0x2e, 0xab, 
 0xa0, 0x7f, 0x63, 0x4d, 0x2b, 0x69, 0x18, 0xb7, 0xbe, 0xd6, 0xf9, 0xe2, 
 0x37, 0x86, 0xf3, 0x2f, 0x42, 0x46, 0x54, 0xaa, 0xeb, 0x8c, 0xf8, 0xf4, 
 0x39, 0xc7, 0x10, 0x30, 0x6b, 0xfc, 0xc5, 0xf2, 0xdf, 0xb8, 0xf6, 0x0e, 
 0x2e, 0x08, 0x04, 0xdf, 0x40, 0x3e, 0xaf, 0x7f, 0xc2, 0xed, 0xc7, 0x30, 
 0x23, 0x4f, 0xd9, 0xda, 0x55, 0x73, 0xb8, 0xd2, 0xd7, 0x27, 0xd4, 0x56, 
 0xca, 0xfe, 0xe1, 0xb2, 0x8c, 0x75, 0x38, 0x9e, 0x67, 0x17, 0x31, 0x3b, 
 0xbb, 0x3c, 0xbd, 0x40, 0x52, 0x39, 0x6e, 0x52, 0x60, 0x15, 0x84, 0x84, 
 0x5a, 0x5f, 0x9b, 0x07, 0x81, 0xe5, 0xae, 0x52, 0x7f, 0x92, 0x2a, 0x11, 
 0xc8, 0xdf, 0xfc, 0x34, 0xae, 0x3e, 0xff, 0x3f, 0xf5, 0x56, 0xcf, 0xcd, 
 0x11, 0x01, 0x38, 0x52, 0x2d, 0x0c, 0xfc, 0x12, 0x34, 0xfe, 0x29, 0x13, 
 0xd7, 0xe6, 0xfe, 0xf9, 0xb5, 0xc8, 0xbc, 0xd6, 0x31, 0x54, 0x42, 0x1b, 
 0x40, 0xf1, 0xb0, 0x30, 0x17, 0x4d, 0xa8, 0x8f, 0x81, 0xe8, 0x28, 0xba, 
 0xe5, 0x2d, 0x52, 0x03, 0xd3, 0x12, 0x00, 0xfd, 0xc4, 0x2e, 0xbc, 0x34, 
 0xac, 0x37, 0x46, 0xd4, 0x0a, 0xb9, 0x9a, 0x2b, 0xbf, 0xe8, 0x37, 0x1c, 
 0x38, 0xd2, 0x7f, 0xcb, 0xf4, 0x69, 0xea, 0x1d, 0x8c, 0x77, 0xd1, 0x56, 
 0x6b, 0x33, 0xd5, 0x3d, 0xb7, 0x54, 0x1b, 0xad, 0x1b, 0xd8, 0xb4, 0x22, 
 0x10, 0xf9, 0xc3, 0x00, 0xbc, 0xec, 0xa6, 0x0f, 0xad, 0x41, 0xc0, 0xbc, 
 0xa0, 0x33, 0xdd, 0xe0, 0xaa, 0xe7, 0x9f, 0x45, 0x1a, 0xe3, 0x3e, 0xa5, 
 0xe4, 0xa3, 0xe9, 0xfe, 0x02, 0x61, 0xb2, 0xac, 0xfe, 0x37, 0xfb, 0xbc, 
 0x84, 0xcc, 0xb6, 0x43, 0x18, 0x8c, 0x1e, 0x6a, 0x37, 0xff, 0x88, 0x34, 
 0x01, 0xcc, 0xa9, 0xb8, 0x81, 0x2d, 0x01, 0xbe, 0xef, 0x39, 0x0c, 0x76, 
 0xa9, 0xdf, 0x25, 0x6a, 0xc9, 0xe7, 0x7f, 0x52, 0xf7, 0xb8, 0x1c, 0x32, 
 0xd5, 0x72, 0xfc, 0xf3, 0x5b, 0xbd, 0x6f, 0xc3, 0xb5, 0x44, 0x3f, 0xc4, 
 0x2f, 0xdd, 0xdc, 0x25, 0xd6, 0xf9, 0xfa, 0x45, 0x1f, 0x23, 0x00, 0xb7, 
 0xe6, 0x59, 0x36, 0x66, 0xe2, 0xc4, 0x26, 0xf2, 0x45, 0xeb, 0xbb, 0x7f, 
 0xb2, 0x26, 0x05, 0x52, 0xc9, 0xd8, 0x98, 0xbc, 0x4e, 0x3b, 0x42, 0x06, 
 0x20, 0xe5, 0xce, 0x04, 0x57, 0xba, 0x11, 0xf0, 0xfb, 0xfc, 0xf7, 0xba, 
 0x42, 0xdc, 0x3e, 0xac, 0x04, 0xd0, 0xec, 0x04, 0x01, 0xfb, 0xa1, 0x41, 
 0xfc, 0x03, 0xdf, 0x11, 0xe6, 0x19, 0x02, 0x3f, 0xf0, 0x79, 0x7f, 0xe0, 
 0x44, 0x12, 0x13, 0xbf, 0xee, 0x72, 0xb6, 0x34, 0x60, 0xa5, 0x37, 0x52, 
 0xac, 0xe8, 0x75, 0xf7, 0x36, 0x6a, 0x4d, 0xde, 0x72, 0x22, 0xae, 0xa2, 
 0x54, 0x04, 0x62, 0x6b, 0xd2, 0x06, 0x1f, 0x68, 0x2a, 0xfc, 0xee, 0xc2, 
 0xc8, 0x0e, 0x3b, 0x7f, 0x37, 0xb2, 0xfa, 0x1e, 0xc3, 0x1b, 0xff, 0x36, 
 0xd5, 0x40, 0x79, 0xde, 0xbe, 0xd7, 0x48, 0x7e, 0x26, 0xa2, 0xf9, 0xff, 
 0x8f, 0x60, 0xf8, 0x0c, 0x19, 0xd6, 0x61, 0x9f, 0x14, 0xc2, 0x7f, 0x03, 
 0xe5, 0x7d, 0x49, 0xb2, 0x90, 0x45, 0x6a, 0x4d, 0x12, 0x23, 0xd2, 0x9b, 
 0x85, 0x68, 0xc0, 0x07, 0x53, 0x72, 0xf5, 0x5a, 0x0b, 0xa4, 0x55, 0x78, 
 0xc9, 0x3a, 0x4e, 0xe8, 0x20, 0x00, 0x7f, 0x94, 0x27, 0x44, 0x02, 0xc5, 
 0x3e, 0x0e, 0x09, 0xa4, 0x14, 0x5d, 0xe1, 0x7c, 0xb7, 0x7b, 0x01, 0x22, 
 0x00, 0xaf, 0x75, 0xaf, 0xbd, 0xd9, 0x85, 0x12, 0xb8, 0xd5, 0xdc, 0x79, 
 0x53, 0xbc, 0xe8, 0x1e, 0x11, 0xb9, 0xdf, 0xc5, 0x26, 0x01, 0xa4, 0x04, 
 0xf2, 0xde, 0x6f, 0xce, 0x66, 0x0a, 0x0e, 0xc1, 0x1d, 0xc8, 0x06, 0x3f, 
 0xb9, 0x17, 0xe5, 0x4a, 0xe2, 0xd6, 0xc1, 0x6e, 0xbf, 0x2a, 0xce, 0x01, 
 0x7f, 0x4f, 0xe8, 0x5f, 0x2f, 0x9a, 0x61, 0x5e, 0xc3, 0x48, 0x61, 0x89, 
 0x27, 0x44, 0x9b, 0x69, 0x6d, 0x0e, 0xc0, 0x9c, 0xfb, 0x81, 0x1d, 0x33, 
 0x84, 0xbe, 0xf7, 0xfb, 0xae, 0x4e, 0xcf, 0x72, 0x8e, 0x6f, 0x9c, 0xe2, 
 0xf7, 0x53, 0x3d, 0x8b, 0xd8, 0x16, 0x04, 0xb4, 0xb2, 0x4c, 0xe3, 0x21, 
 0xc2, 0x06, 0x6a, 0xee, 0x43, 0xf4, 0xb3, 0x18, 0xf3, 0x23, 0xfb, 0xb3, 
 0xe8, 0x49, 0x81, 0x0c, 0xee, 0x48, 0xae, 0x31, 0xc2, 0x26, 0x26, 0x3e, 
 0x27, 0xa3, 0xe2, 0xa9, 0xe5, 0xfc, 0xc1, 0x1d, 0x22, 0x02, 0xff, 0xd5, 
 0x54, 0x46, 0x81, 0xe9, 0x5f, 0xdb, 0xee, 0x17, 0xdb, 0x15, 0x26, 0xc1, 
 0xbd, 0xa5, 0xfd, 0x23, 0xfb, 0xf2, 0xcd, 0xd3, 0xc2, 0x27, 0x32, 0x30, 
 0x6b, 0x35, 0x0f, 0x66, 0x1c, 0xe2, 0xb2, 0x03, 0xc7, 0xd1, 0xf6, 0x5b, 
 0xdd, 0x00, 0x00, 0x00, 0xea, 0xfc, 0xff, 0xff, 0x04, 0x00, 0x00, 0x00, 
 0x9c, 0x00, 0x00, 0x00, 0x07, 0x03, 0x00, 0x00, 0x7d, 0x04, 0x00, 0x00, 
 0xe5, 0x07, 0x00, 0x00, 0x20, 0x02, 0x00, 0x00, 0xe4, 0x05, 0x00, 0x00, 
 0x8e, 0x03, 0x00, 0x00, 0xa3, 0x06, 0x00, 0x00, 0x18, 0x0e, 0x00, 0x00, 
 0x6d, 0x01, 0x00, 0x00, 0xda, 0x04, 0x00, 0x00, 0xd8, 0x04, 0x00, 0x00, 
 0xeb, 0x09, 0x00, 0x00, 0x01, 0x07, 0x00, 0x00, 0xce, 0x14, 0x00, 0x00, 
 0x26, 0xfc, 0xff, 0xff, 0x0f, 0x09, 0x00, 0x00, 0x0b, 0x0b, 0x00, 0x00, 
 0x49, 0x0a, 0x00, 0x00, 0x2b, 0x0b, 0x00, 0x00, 0x16, 0xfd, 0xff, 0xff, 
 0x52, 0xfb, 0xff, 0xff, 0xdf, 0x06, 0x00, 0x00, 0x26, 0x03, 0x00, 0x00, 
 0xec, 0x04, 0x00, 0x00, 0x66, 0xfd, 0xff, 0xff, 0xc9, 0x03, 0x00, 0x00, 
 0x8f, 0x07, 0x00, 0x00, 0x64, 0x05, 0x00, 0x00, 0x5d, 0xfb, 0xff, 0xff, 
 0xd4, 0x01, 0x00, 0x00, 0x6a, 0x0b, 0x00, 0x00, 0x9d, 0x09, 0x00, 0x00, 
 0x1c, 0x00, 0x00, 0x00, 0xa0, 0xfb, 0xff, 0xff, 0x81, 0x03, 0x00, 0x00, 
 0x1e, 0x0e, 0x00, 0x00, 0x8a, 0xfb, 0xff, 0xff, 0x44, 0x02, 0x00, 0x00, 
 0xb7, 0x01, 0x00, 0x00, 0x92, 0xfd, 0xff, 0xff, 0x04, 0x00, 0x00, 0x00, 
 0x4e, 0x00, 0x00, 0x00, 0xdb, 0x68, 0xf3, 0x0e, 0x66, 0x21, 0x47, 0xde, 
 0x4d, 0x4b, 0xd5, 0x2b, 0xa4, 0x98, 0xcc, 0xe1, 0xd1, 0xa1, 0x0e, 0xfb, 
 0xb5, 0x2b, 0x50, 0xf1, 0x2e, 0x74, 0x15, 0x09, 0x1b, 0x3f, 0xab, 0x7f, 
 0x3c, 0xc8, 0xf9, 0x04, 0x12, 0x11, 0xe1, 0x2c, 0xc8, 0x2a, 0xcc, 0xbd, 
 0xcc, 0xd1, 0x5c, 0xf2, 0xf5, 0x24, 0x74, 0x5b, 0x7f, 0x9d, 0x63, 0x45, 
 0x3f, 0x65, 0x05, 0xd4, 0xa9, 0xa9, 0x23, 0x37, 0xf2, 0x35, 0xce, 0x26, 
 0x14, 0x6b, 0x83, 0xf5, 0xbe, 0xa5, 0x5e, 0x04, 0x48, 0x2d, 0x00, 0x00, 
 0xee, 0xfd, 0xff, 0xff, 0x04, 0x00, 0x00, 0x00, 0x08, 0x00, 0x00, 0x00, 
 0x24, 0x00, 0x00, 0x00, 0xd9, 0xff, 0xff, 0xff, 0x02, 0xfe, 0xff, 0xff, 
 0x04, 0x00, 0x00, 0x00, 0x04, 0x00, 0x00, 0x00, 0x01, 0x00, 0x00, 0x00, 
 0x12, 0xfe, 0xff, 0xff, 0x04, 0x00, 0x00, 0x00, 0x0c, 0x00, 0x00, 0x00, 
 0xff, 0xff, 0xff, 0xff, 0x20, 0x00, 0x00, 0x00, 0x27, 0x00, 0x00, 0x00, 
 0x2a, 0xfe, 0xff, 0xff, 0x04, 0x00, 0x00, 0x00, 0x0c, 0x00, 0x00, 0x00, 
 0xff, 0xff, 0xff, 0xff, 0x40, 0x00, 0x00, 0x00, 0x27, 0x00, 0x00, 0x00, 
 0x42, 0xfe, 0xff, 0xff, 0x04, 0x00, 0x00, 0x00, 0x0c, 0x00, 0x00, 0x00, 
 0xff, 0xff, 0xff, 0xff, 0x40, 0x00, 0x00, 0x00, 0x14, 0x00, 0x00, 0x00, 
 0x5a, 0xfe, 0xff, 0xff, 0x04, 0x00, 0x00, 0x00, 0x0c, 0x00, 0x00, 0x00, 
 0xff, 0xff, 0xff, 0xff, 0x80, 0x00, 0x00, 0x00, 0x14, 0x00, 0x00, 0x00, 
 0x72, 0xfe, 0xff, 0xff, 0x04, 0x00, 0x00, 0x00, 0x0c, 0x00, 0x00, 0x00, 
 0xff, 0xff, 0xff, 0xff, 0x80, 0x00, 0x00, 0x00, 0x0a, 0x00, 0x00, 0x00, 
 0x8a, 0xfe, 0xff, 0xff, 0x04, 0x00, 0x00, 0x00, 0x0c, 0x00, 0x00, 0x00, 
 0xff, 0xff, 0xff, 0xff, 0x00, 0x01, 0x00, 0x00, 0x0a, 0x00, 0x00, 0x00, 
 0xa2, 0xfe, 0xff, 0xff, 0x04, 0x00, 0x00, 0x00, 0x0c, 0x00, 0x00, 0x00, 
 0xff, 0xff, 0xff, 0xff, 0x00, 0x01, 0x00, 0x00, 0x05, 0x00, 0x00, 0x00, 
 0xba, 0xfe, 0xff, 0xff, 0x04, 0x00, 0x00, 0x00, 0x04, 0x00, 0x00, 0x00, 
 0x02, 0x00, 0x00, 0x00, 0xca, 0xfe, 0xff, 0xff, 0x04, 0x00, 0x00, 0x00, 
 0x0c, 0x00, 0x00, 0x00, 0xff, 0xff, 0xff, 0xff, 0x00, 0x02, 0x00, 0x00, 
 0x05, 0x00, 0x00, 0x00, 0xe2, 0xfe, 0xff, 0xff, 0x04, 0x00, 0x00, 0x00, 
 0x04, 0x00, 0x00, 0x00, 0xfd, 0xff, 0xff, 0xff, 0x98, 0xcc, 0xff, 0xff, 
 0x9c, 0xcc, 0xff, 0xff, 0x0f, 0x00, 0x00, 0x00, 0x4d, 0x4c, 0x49, 0x52, 
 0x20, 0x43, 0x6f, 0x6e, 0x76, 0x65, 0x72, 0x74, 0x65, 0x64, 0x2e, 0x00, 
 0x01, 0x00, 0x00, 0x00, 0x14, 0x00, 0x00, 0x00, 0x00, 0x00, 0x0e, 0x00, 
 0x18, 0x00, 0x14, 0x00, 0x10, 0x00, 0x0c, 0x00, 0x08, 0x00, 0x04, 0x00, 
 0x0e, 0x00, 0x00, 0x00, 0x14, 0x00, 0x00, 0x00, 0x1c, 0x00, 0x00, 0x00, 
 0x90, 0x06, 0x00, 0x00, 0x94, 0x06, 0x00, 0x00, 0x98, 0x06, 0x00, 0x00, 
 0x04, 0x00, 0x00, 0x00, 0x6d, 0x61, 0x69, 0x6e, 0x00, 0x00, 0x00, 0x00, 
 0x1e, 0x00, 0x00, 0x00, 0x58, 0x06, 0x00, 0x00, 0x18, 0x06, 0x00, 0x00, 
 0xb8, 0x05, 0x00, 0x00, 0x90, 0x05, 0x00, 0x00, 0x50, 0x05, 0x00, 0x00, 
 0xfc, 0x04, 0x00, 0x00, 0xd4, 0x04, 0x00, 0x00, 0xa0, 0x04, 0x00, 0x00, 
 0x5c, 0x04, 0x00, 0x00, 0x34, 0x04, 0x00, 0x00, 0x00, 0x04, 0x00, 0x00, 
 0xbc, 0x03, 0x00, 0x00, 0x94, 0x03, 0x00, 0x00, 0x60, 0x03, 0x00, 0x00, 
 0x1c, 0x03, 0x00, 0x00, 0xf4, 0x02, 0x00, 0x00, 0xc0, 0x02, 0x00, 0x00, 
 0x7c, 0x02, 0x00, 0x00, 0x54, 0x02, 0x00, 0x00, 0x20, 0x02, 0x00, 0x00, 
 0xdc, 0x01, 0x00, 0x00, 0xb4, 0x01, 0x00, 0x00, 0x80, 0x01, 0x00, 0x00, 
 0x3c, 0x01, 0x00, 0x00, 0x14, 0x01, 0x00, 0x00, 0xe0, 0x00, 0x00, 0x00, 
 0x9c, 0x00, 0x00, 0x00, 0x64, 0x00, 0x00, 0x00, 0x28, 0x00, 0x00, 0x00, 
 0x04, 0x00, 0x00, 0x00, 0xe6, 0xfa, 0xff, 0xff, 0x0c, 0x00, 0x00, 0x00, 
 0x10, 0x00, 0x00, 0x00, 0x08, 0x00, 0x00, 0x00, 0x01, 0x00, 0x00, 0x00, 
 0x35, 0x00, 0x00, 0x00, 0x01, 0x00, 0x00, 0x00, 0x34, 0x00, 0x00, 0x00, 
 0x8a, 0xfa, 0xff, 0xff, 0x1c, 0x00, 0x00, 0x00, 0x00, 0x00, 0x00, 0x09, 
 0x1c, 0x00, 0x00, 0x00, 0x20, 0x00, 0x00, 0x00, 0x07, 0x00, 0x00, 0x00, 
 0x00, 0x00, 0x06, 0x00, 0x08, 0x00, 0x04, 0x00, 0x06, 0x00, 0x00, 0x00, 
 0x00, 0x00, 0x80, 0x3f, 0x01, 0x00, 0x00, 0x00, 0x34, 0x00, 0x00, 0x00, 
 0x01, 0x00, 0x00, 0x00, 0x33, 0x00, 0x00, 0x00, 0xc2, 0xfa, 0xff, 0xff, 
 0x14, 0x00, 0x00, 0x00, 0x00, 0x00, 0x00, 0x08, 0x10, 0x00, 0x00, 0x00, 
 0x14, 0x00, 0x00, 0x00, 0x06, 0x00, 0x00, 0x00, 0xdc, 0xcd, 0xff, 0xff, 
 0x01, 0x00, 0x00, 0x00, 0x33, 0x00, 0x00, 0x00, 0x03, 0x00, 0x00, 0x00, 
 0x32, 0x00, 0x00, 0x00, 0x0d, 0x00, 0x00, 0x00, 0x0c, 0x00, 0x00, 0x00, 
 0xf6, 0xfa, 0xff, 0xff, 0x1c, 0x00, 0x00, 0x00, 0x00, 0x00, 0x00, 0x08, 
 0x1c, 0x00, 0x00, 0x00, 0x20, 0x00, 0x00, 0x00, 0x06, 0x00, 0x00, 0x00, 
 0x00, 0x00, 0x06, 0x00, 0x08, 0x00, 0x07, 0x00, 0x06, 0x00, 0x00, 0x00, 
 0x00, 0x00, 0x00, 0x01, 0x01, 0x00, 0x00, 0x00, 0x32, 0x00, 0x00, 0x00, 
 0x03, 0x00, 0x00, 0x00, 0x31, 0x00, 0x00, 0x00, 0x0f, 0x00, 0x00, 0x00, 
 0x0e, 0x00, 0x00, 0x00, 0x36, 0xfb, 0xff, 0xff, 0x14, 0x00, 0x00, 0x00, 
 0x00, 0x00, 0x00, 0x1b, 0x10, 0x00, 0x00, 0x00, 0x14, 0x00, 0x00, 0x00, 
 0x05, 0x00, 0x00, 0x00, 0x50, 0xce, 0xff, 0xff, 0x01, 0x00, 0x00, 0x00, 
 0x31, 0x00, 0x00, 0x00, 0x02, 0x00, 0x00, 0x00, 0x30, 0x00, 0x00, 0x00, 
 0x0b, 0x00, 0x00, 0x00, 0xe2, 0xfb, 0xff, 0xff, 0x0c, 0x00, 0x00, 0x00, 
 0x10, 0x00, 0x00, 0x00, 0x03, 0x00, 0x00, 0x00, 0x01, 0x00, 0x00, 0x00, 
 0x30, 0x00, 0x00, 0x00, 0x02, 0x00, 0x00, 0x00, 0x2f, 0x00, 0x00, 0x00, 
 0x0a, 0x00, 0x00, 0x00, 0x8a, 0xfb, 0xff, 0xff, 0x14, 0x00, 0x00, 0x00, 
 0x00, 0x00, 0x00, 0x05, 0x24, 0x00, 0x00, 0x00, 0x28, 0x00, 0x00, 0x00, 
 0x04, 0x00, 0x00, 0x00, 0x86, 0xfc, 0xff, 0xff, 0x02, 0x00, 0x00, 0x00, 
 0x01, 0x00, 0x00, 0x00, 0x02, 0x00, 0x00, 0x00, 0x01, 0x00, 0x00, 0x00, 
 0x00, 0x00, 0x00, 0x01, 0x01, 0x00, 0x00, 0x00, 0x2f, 0x00, 0x00, 0x00, 
 0x01, 0x00, 0x00, 0x00, 0x2e, 0x00, 0x00, 0x00, 0xca, 0xfb, 0xff, 0xff, 
 0x14, 0x00, 0x00, 0x00, 0x00, 0x00, 0x00, 0x34, 0x10, 0x00, 0x00, 0x00, 
 0x14, 0x00, 0x00, 0x00, 0x01, 0x00, 0x00, 0x00, 0xe4, 0xce, 0xff, 0xff, 
 0x01, 0x00, 0x00, 0x00, 0x2e, 0x00, 0x00, 0x00, 0x02, 0x00, 0x00, 0x00, 
 0x2d, 0x00, 0x00, 0x00, 0x03, 0x00, 0x00, 0x00, 0x76, 0xfc, 0xff, 0xff, 
 0x0c, 0x00, 0x00, 0x00, 0x10, 0x00, 0x00, 0x00, 0x03, 0x00, 0x00, 0x00, 
 0x01, 0x00, 0x00, 0x00, 0x2d, 0x00, 0x00, 0x00, 0x02, 0x00, 0x00, 0x00, 
 0x2c, 0x00, 0x00, 0x00, 0x09, 0x00, 0x00, 0x00, 0x1e, 0xfc, 0xff, 0xff, 
 0x14, 0x00, 0x00, 0x00, 0x00, 0x00, 0x00, 0x01, 0x1c, 0x00, 0x00, 0x00, 
 0x20, 0x00, 0x00, 0x00, 0x02, 0x00, 0x00, 0x00, 0x6c, 0xfc, 0xff, 0xff, 
 0x00, 0x00, 0x00, 0x01, 0x01, 0x00, 0x00, 0x00, 0x01, 0x00, 0x00, 0x00, 
 0x01, 0x00, 0x00, 0x00, 0x2c, 0x00, 0x00, 0x00, 0x03, 0x00, 0x00, 0x00, 
 0x2b, 0x00, 0x00, 0x00, 0x11, 0x00, 0x00, 0x00, 0x10, 0x00, 0x00, 0x00, 
 0x5e, 0xfc, 0xff, 0xff, 0x14, 0x00, 0x00, 0x00, 0x00, 0x00, 0x00, 0x34, 
 0x10, 0x00, 0x00, 0x00, 0x14, 0x00, 0x00, 0x00, 0x01, 0x00, 0x00, 0x00, 
 0x78, 0xcf, 0xff, 0xff, 0x01, 0x00, 0x00, 0x00, 0x2b, 0x00, 0x00, 0x00, 
 0x02, 0x00, 0x00, 0x00, 0x2a, 0x00, 0x00, 0x00, 0x01, 0x00, 0x00, 0x00, 
 0x0a, 0xfd, 0xff, 0xff, 0x0c, 0x00, 0x00, 0x00, 0x10, 0x00, 0x00, 0x00, 
 0x03, 0x00, 0x00, 0x00, 0x01, 0x00, 0x00, 0x00, 0x2a, 0x00, 0x00, 0x00, 
 0x02, 0x00, 0x00, 0x00, 0x29, 0x00, 0x00, 0x00, 0x08, 0x00, 0x00, 0x00, 
 0xb2, 0xfc, 0xff, 0xff, 0x14, 0x00, 0x00, 0x00, 0x00, 0x00, 0x00, 0x05, 
 0x24, 0x00, 0x00, 0x00, 0x28, 0x00, 0x00, 0x00, 0x04, 0x00, 0x00, 0x00, 
 0xae, 0xfd, 0xff, 0xff, 0x02, 0x00, 0x00, 0x00, 0x01, 0x00, 0x00, 0x00, 
 0x02, 0x00, 0x00, 0x00, 0x01, 0x00, 0x00, 0x00, 0x00, 0x00, 0x00, 0x01, 
 0x01, 0x00, 0x00, 0x00, 0x29, 0x00, 0x00, 0x00, 0x01, 0x00, 0x00, 0x00, 
 0x28, 0x00, 0x00, 0x00, 0xf2, 0xfc, 0xff, 0xff, 0x14, 0x00, 0x00, 0x00, 
 0x00, 0x00, 0x00, 0x34, 0x10, 0x00, 0x00, 0x00, 0x14, 0x00, 0x00, 0x00, 
 0x01, 0x00, 0x00, 0x00, 0x0c, 0xd0, 0xff, 0xff, 0x01, 0x00, 0x00, 0x00, 
 0x28, 0x00, 0x00, 0x00, 0x02, 0x00, 0x00, 0x00, 0x27, 0x00, 0x00, 0x00, 
 0x03, 0x00, 0x00, 0x00, 0x9e, 0xfd, 0xff, 0xff, 0x0c, 0x00, 0x00, 0x00, 
 0x10, 0x00, 0x00, 0x00, 0x03, 0x00, 0x00, 0x00, 0x01, 0x00, 0x00, 0x00, 
 0x27, 0x00, 0x00, 0x00, 0x02, 0x00, 0x00, 0x00, 0x26, 0x00, 0x00, 0x00, 
 0x07, 0x00, 0x00, 0x00, 0x46, 0xfd, 0xff, 0xff, 0x14, 0x00, 0x00, 0x00, 
 0x00, 0x00, 0x00, 0x01, 0x1c, 0x00, 0x00, 0x00, 0x20, 0x00, 0x00, 0x00, 
 0x02, 0x00, 0x00, 0x00, 0x94, 0xfd, 0xff, 0xff, 0x00, 0x00, 0x00, 0x01, 
 0x01, 0x00, 0x00, 0x00, 0x01, 0x00, 0x00, 0x00, 0x01, 0x00, 0x00, 0x00, 
 0x26, 0x00, 0x00, 0x00, 0x03, 0x00, 0x00, 0x00, 0x25, 0x00, 0x00, 0x00, 
 0x13, 0x00, 0x00, 0x00, 0x12, 0x00, 0x00, 0x00, 0x86, 0xfd, 0xff, 0xff, 
 0x14, 0x00, 0x00, 0x00, 0x00, 0x00, 0x00, 0x34, 0x10, 0x00, 0x00, 0x00, 
 0x14, 0x00, 0x00, 0x00, 0x01, 0x00, 0x00, 0x00, 0xa0, 0xd0, 0xff, 0xff, 
 0x01, 0x00, 0x00, 0x00, 0x25, 0x00, 0x00, 0x00, 0x02, 0x00, 0x00, 0x00, 
 0x24, 0x00, 0x00, 0x00, 0x01, 0x00, 0x00, 0x00, 0x32, 0xfe, 0xff, 0xff, 
 0x0c, 0x00, 0x00, 0x00, 0x10, 0x00, 0x00, 0x00, 0x03, 0x00, 0x00, 0x00, 
 0x01, 0x00, 0x00, 0x00, 0x24, 0x00, 0x00, 0x00, 0x02, 0x00, 0x00, 0x00, 
 0x23, 0x00, 0x00, 0x00, 0x06, 0x00, 0x00, 0x00, 0xda, 0xfd, 0xff, 0xff, 
 0x14, 0x00, 0x00, 0x00, 0x00, 0x00, 0x00, 0x05, 0x24, 0x00, 0x00, 0x00, 
 0x28, 0x00, 0x00, 0x00, 0x04, 0x00, 0x00, 0x00, 0xd6, 0xfe, 0xff, 0xff, 
 0x02, 0x00, 0x00, 0x00, 0x01, 0x00, 0x00, 0x00, 0x02, 0x00, 0x00, 0x00, 
 0x01, 0x00, 0x00, 0x00, 0x00, 0x00, 0x00, 0x01, 0x01, 0x00, 0x00, 0x00, 
 0x23, 0x00, 0x00, 0x00, 0x01, 0x00, 0x00, 0x00, 0x22, 0x00, 0x00, 0x00, 
 0x1a, 0xfe, 0xff, 0xff, 0x14, 0x00, 0x00, 0x00, 0x00, 0x00, 0x00, 0x34, 
 0x10, 0x00, 0x00, 0x00, 0x14, 0x00, 0x00, 0x00, 0x01, 0x00, 0x00, 0x00, 
 0x34, 0xd1, 0xff, 0xff, 0x01, 0x00, 0x00, 0x00, 0x22, 0x00, 0x00, 0x00, 
 0x02, 0x00, 0x00, 0x00, 0x21, 0x00, 0x00, 0x00, 0x03, 0x00, 0x00, 0x00, 
 0xc6, 0xfe, 0xff, 0xff, 0x0c, 0x00, 0x00, 0x00, 0x10, 0x00, 0x00, 0x00, 
 0x03, 0x00, 0x00, 0x00, 0x01, 0x00, 0x00, 0x00, 0x21, 0x00, 0x00, 0x00, 
 0x02, 0x00, 0x00, 0x00, 0x20, 0x00, 0x00, 0x00, 0x05, 0x00, 0x00, 0x00, 
 0x6e, 0xfe, 0xff, 0xff, 0x14, 0x00, 0x00, 0x00, 0x00, 0x00, 0x00, 0x01, 
 0x1c, 0x00, 0x00, 0x00, 0x20, 0x00, 0x00, 0x00, 0x02, 0x00, 0x00, 0x00, 
 0xbc, 0xfe, 0xff, 0xff, 0x00, 0x00, 0x00, 0x01, 0x01, 0x00, 0x00, 0x00, 
 0x01, 0x00, 0x00, 0x00, 0x01, 0x00, 0x00, 0x00, 0x20, 0x00, 0x00, 0x00, 
 0x03, 0x00, 0x00, 0x00, 0x1f, 0x00, 0x00, 0x00, 0x15, 0x00, 0x00, 0x00, 
 0x14, 0x00, 0x00, 0x00, 0xae, 0xfe, 0xff, 0xff, 0x14, 0x00, 0x00, 0x00, 
 0x00, 0x00, 0x00, 0x34, 0x10, 0x00, 0x00, 0x00, 0x14, 0x00, 0x00, 0x00, 
 0x01, 0x00, 0x00, 0x00, 0xc8, 0xd1, 0xff, 0xff, 0x01, 0x00, 0x00, 0x00, 
 0x1f, 0x00, 0x00, 0x00, 0x02, 0x00, 0x00, 0x00, 0x1e, 0x00, 0x00, 0x00, 
 0x01, 0x00, 0x00, 0x00, 0x5a, 0xff, 0xff, 0xff, 0x0c, 0x00, 0x00, 0x00, 
 0x10, 0x00, 0x00, 0x00, 0x03, 0x00, 0x00, 0x00, 0x01, 0x00, 0x00, 0x00, 
 0x1e, 0x00, 0x00, 0x00, 0x02, 0x00, 0x00, 0x00, 0x1d, 0x00, 0x00, 0x00, 
 0x04, 0x00, 0x00, 0x00, 0x02, 0xff, 0xff, 0xff, 0x24, 0x00, 0x00, 0x00, 
 0x00, 0x00, 0x00, 0x05, 0x34, 0x00, 0x00, 0x00, 0x38, 0x00, 0x00, 0x00, 
 0x04, 0x00, 0x00, 0x00, 0x00, 0x00, 0x0e, 0x00, 0x18, 0x00, 0x17, 0x00, 
 0x10, 0x00, 0x0c, 0x00, 0x08, 0x00, 0x04, 0x00, 0x0e, 0x00, 0x00, 0x00, 
 0x02, 0x00, 0x00, 0x00, 0x01, 0x00, 0x00, 0x00, 0x02, 0x00, 0x00, 0x00, 
 0x01, 0x00, 0x00, 0x00, 0x00, 0x00, 0x00, 0x01, 0x01, 0x00, 0x00, 0x00, 
 0x1d, 0x00, 0x00, 0x00, 0x01, 0x00, 0x00, 0x00, 0x1c, 0x00, 0x00, 0x00, 
 0x52, 0xff, 0xff, 0xff, 0x14, 0x00, 0x00, 0x00, 0x00, 0x00, 0x00, 0x34, 
 0x10, 0x00, 0x00, 0x00, 0x14, 0x00, 0x00, 0x00, 0x01, 0x00, 0x00, 0x00, 
 0x6c, 0xd2, 0xff, 0xff, 0x01, 0x00, 0x00, 0x00, 0x1c, 0x00, 0x00, 0x00, 
 0x02, 0x00, 0x00, 0x00, 0x1b, 0x00, 0x00, 0x00, 0x03, 0x00, 0x00, 0x00, 
 0x00, 0x00, 0x0a, 0x00, 0x10, 0x00, 0x0c, 0x00, 0x08, 0x00, 0x04, 0x00, 
 0x0a, 0x00, 0x00, 0x00, 0x0c, 0x00, 0x00, 0x00, 0x10, 0x00, 0x00, 0x00, 
 0x03, 0x00, 0x00, 0x00, 0x01, 0x00, 0x00, 0x00, 0x1b, 0x00, 0x00, 0x00, 
 0x02, 0x00, 0x00, 0x00, 0x1a, 0x00, 0x00, 0x00, 0x02, 0x00, 0x00, 0x00, 
 0xb2, 0xff, 0xff, 0xff, 0x20, 0x00, 0x00, 0x00, 0x00, 0x00, 0x00, 0x01, 
 0x28, 0x00, 0x00, 0x00, 0x2c, 0x00, 0x00, 0x00, 0x02, 0x00, 0x00, 0x00, 
 0x0c, 0x00, 0x10, 0x00, 0x00, 0x00, 0x0c, 0x00, 0x08, 0x00, 0x07, 0x00, 
 0x0c, 0x00, 0x00, 0x00, 0x00, 0x00, 0x00, 0x01, 0x01, 0x00, 0x00, 0x00, 
 0x01, 0x00, 0x00, 0x00, 0x01, 0x00, 0x00, 0x00, 0x1a, 0x00, 0x00, 0x00, 
 0x03, 0x00, 0x00, 0x00, 0x19, 0x00, 0x00, 0x00, 0x17, 0x00, 0x00, 0x00, 
 0x16, 0x00, 0x00, 0x00, 0x00, 0x00, 0x0e, 0x00, 0x18, 0x00, 0x14, 0x00, 
 0x10, 0x00, 0x0c, 0x00, 0x0b, 0x00, 0x04, 0x00, 0x0e, 0x00, 0x00, 0x00, 
 0x14, 0x00, 0x00, 0x00, 0x00, 0x00, 0x00, 0x34, 0x10, 0x00, 0x00, 0x00, 
 0x14, 0x00, 0x00, 0x00, 0x01, 0x00, 0x00, 0x00, 0x28, 0xd3, 0xff, 0xff, 
 0x01, 0x00, 0x00, 0x00, 0x19, 0x00, 0x00, 0x00, 0x02, 0x00, 0x00, 0x00, 
 0x18, 0x00, 0x00, 0x00, 0x01, 0x00, 0x00, 0x00, 0x00, 0x00, 0x0a, 0x00, 
 0x0c, 0x00, 0x00, 0x00, 0x08, 0x00, 0x04, 0x00, 0x0a, 0x00, 0x00, 0x00, 
 0x08, 0x00, 0x00, 0x00, 0x0c, 0x00, 0x00, 0x00, 0x01, 0x00, 0x00, 0x00, 
 0x18, 0x00, 0x00, 0x00, 0x01, 0x00, 0x00, 0x00, 0x00, 0x00, 0x00, 0x00, 
 0x01, 0x00, 0x00, 0x00, 0x35, 0x00, 0x00, 0x00, 0x01, 0x00, 0x00, 0x00, 
 0x00, 0x00, 0x00, 0x00, 0x36, 0x00, 0x00, 0x00, 0x58, 0x2c, 0x00, 0x00, 
 0x04, 0x2c, 0x00, 0x00, 0xac, 0x2b, 0x00, 0x00, 0x70, 0x2b, 0x00, 0x00, 
 0x30, 0x2b, 0x00, 0x00, 0xf0, 0x2a, 0x00, 0x00, 0xb0, 0x2a, 0x00, 0x00, 
 0x70, 0x2a, 0x00, 0x00, 0x30, 0x2a, 0x00, 0x00, 0xf0, 0x29, 0x00, 0x00, 
 0xb0, 0x29, 0x00, 0x00, 0x70, 0x29, 0x00, 0x00, 0xf4, 0x28, 0x00, 0x00, 
 0x84, 0x28, 0x00, 0x00, 0x58, 0x26, 0x00, 0x00, 0x2c, 0x24, 0x00, 0x00, 
 0x00, 0x22, 0x00, 0x00, 0xcc, 0x1f, 0x00, 0x00, 0x88, 0x1e, 0x00, 0x00, 
 0x34, 0x1d, 0x00, 0x00, 0x68, 0x1c, 0x00, 0x00, 0x8c, 0x1b, 0x00, 0x00, 
 0xf8, 0x1a, 0x00, 0x00, 0x5c, 0x1a, 0x00, 0x00, 0xe4, 0x19, 0x00, 0x00, 
 0x24, 0x19, 0x00, 0x00, 0x70, 0x17, 0x00, 0x00, 0xe8, 0x15, 0x00, 0x00, 
 0x48, 0x15, 0x00, 0x00, 0xac, 0x14, 0x00, 0x00, 0x14, 0x14, 0x00, 0x00, 
 0x6c, 0x13, 0x00, 0x00, 0xb8, 0x11, 0x00, 0x00, 0x30, 0x10, 0x00, 0x00, 
 0x90, 0x0f, 0x00, 0x00, 0xf4, 0x0e, 0x00, 0x00, 0x5c, 0x0e, 0x00, 0x00, 
 0xb4, 0x0d, 0x00, 0x00, 0x00, 0x0c, 0x00, 0x00, 0x78, 0x0a, 0x00, 0x00, 
 0xd8, 0x09, 0x00, 0x00, 0x3c, 0x09, 0x00, 0x00, 0xa4, 0x08, 0x00, 0x00, 
 0xfc, 0x07, 0x00, 0x00, 0x48, 0x06, 0x00, 0x00, 0xc0, 0x04, 0x00, 0x00, 
 0x20, 0x04, 0x00, 0x00, 0x84, 0x03, 0x00, 0x00, 0xec, 0x02, 0x00, 0x00, 
 0x64, 0x02, 0x00, 0x00, 0x90, 0x01, 0x00, 0x00, 0xdc, 0x00, 0x00, 0x00, 
 0x60, 0x00, 0x00, 0x00, 0x04, 0x00, 0x00, 0x00, 0x96, 0xd4, 0xff, 0xff, 
 0x00, 0x00, 0x00, 0x01, 0x14, 0x00, 0x00, 0x00, 0x1c, 0x00, 0x00, 0x00, 
 0x1c, 0x00, 0x00, 0x00, 0x36, 0x00, 0x00, 0x00, 0x34, 0x00, 0x00, 0x00, 
 0x02, 0x00, 0x00, 0x00, 0xff, 0xff, 0xff, 0xff, 0x02, 0x00, 0x00, 0x00, 
 0x7c, 0xd4, 0xff, 0xff, 0x19, 0x00, 0x00, 0x00, 0x53, 0x74, 0x61, 0x74, 
 0x65, 0x66, 0x75, 0x6c, 0x50, 0x61, 0x72, 0x74, 0x69, 0x74, 0x69, 0x6f, 
 0x6e, 0x65, 0x64, 0x43, 0x61, 0x6c, 0x6c, 0x3a, 0x30, 0x00, 0x00, 0x00, 
 0x02, 0x00, 0x00, 0x00, 0x01, 0x00, 0x00, 0x00, 0x02, 0x00, 0x00, 0x00, 
 0x02, 0xe7, 0xff, 0xff, 0x00, 0x00, 0x00, 0x01, 0x18, 0x00, 0x00, 0x00, 
 0x20, 0x00, 0x00, 0x00, 0x3c, 0x00, 0x00, 0x00, 0x35, 0x00, 0x00, 0x00, 
 0x00, 0x00, 0x00, 0x09, 0x50, 0x00, 0x00, 0x00, 0x02, 0x00, 0x00, 0x00, 
 0xff, 0xff, 0xff, 0xff, 0x02, 0x00, 0x00, 0x00, 0x1c, 0xd8, 0xff, 0xff, 
 0x08, 0x00, 0x00, 0x00, 0x10, 0x00, 0x00, 0x00, 0x01, 0x00, 0x00, 0x00, 
 0x80, 0xff, 0xff, 0xff, 0xff, 0xff, 0xff, 0xff, 0x01, 0x00, 0x00, 0x00, 
 0x00, 0x00, 0x80, 0x3b, 0x1a, 0x00, 0x00, 0x00, 0x53, 0x74, 0x61, 0x74, 
 0x65, 0x66, 0x75, 0x6c, 0x50, 0x61, 0x72, 0x74, 0x69, 0x74, 0x69, 0x6f, 
 0x6e, 0x65, 0x64, 0x43, 0x61, 0x6c, 0x6c, 0x3a, 0x30, 0x31, 0x00, 0x00, 
 0x02, 0x00, 0x00, 0x00, 0x01, 0x00, 0x00, 0x00, 0x02, 0x00, 0x00, 0x00, 
 0x7a, 0xe7, 0xff, 0xff, 0x00, 0x00, 0x00, 0x01, 0x18, 0x00, 0x00, 0x00, 
 0x20, 0x00, 0x00, 0x00, 0x3c, 0x00, 0x00, 0x00, 0x34, 0x00, 0x00, 0x00, 
 0x00, 0x00, 0x00, 0x09, 0x88, 0x00, 0x00, 0x00, 0x02, 0x00, 0x00, 0x00, 
 0xff, 0xff, 0xff, 0xff, 0x02, 0x00, 0x00, 0x00, 0x94, 0xd8, 0xff, 0xff, 
 0x08, 0x00, 0x00, 0x00, 0x10, 0x00, 0x00, 0x00, 0x01, 0x00, 0x00, 0x00, 
 0xfb, 0xff, 0xff, 0xff, 0xff, 0xff, 0xff, 0xff, 0x01, 0x00, 0x00, 0x00, 
 0x78, 0x8c, 0xa0, 0x3c, 0x50, 0x00, 0x00, 0x00, 0x63, 0x6e, 0x6e, 0x31, 
 0x64, 0x5f, 0x62, 0x6c, 0x6f, 0x63, 0x6b, 0x73, 0x34, 0x5f, 0x73, 0x74, 
 0x72, 0x75, 0x63, 0x74, 0x5f, 0x70, 0x72, 0x75, 0x6e, 0x65, 0x64, 0x2f, 
 0x70, 0x72, 0x65, 0x64, 0x2f, 0x4d, 0x61, 0x74, 0x4d, 0x75, 0x6c, 0x3b, 
 0x63, 0x6e, 0x6e, 0x31, 0x64, 0x5f, 0x62, 0x6c, 0x6f, 0x63, 0x6b, 0x73, 
 0x34, 0x5f, 0x73, 0x74, 0x72, 0x75, 0x63, 0x74, 0x5f, 0x70, 0x72, 0x75, 
 0x6e, 0x65, 0x64, 0x2f, 0x70, 0x72, 0x65, 0x64, 0x2f, 0x42, 0x69, 0x61, 
 0x73, 0x41, 0x64, 0x64, 0x00, 0x00, 0x00, 0x00, 0x02, 0x00, 0x00, 0x00, 
 0x01, 0x00, 0x00, 0x00, 0x02, 0x00, 0x00, 0x00, 0x2a, 0xe8, 0xff, 0xff, 
 0x00, 0x00, 0x00, 0x01, 0x18, 0x00, 0x00, 0x00, 0x20, 0x00, 0x00, 0x00, 
 0x3c, 0x00, 0x00, 0x00, 0x33, 0x00, 0x00, 0x00, 0x00, 0x00, 0x00, 0x09, 
 0xa8, 0x00, 0x00, 0x00, 0x02, 0x00, 0x00, 0x00, 0xff, 0xff, 0xff, 0xff, 
 0x27, 0x00, 0x00, 0x00, 0x44, 0xd9, 0xff, 0xff, 0x08, 0x00, 0x00, 0x00, 
 0x10, 0x00, 0x00, 0x00, 0x01, 0x00, 0x00, 0x00, 0x80, 0xff, 0xff, 0xff, 
 0xff, 0xff, 0xff, 0xff, 0x01, 0x00, 0x00, 0x00, 0x90, 0x8b, 0xc0, 0x3b, 
 0x70, 0x00, 0x00, 0x00, 0x63, 0x6e, 0x6e, 0x31, 0x64, 0x5f, 0x62, 0x6c, 
 0x6f, 0x63, 0x6b, 0x73, 0x34, 0x5f, 0x73, 0x74, 0x72, 0x75, 0x63, 0x74, 
 0x5f, 0x70, 0x72, 0x75, 0x6e, 0x65, 0x64, 0x2f, 0x66, 0x63, 0x2f, 0x4d, 
 0x61, 0x74, 0x4d, 0x75, 0x6c, 0x3b, 0x63, 0x6e, 0x6e, 0x31, 0x64, 0x5f, 
 0x62, 0x6c, 0x6f, 0x63, 0x6b, 0x73, 0x34, 0x5f, 0x73, 0x74, 0x72, 0x75, 
 0x63, 0x74, 0x5f, 0x70, 0x72, 0x75, 0x6e, 0x65, 0x64, 0x2f, 0x66, 0x63, 
 0x2f, 0x52, 0x65, 0x6c, 0x75, 0x3b, 0x63, 0x6e, 0x6e, 0x31, 0x64, 0x5f, 
 0x62, 0x6c, 0x6f, 0x63, 0x6b, 0x73, 0x34, 0x5f, 0x73, 0x74, 0x72, 0x75, 
 0x63, 0x74, 0x5f, 0x70, 0x72, 0x75, 0x6e, 0x65, 0x64, 0x2f, 0x66, 0x63, 
 0x2f, 0x42, 0x69, 0x61, 0x73, 0x41, 0x64, 0x64, 0x00, 0x00, 0x00, 0x00, 
 0x02, 0x00, 0x00, 0x00, 0x01, 0x00, 0x00, 0x00, 0x27, 0x00, 0x00, 0x00, 
 0xfa, 0xe8, 0xff, 0xff, 0x00, 0x00, 0x00, 0x01, 0x18, 0x00, 0x00, 0x00, 
 0x20, 0x00, 0x00, 0x00, 0x3c, 0x00, 0x00, 0x00, 0x32, 0x00, 0x00, 0x00, 
 0x00, 0x00, 0x00, 0x09, 0x5c, 0x00, 0x00, 0x00, 0x02, 0x00, 0x00, 0x00, 
 0xff, 0xff, 0xff, 0xff, 0x27, 0x00, 0x00, 0x00, 0x14, 0xda, 0xff, 0xff, 
 0x08, 0x00, 0x00, 0x00, 0x10, 0x00, 0x00, 0x00, 0x01, 0x00, 0x00, 0x00, 
 0x80, 0xff, 0xff, 0xff, 0xff, 0xff, 0xff, 0xff, 0x01, 0x00, 0x00, 0x00, 
 0xfe, 0xba, 0x05, 0x3c, 0x24, 0x00, 0x00, 0x00, 0x63, 0x6e, 0x6e, 0x31, 
 0x64, 0x5f, 0x62, 0x6c, 0x6f, 0x63, 0x6b, 0x73, 0x34, 0x5f, 0x73, 0x74, 
 0x72, 0x75, 0x63, 0x74, 0x5f, 0x70, 0x72, 0x75, 0x6e, 0x65, 0x64, 0x2f, 
 0x67, 0x61, 0x70, 0x2f, 0x4d, 0x65, 0x61, 0x6e, 0x00, 0x00, 0x00, 0x00, 
 0x02, 0x00, 0x00, 0x00, 0x01, 0x00, 0x00, 0x00, 0x27, 0x00, 0x00, 0x00, 
 0x7e, 0xe9, 0xff, 0xff, 0x00, 0x00, 0x00, 0x01, 0x18, 0x00, 0x00, 0x00, 
 0x24, 0x00, 0x00, 0x00, 0x44, 0x00, 0x00, 0x00, 0x31, 0x00, 0x00, 0x00, 
 0x00, 0x00, 0x00, 0x09, 0x68, 0x00, 0x00, 0x00, 0x03, 0x00, 0x00, 0x00, 
 0xff, 0xff, 0xff, 0xff, 0x20, 0x00, 0x00, 0x00, 0x27, 0x00, 0x00, 0x00, 
 0x9c, 0xda, 0xff, 0xff, 0x08, 0x00, 0x00, 0x00, 0x14, 0x00, 0x00, 0x00, 
 0x01, 0x00, 0x00, 0x00, 0x80, 0xff, 0xff, 0xff, 0xff, 0xff, 0xff, 0xff, 
 0x00, 0x00, 0x00, 0x00, 0x01, 0x00, 0x00, 0x00, 0x1b, 0x75, 0x34, 0x3d, 
 0x2a, 0x00, 0x00, 0x00, 0x63, 0x6e, 0x6e, 0x31, 0x64, 0x5f, 0x62, 0x6c, 
 0x6f, 0x63, 0x6b, 0x73, 0x34, 0x5f, 0x73, 0x74, 0x72, 0x75, 0x63, 0x74, 
 0x5f, 0x70, 0x72, 0x75, 0x6e, 0x65, 0x64, 0x2f, 0x70, 0x6f, 0x6f, 0x6c, 
 0x5f, 0x34, 0x2f, 0x53, 0x71, 0x75, 0x65, 0x65, 0x7a, 0x65, 0x00, 0x00, 
 0x03, 0x00, 0x00, 0x00, 0x01, 0x00, 0x00, 0x00, 0x20, 0x00, 0x00, 0x00, 
 0x27, 0x00, 0x00, 0x00, 0x12, 0xea, 0xff, 0xff, 0x00, 0x00, 0x00, 0x01, 
 0x18, 0x00, 0x00, 0x00, 0x28, 0x00, 0x00, 0x00, 0x44, 0x00, 0x00, 0x00, 
 0x30, 0x00, 0x00, 0x00, 0x00, 0x00, 0x00, 0x09, 0x68, 0x00, 0x00, 0x00, 
 0x04, 0x00, 0x00, 0x00, 0xff, 0xff, 0xff, 0xff, 0x20, 0x00, 0x00, 0x00, 
 0x01, 0x00, 0x00, 0x00, 0x27, 0x00, 0x00, 0x00, 0x34, 0xdb, 0xff, 0xff, 
 0x08, 0x00, 0x00, 0x00, 0x10, 0x00, 0x00, 0x00, 0x01, 0x00, 0x00, 0x00, 
 0x80, 0xff, 0xff, 0xff, 0xff, 0xff, 0xff, 0xff, 0x01, 0x00, 0x00, 0x00, 
 0x1b, 0x75, 0x34, 0x3d, 0x2a, 0x00, 0x00, 0x00, 0x63, 0x6e, 0x6e, 0x31, 
 0x64, 0x5f, 0x62, 0x6c, 0x6f, 0x63, 0x6b, 0x73, 0x34, 0x5f, 0x73, 0x74, 
 0x72, 0x75, 0x63, 0x74, 0x5f, 0x70, 0x72, 0x75, 0x6e, 0x65, 0x64, 0x2f, 
 0x70, 0x6f, 0x6f, 0x6c, 0x5f, 0x34, 0x2f, 0x4d, 0x61, 0x78, 0x50, 0x6f, 
 0x6f, 0x6c, 0x00, 0x00, 0x04, 0x00, 0x00, 0x00, 0x01, 0x00, 0x00, 0x00, 
 0x20, 0x00, 0x00, 0x00, 0x01, 0x00, 0x00, 0x00, 0x27, 0x00, 0x00, 0x00, 
 0xaa, 0xea, 0xff, 0xff, 0x00, 0x00, 0x00, 0x01, 0x18, 0x00, 0x00, 0x00, 
 0x28, 0x00, 0x00, 0x00, 0x44, 0x00, 0x00, 0x00, 0x2f, 0x00, 0x00, 0x00, 
 0x00, 0x00, 0x00, 0x09, 0x6c, 0x00, 0x00, 0x00, 0x04, 0x00, 0x00, 0x00, 
 0xff, 0xff, 0xff, 0xff, 0x40, 0x00, 0x00, 0x00, 0x01, 0x00, 0x00, 0x00, 
 0x27, 0x00, 0x00, 0x00, 0xcc, 0xdb, 0xff, 0xff, 0x08, 0x00, 0x00, 0x00, 
 0x10, 0x00, 0x00, 0x00, 0x01, 0x00, 0x00, 0x00, 0x80, 0xff, 0xff, 0xff, 
 0xff, 0xff, 0xff, 0xff, 0x01, 0x00, 0x00, 0x00, 0x1b, 0x75, 0x34, 0x3d, 
 0x2d, 0x00, 0x00, 0x00, 0x63, 0x6e, 0x6e, 0x31, 0x64, 0x5f, 0x62, 0x6c, 
 0x6f, 0x63, 0x6b, 0x73, 0x34, 0x5f, 0x73, 0x74, 0x72, 0x75, 0x63, 0x74, 
 0x5f, 0x70, 0x72, 0x75, 0x6e, 0x65, 0x64, 0x2f, 0x70, 0x6f, 0x6f, 0x6c, 
 0x5f, 0x34, 0x2f, 0x45, 0x78, 0x70, 0x61, 0x6e, 0x64, 0x44, 0x69, 0x6d, 
 0x73, 0x00, 0x00, 0x00, 0x04, 0x00, 0x00, 0x00, 0x01, 0x00, 0x00, 0x00, 
 0x40, 0x00, 0x00, 0x00, 0x01, 0x00, 0x00, 0x00, 0x27, 0x00, 0x00, 0x00, 
 0x46, 0xeb, 0xff, 0xff, 0x00, 0x00, 0x00, 0x01, 0x18, 0x00, 0x00, 0x00, 
 0x24, 0x00, 0x00, 0x00, 0x44, 0x00, 0x00, 0x00, 0x2e, 0x00, 0x00, 0x00, 
 0x00, 0x00, 0x00, 0x09, 0x58, 0x01, 0x00, 0x00, 0x03, 0x00, 0x00, 0x00, 
 0xff, 0xff, 0xff, 0xff, 0x40, 0x00, 0x00, 0x00, 0x27, 0x00, 0x00, 0x00, 
 0x64, 0xdc, 0xff, 0xff, 0x08, 0x00, 0x00, 0x00, 0x14, 0x00, 0x00, 0x00, 
 0x01, 0x00, 0x00, 0x00, 0x80, 0xff, 0xff, 0xff, 0xff, 0xff, 0xff, 0xff, 
 0x00, 0x00, 0x00, 0x00, 0x01, 0x00, 0x00, 0x00, 0x1b, 0x75, 0x34, 0x3d, 
 0x18, 0x01, 0x00, 0x00, 0x63, 0x6e, 0x6e, 0x31, 0x64, 0x5f, 0x62, 0x6c, 
 0x6f, 0x63, 0x6b, 0x73, 0x34, 0x5f, 0x73, 0x74, 0x72, 0x75, 0x63, 0x74, 
 0x5f, 0x70, 0x72, 0x75, 0x6e, 0x65, 0x64, 0x2f, 0x61, 0x63, 0x74, 0x5f, 
 0x34, 0x2f, 0x52, 0x65, 0x6c, 0x75, 0x3b, 0x63, 0x6e, 0x6e, 0x31, 0x64, 
 0x5f, 0x62, 0x6c, 0x6f, 0x63, 0x6b, 0x73, 0x34, 0x5f, 0x73, 0x74, 0x72, 
 0x75, 0x63, 0x74, 0x5f, 0x70, 0x72, 0x75, 0x6e, 0x65, 0x64, 0x2f, 0x62, 
 0x6e, 0x5f, 0x34, 0x2f, 0x62, 0x61, 0x74, 0x63, 0x68, 0x6e, 0x6f, 0x72, 
 0x6d, 0x2f, 0x61, 0x64, 0x64, 0x5f, 0x31, 0x3b, 0x63, 0x6e, 0x6e, 0x31, 
 0x64, 0x5f, 0x62, 0x6c, 0x6f, 0x63, 0x6b, 0x73, 0x34, 0x5f, 0x73, 0x74, 
 0x72, 0x75, 0x63, 0x74, 0x5f, 0x70, 0x72, 0x75, 0x6e, 0x65, 0x64, 0x2f, 
 0x63, 0x6f, 0x6e, 0x76, 0x5f, 0x34, 0x2f, 0x43, 0x6f, 0x6e, 0x76, 0x31, 
 0x44, 0x2f, 0x53, 0x71, 0x75, 0x65, 0x65, 0x7a, 0x65, 0x3b, 0x63, 0x6e, 
 0x6e, 0x31, 0x64, 0x5f, 0x62, 0x6c, 0x6f, 0x63, 0x6b, 0x73, 0x34, 0x5f, 
 0x73, 0x74, 0x72, 0x75, 0x63, 0x74, 0x5f, 0x70, 0x72, 0x75, 0x6e, 0x65, 
 0x64, 0x2f, 0x62, 0x6e, 0x5f, 0x34, 0x2f, 0x62, 0x61, 0x74, 0x63, 0x68, 
 0x6e, 0x6f, 0x72, 0x6d, 0x2f, 0x6d, 0x75, 0x6c, 0x5f, 0x31, 0x3b, 0x63, 
 0x6e, 0x6e, 0x31, 0x64, 0x5f, 0x62, 0x6c, 0x6f, 0x63, 0x6b, 0x73, 0x34, 
 0x5f, 0x73, 0x74, 0x72, 0x75, 0x63, 0x74, 0x5f, 0x70, 0x72, 0x75, 0x6e, 
 0x65, 0x64, 0x2f, 0x62, 0x6e, 0x5f, 0x34, 0x2f, 0x62, 0x61, 0x74, 0x63, 
 0x68, 0x6e, 0x6f, 0x72, 0x6d, 0x2f, 0x6d, 0x75, 0x6c, 0x3b, 0x63, 0x6e, 
 0x6e, 0x31, 0x64, 0x5f, 0x62, 0x6c, 0x6f, 0x63, 0x6b, 0x73, 0x34, 0x5f, 
 0x73, 0x74, 0x72, 0x75, 0x63, 0x74, 0x5f, 0x70, 0x72, 0x75, 0x6e, 0x65, 
 0x64, 0x2f, 0x62, 0x6e, 0x5f, 0x34, 0x2f, 0x62, 0x61, 0x74, 0x63, 0x68, 
 0x6e, 0x6f, 0x72, 0x6d, 0x2f, 0x73, 0x75, 0x62, 0x00, 0x00, 0x00, 0x00, 
 0x03, 0x00, 0x00, 0x00, 0x01, 0x00, 0x00, 0x00, 0x40, 0x00, 0x00, 0x00, 
 0x27, 0x00, 0x00, 0x00, 0xca, 0xec, 0xff, 0xff, 0x00, 0x00, 0x00, 0x01, 
 0x18, 0x00, 0x00, 0x00, 0x28, 0x00, 0x00, 0x00, 0x44, 0x00, 0x00, 0x00, 
 0x2d, 0x00, 0x00, 0x00, 0x00, 0x00, 0x00, 0x09, 0x80, 0x01, 0x00, 0x00, 
 0x04, 0x00, 0x00, 0x00, 0xff, 0xff, 0xff, 0xff, 0x01, 0x00, 0x00, 0x00, 
 0x40, 0x00, 0x00, 0x00, 0x27, 0x00, 0x00, 0x00, 0xec, 0xdd, 0xff, 0xff, 
 0x08, 0x00, 0x00, 0x00, 0x10, 0x00, 0x00, 0x00, 0x01, 0x00, 0x00, 0x00, 
 0x80, 0xff, 0xff, 0xff, 0xff, 0xff, 0xff, 0xff, 0x01, 0x00, 0x00, 0x00, 
 0x1b, 0x75, 0x34, 0x3d, 0x42, 0x01, 0x00, 0x00, 0x63, 0x6e, 0x6e, 0x31, 
 0x64, 0x5f, 0x62, 0x6c, 0x6f, 0x63, 0x6b, 0x73, 0x34, 0x5f, 0x73, 0x74, 
 0x72, 0x75, 0x63, 0x74, 0x5f, 0x70, 0x72, 0x75, 0x6e, 0x65, 0x64, 0x2f, 
 0x61, 0x63, 0x74, 0x5f, 0x34, 0x2f, 0x52, 0x65, 0x6c, 0x75, 0x3b, 0x63, 
 0x6e, 0x6e, 0x31, 0x64, 0x5f, 0x62, 0x6c, 0x6f, 0x63, 0x6b, 0x73, 0x34, 
 0x5f, 0x73, 0x74, 0x72, 0x75, 0x63, 0x74, 0x5f, 0x70, 0x72, 0x75, 0x6e, 
 0x65, 0x64, 0x2f, 0x62, 0x6e, 0x5f, 0x34, 0x2f, 0x62, 0x61, 0x74, 0x63, 
 0x68, 0x6e, 0x6f, 0x72, 0x6d, 0x2f, 0x61, 0x64, 0x64, 0x5f, 0x31, 0x3b, 
 0x63, 0x6e, 0x6e, 0x31, 0x64, 0x5f, 0x62, 0x6c, 0x6f, 0x63, 0x6b, 0x73, 
 0x34, 0x5f, 0x73, 0x74, 0x72, 0x75, 0x63, 0x74, 0x5f, 0x70, 0x72, 0x75, 
 0x6e, 0x65, 0x64, 0x2f, 0x63, 0x6f, 0x6e, 0x76, 0x5f, 0x34, 0x2f, 0x43, 
 0x6f, 0x6e, 0x76, 0x31, 0x44, 0x2f, 0x53, 0x71, 0x75, 0x65, 0x65, 0x7a, 
 0x65, 0x3b, 0x63, 0x6e, 0x6e, 0x31, 0x64, 0x5f, 0x62, 0x6c, 0x6f, 0x63, 
 0x6b, 0x73, 0x34, 0x5f, 0x73, 0x74, 0x72, 0x75, 0x63, 0x74, 0x5f, 0x70, 
 0x72, 0x75, 0x6e, 0x65, 0x64, 0x2f, 0x62, 0x6e, 0x5f, 0x34, 0x2f, 0x62, 
 0x61, 0x74, 0x63, 0x68, 0x6e, 0x6f, 0x72, 0x6d, 0x2f, 0x6d, 0x75, 0x6c, 
 0x5f, 0x31, 0x3b, 0x63, 0x6e, 0x6e, 0x31, 0x64, 0x5f, 0x62, 0x6c, 0x6f, 
 0x63, 0x6b, 0x73, 0x34, 0x5f, 0x73, 0x74, 0x72, 0x75, 0x63, 0x74, 0x5f, 
 0x70, 0x72, 0x75, 0x6e, 0x65, 0x64, 0x2f, 0x62, 0x6e, 0x5f, 0x34, 0x2f, 
 0x62, 0x61, 0x74, 0x63, 0x68, 0x6e, 0x6f, 0x72, 0x6d, 0x2f, 0x6d, 0x75, 
 0x6c, 0x3b, 0x63, 0x6e, 0x6e, 0x31, 0x64, 0x5f, 0x62, 0x6c, 0x6f, 0x63, 
 0x6b, 0x73, 0x34, 0x5f, 0x73, 0x74, 0x72, 0x75, 0x63, 0x74, 0x5f, 0x70, 
 0x72, 0x75, 0x6e, 0x65, 0x64, 0x2f, 0x62, 0x6e, 0x5f, 0x34, 0x2f, 0x62, 
 0x61, 0x74, 0x63, 0x68, 0x6e, 0x6f, 0x72, 0x6d, 0x2f, 0x73, 0x75, 0x62, 
 0x3b, 0x63, 0x6e, 0x6e, 0x31, 0x64, 0x5f, 0x62, 0x6c, 0x6f, 0x63, 0x6b, 
 0x73, 0x34, 0x5f, 0x73, 0x74, 0x72, 0x75, 0x63, 0x74, 0x5f, 0x70, 0x72, 
 0x75, 0x6e, 0x65, 0x64, 0x2f, 0x63, 0x6f, 0x6e, 0x76, 0x5f, 0x34, 0x2f, 
 0x43, 0x6f, 0x6e, 0x76, 0x31, 0x44, 0x00, 0x00, 0x04, 0x00, 0x00, 0x00, 
 0x01, 0x00, 0x00, 0x00, 0x01, 0x00, 0x00, 0x00, 0x40, 0x00, 0x00, 0x00, 
 0x27, 0x00, 0x00, 0x00, 0x7a, 0xee, 0xff, 0xff, 0x00, 0x00, 0x00, 0x01, 
 0x18, 0x00, 0x00, 0x00, 0x28, 0x00, 0x00, 0x00, 0x44, 0x00, 0x00, 0x00, 
 0x2c, 0x00, 0x00, 0x00, 0x00, 0x00, 0x00, 0x09, 0x74, 0x00, 0x00, 0x00, 
 0x04, 0x00, 0x00, 0x00, 0xff, 0xff, 0xff, 0xff, 0x01, 0x00, 0x00, 0x00, 
 0x40, 0x00, 0x00, 0x00, 0x14, 0x00, 0x00, 0x00, 0x9c, 0xdf, 0xff, 0xff, 
 0x08, 0x00, 0x00, 0x00, 0x10, 0x00, 0x00, 0x00, 0x01, 0x00, 0x00, 0x00, 
 0x80, 0xff, 0xff, 0xff, 0xff, 0xff, 0xff, 0xff, 0x01, 0x00, 0x00, 0x00, 
 0x12, 0x12, 0x44, 0x3d, 0x34, 0x00, 0x00, 0x00, 0x63, 0x6e, 0x6e, 0x31, 
 0x64, 0x5f, 0x62, 0x6c, 0x6f, 0x63, 0x6b, 0x73, 0x34, 0x5f, 0x73, 0x74, 
 0x72, 0x75, 0x63, 0x74, 0x5f, 0x70, 0x72, 0x75, 0x6e, 0x65, 0x64, 0x2f, 
 0x63, 0x6f, 0x6e, 0x76, 0x5f, 0x34, 0x2f, 0x43, 0x6f, 0x6e, 0x76, 0x31, 
 0x44, 0x2f, 0x45, 0x78, 0x70, 0x61, 0x6e, 0x64, 0x44, 0x69, 0x6d, 0x73, 
 0x00, 0x00, 0x00, 0x00, 0x04, 0x00, 0x00, 0x00, 0x01, 0x00, 0x00, 0x00, 
 0x01, 0x00, 0x00, 0x00, 0x40, 0x00, 0x00, 0x00, 0x14, 0x00, 0x00, 0x00, 
 0x1e, 0xef, 0xff, 0xff, 0x00, 0x00, 0x00, 0x01, 0x18, 0x00, 0x00, 0x00, 
 0x24, 0x00, 0x00, 0x00, 0x44, 0x00, 0x00, 0x00, 0x2b, 0x00, 0x00, 0x00, 
 0x00, 0x00, 0x00, 0x09, 0x68, 0x00, 0x00, 0x00, 0x03, 0x00, 0x00, 0x00, 
 0xff, 0xff, 0xff, 0xff, 0x40, 0x00, 0x00, 0x00, 0x14, 0x00, 0x00, 0x00, 
 0x3c, 0xe0, 0xff, 0xff, 0x08, 0x00, 0x00, 0x00, 0x14, 0x00, 0x00, 0x00, 
 0x01, 0x00, 0x00, 0x00, 0x80, 0xff, 0xff, 0xff, 0xff, 0xff, 0xff, 0xff, 
 0x00, 0x00, 0x00, 0x00, 0x01, 0x00, 0x00, 0x00, 0x12, 0x12, 0x44, 0x3d, 
 0x2a, 0x00, 0x00, 0x00, 0x63, 0x6e, 0x6e, 0x31, 0x64, 0x5f, 0x62, 0x6c, 
 0x6f, 0x63, 0x6b, 0x73, 0x34, 0x5f, 0x73, 0x74, 0x72, 0x75, 0x63, 0x74, 
 0x5f, 0x70, 0x72, 0x75, 0x6e, 0x65, 0x64, 0x2f, 0x70, 0x6f, 0x6f, 0x6c, 
 0x5f, 0x33, 0x2f, 0x53, 0x71, 0x75, 0x65, 0x65, 0x7a, 0x65, 0x00, 0x00, 
 0x03, 0x00, 0x00, 0x00, 0x01, 0x00, 0x00, 0x00, 0x40, 0x00, 0x00, 0x00, 
 0x14, 0x00, 0x00, 0x00, 0xb2, 0xef, 0xff, 0xff, 0x00, 0x00, 0x00, 0x01, 
 0x18, 0x00, 0x00, 0x00, 0x28, 0x00, 0x00, 0x00, 0x44, 0x00, 0x00, 0x00, 
 0x2a, 0x00, 0x00, 0x00, 0x00, 0x00, 0x00, 0x09, 0x68, 0x00, 0x00, 0x00, 
 0x04, 0x00, 0x00, 0x00, 0xff, 0xff, 0xff, 0xff, 0x40, 0x00, 0x00, 0x00, 
 0x01, 0x00, 0x00, 0x00, 0x14, 0x00, 0x00, 0x00, 0xd4, 0xe0, 0xff, 0xff, 
 0x08, 0x00, 0x00, 0x00, 0x10, 0x00, 0x00, 0x00, 0x01, 0x00, 0x00, 0x00, 
 0x80, 0xff, 0xff, 0xff, 0xff, 0xff, 0xff, 0xff, 0x01, 0x00, 0x00, 0x00, 
 0x12, 0x12, 0x44, 0x3d, 0x2a, 0x00, 0x00, 0x00, 0x63, 0x6e, 0x6e, 0x31, 
 0x64, 0x5f, 0x62, 0x6c, 0x6f, 0x63, 0x6b, 0x73, 0x34, 0x5f, 0x73, 0x74, 
 0x72, 0x75, 0x63, 0x74, 0x5f, 0x70, 0x72, 0x75, 0x6e, 0x65, 0x64, 0x2f, 
 0x70, 0x6f, 0x6f, 0x6c, 0x5f, 0x33, 0x2f, 0x4d, 0x61, 0x78, 0x50, 0x6f, 
 0x6f, 0x6c, 0x00, 0x00, 0x04, 0x00, 0x00, 0x00, 0x01, 0x00, 0x00, 0x00, 
 0x40, 0x00, 0x00, 0x00, 0x01, 0x00, 0x00, 0x00, 0x14, 0x00, 0x00, 0x00, 
 0x4a, 0xf0, 0xff, 0xff, 0x00, 0x00, 0x00, 0x01, 0x18, 0x00, 0x00, 0x00, 
 0x28, 0x00, 0x00, 0x00, 0x44, 0x00, 0x00, 0x00, 0x29, 0x00, 0x00, 0x00, 
 0x00, 0x00, 0x00, 0x09, 0x6c, 0x00, 0x00, 0x00, 0x04, 0x00, 0x00, 0x00, 
 0xff, 0xff, 0xff, 0xff, 0x80, 0x00, 0x00, 0x00, 0x01, 0x00, 0x00, 0x00, 
 0x14, 0x00, 0x00, 0x00, 0x6c, 0xe1, 0xff, 0xff, 0x08, 0x00, 0x00, 0x00, 
 0x10, 0x00, 0x00, 0x00, 0x01, 0x00, 0x00, 0x00, 0x80, 0xff, 0xff, 0xff, 
 0xff, 0xff, 0xff, 0xff, 0x01, 0x00, 0x00, 0x00, 0x12, 0x12, 0x44, 0x3d, 
 0x2d, 0x00, 0x00, 0x00, 0x63, 0x6e, 0x6e, 0x31, 0x64, 0x5f, 0x62, 0x6c, 
 0x6f, 0x63, 0x6b, 0x73, 0x34, 0x5f, 0x73, 0x74, 0x72, 0x75, 0x63, 0x74, 
 0x5f, 0x70, 0x72, 0x75, 0x6e, 0x65, 0x64, 0x2f, 0x70, 0x6f, 0x6f, 0x6c, 
 0x5f, 0x33, 0x2f, 0x45, 0x78, 0x70, 0x61, 0x6e, 0x64, 0x44, 0x69, 0x6d, 
 0x73, 0x00, 0x00, 0x00, 0x04, 0x00, 0x00, 0x00, 0x01, 0x00, 0x00, 0x00, 
 0x80, 0x00, 0x00, 0x00, 0x01, 0x00, 0x00, 0x00, 0x14, 0x00, 0x00, 0x00, 
 0xe6, 0xf0, 0xff, 0xff, 0x00, 0x00, 0x00, 0x01, 0x18, 0x00, 0x00, 0x00, 
 0x24, 0x00, 0x00, 0x00, 0x44, 0x00, 0x00, 0x00, 0x28, 0x00, 0x00, 0x00, 
 0x00, 0x00, 0x00, 0x09, 0x58, 0x01, 0x00, 0x00, 0x03, 0x00, 0x00, 0x00, 
 0xff, 0xff, 0xff, 0xff, 0x80, 0x00, 0x00, 0x00, 0x14, 0x00, 0x00, 0x00, 
 0x04, 0xe2, 0xff, 0xff, 0x08, 0x00, 0x00, 0x00, 0x14, 0x00, 0x00, 0x00, 
 0x01, 0x00, 0x00, 0x00, 0x80, 0xff, 0xff, 0xff, 0xff, 0xff, 0xff, 0xff, 
 0x00, 0x00, 0x00, 0x00, 0x01, 0x00, 0x00, 0x00, 0x12, 0x12, 0x44, 0x3d, 
 0x18, 0x01, 0x00, 0x00, 0x63, 0x6e, 0x6e, 0x31, 0x64, 0x5f, 0x62, 0x6c, 
 0x6f, 0x63, 0x6b, 0x73, 0x34, 0x5f, 0x73, 0x74, 0x72, 0x75, 0x63, 0x74, 
 0x5f, 0x70, 0x72, 0x75, 0x6e, 0x65, 0x64, 0x2f, 0x61, 0x63, 0x74, 0x5f, 
 0x33, 0x2f, 0x52, 0x65, 0x6c, 0x75, 0x3b, 0x63, 0x6e, 0x6e, 0x31, 0x64, 
 0x5f, 0x62, 0x6c, 0x6f, 0x63, 0x6b, 0x73, 0x34, 0x5f, 0x73, 0x74, 0x72, 
 0x75, 0x63, 0x74, 0x5f, 0x70, 0x72, 0x75, 0x6e, 0x65, 0x64, 0x2f, 0x62, 
 0x6e, 0x5f, 0x33, 0x2f, 0x62, 0x61, 0x74, 0x63, 0x68, 0x6e, 0x6f, 0x72, 
 0x6d, 0x2f, 0x61, 0x64, 0x64, 0x5f, 0x31, 0x3b, 0x63, 0x6e, 0x6e, 0x31, 
 0x64, 0x5f, 0x62, 0x6c, 0x6f, 0x63, 0x6b, 0x73, 0x34, 0x5f, 0x73, 0x74, 
 0x72, 0x75, 0x63, 0x74, 0x5f, 0x70, 0x72, 0x75, 0x6e, 0x65, 0x64, 0x2f, 
 0x63, 0x6f, 0x6e, 0x76, 0x5f, 0x33, 0x2f, 0x43, 0x6f, 0x6e, 0x76, 0x31, 
 0x44, 0x2f, 0x53, 0x71, 0x75, 0x65, 0x65, 0x7a, 0x65, 0x3b, 0x63, 0x6e, 
 0x6e, 0x31, 0x64, 0x5f, 0x62, 0x6c, 0x6f, 0x63, 0x6b, 0x73, 0x34, 0x5f, 
 0x73, 0x74, 0x72, 0x75, 0x63, 0x74, 0x5f, 0x70, 0x72, 0x75, 0x6e, 0x65, 
 0x64, 0x2f, 0x62, 0x6e, 0x5f, 0x33, 0x2f, 0x62, 0x61, 0x74, 0x63, 0x68, 
 0x6e, 0x6f, 0x72, 0x6d, 0x2f, 0x6d, 0x75, 0x6c, 0x5f, 0x31, 0x3b, 0x63, 
 0x6e, 0x6e, 0x31, 0x64, 0x5f, 0x62, 0x6c, 0x6f, 0x63, 0x6b, 0x73, 0x34, 
 0x5f, 0x73, 0x74, 0x72, 0x75, 0x63, 0x74, 0x5f, 0x70, 0x72, 0x75, 0x6e, 
 0x65, 0x64, 0x2f, 0x62, 0x6e, 0x5f, 0x33, 0x2f, 0x62, 0x61, 0x74, 0x63, 
 0x68, 0x6e, 0x6f, 0x72, 0x6d, 0x2f, 0x6d, 0x75, 0x6c, 0x3b, 0x63, 0x6e, 
 0x6e, 0x31, 0x64, 0x5f, 0x62, 0x6c, 0x6f, 0x63, 0x6b, 0x73, 0x34, 0x5f, 
 0x73, 0x74, 0x72, 0x75, 0x63, 0x74, 0x5f, 0x70, 0x72, 0x75, 0x6e, 0x65, 
 0x64, 0x2f, 0x62, 0x6e, 0x5f, 0x33, 0x2f, 0x62, 0x61, 0x74, 0x63, 0x68, 
 0x6e, 0x6f, 0x72, 0x6d, 0x2f, 0x73, 0x75, 0x62, 0x00, 0x00, 0x00, 0x00, 
 0x03, 0x00, 0x00, 0x00, 0x01, 0x00, 0x00, 0x00, 0x80, 0x00, 0x00, 0x00, 
 0x14, 0x00, 0x00, 0x00, 0x6a, 0xf2, 0xff, 0xff, 0x00, 0x00, 0x00, 0x01, 
 0x18, 0x00, 0x00, 0x00, 0x28, 0x00, 0x00, 0x00, 0x44, 0x00, 0x00, 0x00, 
 0x27, 0x00, 0x00, 0x00, 0x00, 0x00, 0x00, 0x09, 0x80, 0x01, 0x00, 0x00, 
 0x04, 0x00, 0x00, 0x00, 0xff, 0xff, 0xff, 0xff, 0x01, 0x00, 0x00, 0x00, 
 0x80, 0x00, 0x00, 0x00, 0x14, 0x00, 0x00, 0x00, 0x8c, 0xe3, 0xff, 0xff, 
 0x08, 0x00, 0x00, 0x00, 0x10, 0x00, 0x00, 0x00, 0x01, 0x00, 0x00, 0x00, 
 0x80, 0xff, 0xff, 0xff, 0xff, 0xff, 0xff, 0xff, 0x01, 0x00, 0x00, 0x00, 
 0x12, 0x12, 0x44, 0x3d, 0x42, 0x01, 0x00, 0x00, 0x63, 0x6e, 0x6e, 0x31, 
 0x64, 0x5f, 0x62, 0x6c, 0x6f, 0x63, 0x6b, 0x73, 0x34, 0x5f, 0x73, 0x74, 
 0x72, 0x75, 0x63, 0x74, 0x5f, 0x70, 0x72, 0x75, 0x6e, 0x65, 0x64, 0x2f, 
 0x61, 0x63, 0x74, 0x5f, 0x33, 0x2f, 0x52, 0x65, 0x6c, 0x75, 0x3b, 0x63, 
 0x6e, 0x6e, 0x31, 0x64, 0x5f, 0x62, 0x6c, 0x6f, 0x63, 0x6b, 0x73, 0x34, 
 0x5f, 0x73, 0x74, 0x72, 0x75, 0x63, 0x74, 0x5f, 0x70, 0x72, 0x75, 0x6e, 
 0x65, 0x64, 0x2f, 0x62, 0x6e, 0x5f, 0x33, 0x2f, 0x62, 0x61, 0x74, 0x63, 
 0x68, 0x6e, 0x6f, 0x72, 0x6d, 0x2f, 0x61, 0x64, 0x64, 0x5f, 0x31, 0x3b, 
 0x63, 0x6e, 0x6e, 0x31, 0x64, 0x5f, 0x62, 0x6c, 0x6f, 0x63, 0x6b, 0x73, 
 0x34, 0x5f, 0x73, 0x74, 0x72, 0x75, 0x63, 0x74, 0x5f, 0x70, 0x72, 0x75, 
 0x6e, 0x65, 0x64, 0x2f, 0x63, 0x6f, 0x6e, 0x76, 0x5f, 0x33, 0x2f, 0x43, 
 0x6f, 0x6e, 0x76, 0x31, 0x44, 0x2f, 0x53, 0x71, 0x75, 0x65, 0x65, 0x7a, 
 0x65, 0x3b, 0x63, 0x6e, 0x6e, 0x31, 0x64, 0x5f, 0x62, 0x6c, 0x6f, 0x63, 
 0x6b, 0x73, 0x34, 0x5f, 0x73, 0x74, 0x72, 0x75, 0x63, 0x74, 0x5f, 0x70, 
 0x72, 0x75, 0x6e, 0x65, 0x64, 0x2f, 0x62, 0x6e, 0x5f, 0x33, 0x2f, 0x62, 
 0x61, 0x74, 0x63, 0x68, 0x6e, 0x6f, 0x72, 0x6d, 0x2f, 0x6d, 0x75, 0x6c, 
 0x5f, 0x31, 0x3b, 0x63, 0x6e, 0x6e, 0x31, 0x64, 0x5f, 0x62, 0x6c, 0x6f, 
 0x63, 0x6b, 0x73, 0x34, 0x5f, 0x73, 0x74, 0x72, 0x75, 0x63, 0x74, 0x5f, 
 0x70, 0x72, 0x75, 0x6e, 0x65, 0x64, 0x2f, 0x62, 0x6e, 0x5f, 0x33, 0x2f, 
 0x62, 0x61, 0x74, 0x63, 0x68, 0x6e, 0x6f, 0x72, 0x6d, 0x2f, 0x6d, 0x75, 
 0x6c, 0x3b, 0x63, 0x6e, 0x6e, 0x31, 0x64, 0x5f, 0x62, 0x6c, 0x6f, 0x63, 
 0x6b, 0x73, 0x34, 0x5f, 0x73, 0x74, 0x72, 0x75, 0x63, 0x74, 0x5f, 0x70, 
 0x72, 0x75, 0x6e, 0x65, 0x64, 0x2f, 0x62, 0x6e, 0x5f, 0x33, 0x2f, 0x62, 
 0x61, 0x74, 0x63, 0x68, 0x6e, 0x6f, 0x72, 0x6d, 0x2f, 0x73, 0x75, 0x62, 
 0x3b, 0x63, 0x6e, 0x6e, 0x31, 0x64, 0x5f, 0x62, 0x6c, 0x6f, 0x63, 0x6b, 
 0x73, 0x34, 0x5f, 0x73, 0x74, 0x72, 0x75, 0x63, 0x74, 0x5f, 0x70, 0x72, 
 0x75, 0x6e, 0x65, 0x64, 0x2f, 0x63, 0x6f, 0x6e, 0x76, 0x5f, 0x33, 0x2f, 
 0x43, 0x6f, 0x6e, 0x76, 0x31, 0x44, 0x00, 0x00, 0x04, 0x00, 0x00, 0x00, 
 0x01, 0x00, 0x00, 0x00, 0x01, 0x00, 0x00, 0x00, 0x80, 0x00, 0x00, 0x00, 
 0x14, 0x00, 0x00, 0x00, 0x1a, 0xf4, 0xff, 0xff, 0x00, 0x00, 0x00, 0x01, 
 0x18, 0x00, 0x00, 0x00, 0x28, 0x00, 0x00, 0x00, 0x44, 0x00, 0x00, 0x00, 
 0x26, 0x00, 0x00, 0x00, 0x00, 0x00, 0x00, 0x09, 0x74, 0x00, 0x00, 0x00, 
 0x04, 0x00, 0x00, 0x00, 0xff, 0xff, 0xff, 0xff, 0x01, 0x00, 0x00, 0x00, 
 0x80, 0x00, 0x00, 0x00, 0x0a, 0x00, 0x00, 0x00, 0x3c, 0xe5, 0xff, 0xff, 
 0x08, 0x00, 0x00, 0x00, 0x10, 0x00, 0x00, 0x00, 0x01, 0x00, 0x00, 0x00, 
 0x80, 0xff, 0xff, 0xff, 0xff, 0xff, 0xff, 0xff, 0x01, 0x00, 0x00, 0x00, 
 0x92, 0xa9, 0x3b, 0x3d, 0x34, 0x00, 0x00, 0x00, 0x63, 0x6e, 0x6e, 0x31, 
 0x64, 0x5f, 0x62, 0x6c, 0x6f, 0x63, 0x6b, 0x73, 0x34, 0x5f, 0x73, 0x74, 
 0x72, 0x75, 0x63, 0x74, 0x5f, 0x70, 0x72, 0x75, 0x6e, 0x65, 0x64, 0x2f, 
 0x63, 0x6f, 0x6e, 0x76, 0x5f, 0x33, 0x2f, 0x43, 0x6f, 0x6e, 0x76, 0x31, 
 0x44, 0x2f, 0x45, 0x78, 0x70, 0x61, 0x6e, 0x64, 0x44, 0x69, 0x6d, 0x73, 
 0x00, 0x00, 0x00, 0x00, 0x04, 0x00, 0x00, 0x00, 0x01, 0x00, 0x00, 0x00, 
 0x01, 0x00, 0x00, 0x00, 0x80, 0x00, 0x00, 0x00, 0x0a, 0x00, 0x00, 0x00, 
 0xbe, 0xf4, 0xff, 0xff, 0x00, 0x00, 0x00, 0x01, 0x18, 0x00, 0x00, 0x00, 
 0x24, 0x00, 0x00, 0x00, 0x44, 0x00, 0x00, 0x00, 0x25, 0x00, 0x00, 0x00, 
 0x00, 0x00, 0x00, 0x09, 0x68, 0x00, 0x00, 0x00, 0x03, 0x00, 0x00, 0x00, 
 0xff, 0xff, 0xff, 0xff, 0x80, 0x00, 0x00, 0x00, 0x0a, 0x00, 0x00, 0x00, 
 0xdc, 0xe5, 0xff, 0xff, 0x08, 0x00, 0x00, 0x00, 0x14, 0x00, 0x00, 0x00, 
 0x01, 0x00, 0x00, 0x00, 0x80, 0xff, 0xff, 0xff, 0xff, 0xff, 0xff, 0xff, 
 0x00, 0x00, 0x00, 0x00, 0x01, 0x00, 0x00, 0x00, 0x92, 0xa9, 0x3b, 0x3d, 
 0x2a, 0x00, 0x00, 0x00, 0x63, 0x6e, 0x6e, 0x31, 0x64, 0x5f, 0x62, 0x6c, 
 0x6f, 0x63, 0x6b, 0x73, 0x34, 0x5f, 0x73, 0x74, 0x72, 0x75, 0x63, 0x74, 
 0x5f, 0x70, 0x72, 0x75, 0x6e, 0x65, 0x64, 0x2f, 0x70, 0x6f, 0x6f, 0x6c, 
 0x5f, 0x32, 0x2f, 0x53, 0x71, 0x75, 0x65, 0x65, 0x7a, 0x65, 0x00, 0x00, 
 0x03, 0x00, 0x00, 0x00, 0x01, 0x00, 0x00, 0x00, 0x80, 0x00, 0x00, 0x00, 
 0x0a, 0x00, 0x00, 0x00, 0x52, 0xf5, 0xff, 0xff, 0x00, 0x00, 0x00, 0x01, 
 0x18, 0x00, 0x00, 0x00, 0x28, 0x00, 0x00, 0x00, 0x44, 0x00, 0x00, 0x00, 
 0x24, 0x00, 0x00, 0x00, 0x00, 0x00, 0x00, 0x09, 0x68, 0x00, 0x00, 0x00, 
 0x04, 0x00, 0x00, 0x00, 0xff, 0xff, 0xff, 0xff, 0x80, 0x00, 0x00, 0x00, 
 0x01, 0x00, 0x00, 0x00, 0x0a, 0x00, 0x00, 0x00, 0x74, 0xe6, 0xff, 0xff, 
 0x08, 0x00, 0x00, 0x00, 0x10, 0x00, 0x00, 0x00, 0x01, 0x00, 0x00, 0x00, 
 0x80, 0xff, 0xff, 0xff, 0xff, 0xff, 0xff, 0xff, 0x01, 0x00, 0x00, 0x00, 
 0x92, 0xa9, 0x3b, 0x3d, 0x2a, 0x00, 0x00, 0x00, 0x63, 0x6e, 0x6e, 0x31, 
 0x64, 0x5f, 0x62, 0x6c, 0x6f, 0x63, 0x6b, 0x73, 0x34, 0x5f, 0x73, 0x74, 
 0x72, 0x75, 0x63, 0x74, 0x5f, 0x70, 0x72, 0x75, 0x6e, 0x65, 0x64, 0x2f, 
 0x70, 0x6f, 0x6f, 0x6c, 0x5f, 0x32, 0x2f, 0x4d, 0x61, 0x78, 0x50, 0x6f, 
 0x6f, 0x6c, 0x00, 0x00, 0x04, 0x00, 0x00, 0x00, 0x01, 0x00, 0x00, 0x00, 
 0x80, 0x00, 0x00, 0x00, 0x01, 0x00, 0x00, 0x00, 0x0a, 0x00, 0x00, 0x00, 
 0xea, 0xf5, 0xff, 0xff, 0x00, 0x00, 0x00, 0x01, 0x18, 0x00, 0x00, 0x00, 
 0x28, 0x00, 0x00, 0x00, 0x44, 0x00, 0x00, 0x00, 0x23, 0x00, 0x00, 0x00, 
 0x00, 0x00, 0x00, 0x09, 0x6c, 0x00, 0x00, 0x00, 0x04, 0x00, 0x00, 0x00, 
 0xff, 0xff, 0xff, 0xff, 0x00, 0x01, 0x00, 0x00, 0x01, 0x00, 0x00, 0x00, 
 0x0a, 0x00, 0x00, 0x00, 0x0c, 0xe7, 0xff, 0xff, 0x08, 0x00, 0x00, 0x00, 
 0x10, 0x00, 0x00, 0x00, 0x01, 0x00, 0x00, 0x00, 0x80, 0xff, 0xff, 0xff, 
 0xff, 0xff, 0xff, 0xff, 0x01, 0x00, 0x00, 0x00, 0x92, 0xa9, 0x3b, 0x3d, 
 0x2d, 0x00, 0x00, 0x00, 0x63, 0x6e, 0x6e, 0x31, 0x64, 0x5f, 0x62, 0x6c, 
 0x6f, 0x63, 0x6b, 0x73, 0x34, 0x5f, 0x73, 0x74, 0x72, 0x75, 0x63, 0x74, 
 0x5f, 0x70, 0x72, 0x75, 0x6e, 0x65, 0x64, 0x2f, 0x70, 0x6f, 0x6f, 0x6c, 
 0x5f, 0x32, 0x2f, 0x45, 0x78, 0x70, 0x61, 0x6e, 0x64, 0x44, 0x69, 0x6d, 
 0x73, 0x00, 0x00, 0x00, 0x04, 0x00, 0x00, 0x00, 0x01, 0x00, 0x00, 0x00, 
 0x00, 0x01, 0x00, 0x00, 0x01, 0x00, 0x00, 0x00, 0x0a, 0x00, 0x00, 0x00, 
 0x86, 0xf6, 0xff, 0xff, 0x00, 0x00, 0x00, 0x01, 0x18, 0x00, 0x00, 0x00, 
 0x24, 0x00, 0x00, 0x00, 0x44, 0x00, 0x00, 0x00, 0x22, 0x00, 0x00, 0x00, 
 0x00, 0x00, 0x00, 0x09, 0x58, 0x01, 0x00, 0x00, 0x03, 0x00, 0x00, 0x00, 
 0xff, 0xff, 0xff, 0xff, 0x00, 0x01, 0x00, 0x00, 0x0a, 0x00, 0x00, 0x00, 
 0xa4, 0xe7, 0xff, 0xff, 0x08, 0x00, 0x00, 0x00, 0x14, 0x00, 0x00, 0x00, 
 0x01, 0x00, 0x00, 0x00, 0x80, 0xff, 0xff, 0xff, 0xff, 0xff, 0xff, 0xff, 
 0x00, 0x00, 0x00, 0x00, 0x01, 0x00, 0x00, 0x00, 0x92, 0xa9, 0x3b, 0x3d, 
 0x18, 0x01, 0x00, 0x00, 0x63, 0x6e, 0x6e, 0x31, 0x64, 0x5f, 0x62, 0x6c, 
 0x6f, 0x63, 0x6b, 0x73, 0x34, 0x5f, 0x73, 0x74, 0x72, 0x75, 0x63, 0x74, 
 0x5f, 0x70, 0x72, 0x75, 0x6e, 0x65, 0x64, 0x2f, 0x61, 0x63, 0x74, 0x5f, 
 0x32, 0x2f, 0x52, 0x65, 0x6c, 0x75, 0x3b, 0x63, 0x6e, 0x6e, 0x31, 0x64, 
 0x5f, 0x62, 0x6c, 0x6f, 0x63, 0x6b, 0x73, 0x34, 0x5f, 0x73, 0x74, 0x72, 
 0x75, 0x63, 0x74, 0x5f, 0x70, 0x72, 0x75, 0x6e, 0x65, 0x64, 0x2f, 0x62, 
 0x6e, 0x5f, 0x32, 0x2f, 0x62, 0x61, 0x74, 0x63, 0x68, 0x6e, 0x6f, 0x72, 
 0x6d, 0x2f, 0x61, 0x64, 0x64, 0x5f, 0x31, 0x3b, 0x63, 0x6e, 0x6e, 0x31, 
 0x64, 0x5f, 0x62, 0x6c, 0x6f, 0x63, 0x6b, 0x73, 0x34, 0x5f, 0x73, 0x74, 
 0x72, 0x75, 0x63, 0x74, 0x5f, 0x70, 0x72, 0x75, 0x6e, 0x65, 0x64, 0x2f, 
 0x63, 0x6f, 0x6e, 0x76, 0x5f, 0x32, 0x2f, 0x43, 0x6f, 0x6e, 0x76, 0x31, 
 0x44, 0x2f, 0x53, 0x71, 0x75, 0x65, 0x65, 0x7a, 0x65, 0x3b, 0x63, 0x6e, 
 0x6e, 0x31, 0x64, 0x5f, 0x62, 0x6c, 0x6f, 0x63, 0x6b, 0x73, 0x34, 0x5f, 
 0x73, 0x74, 0x72, 0x75, 0x63, 0x74, 0x5f, 0x70, 0x72, 0x75, 0x6e, 0x65, 
 0x64, 0x2f, 0x62, 0x6e, 0x5f, 0x32, 0x2f, 0x62, 0x61, 0x74, 0x63, 0x68, 
 0x6e, 0x6f, 0x72, 0x6d, 0x2f, 0x6d, 0x75, 0x6c, 0x5f, 0x31, 0x3b, 0x63, 
 0x6e, 0x6e, 0x31, 0x64, 0x5f, 0x62, 0x6c, 0x6f, 0x63, 0x6b, 0x73, 0x34, 
 0x5f, 0x73, 0x74, 0x72, 0x75, 0x63, 0x74, 0x5f, 0x70, 0x72, 0x75, 0x6e, 
 0x65, 0x64, 0x2f, 0x62, 0x6e, 0x5f, 0x32, 0x2f, 0x62, 0x61, 0x74, 0x63, 
 0x68, 0x6e, 0x6f, 0x72, 0x6d, 0x2f, 0x6d, 0x75, 0x6c, 0x3b, 0x63, 0x6e, 
 0x6e, 0x31, 0x64, 0x5f, 0x62, 0x6c, 0x6f, 0x63, 0x6b, 0x73, 0x34, 0x5f, 
 0x73, 0x74, 0x72, 0x75, 0x63, 0x74, 0x5f, 0x70, 0x72, 0x75, 0x6e, 0x65, 
 0x64, 0x2f, 0x62, 0x6e, 0x5f, 0x32, 0x2f, 0x62, 0x61, 0x74, 0x63, 0x68, 
 0x6e, 0x6f, 0x72, 0x6d, 0x2f, 0x73, 0x75, 0x62, 0x00, 0x00, 0x00, 0x00, 
 0x03, 0x00, 0x00, 0x00, 0x01, 0x00, 0x00, 0x00, 0x00, 0x01, 0x00, 0x00, 
 0x0a, 0x00, 0x00, 0x00, 0x0a, 0xf8, 0xff, 0xff, 0x00, 0x00, 0x00, 0x01, 
 0x18, 0x00, 0x00, 0x00, 0x28, 0x00, 0x00, 0x00, 0x44, 0x00, 0x00, 0x00, 
 0x21, 0x00, 0x00, 0x00, 0x00, 0x00, 0x00, 0x09, 0x80, 0x01, 0x00, 0x00, 
 0x04, 0x00, 0x00, 0x00, 0xff, 0xff, 0xff, 0xff, 0x01, 0x00, 0x00, 0x00, 
 0x00, 0x01, 0x00, 0x00, 0x0a, 0x00, 0x00, 0x00, 0x2c, 0xe9, 0xff, 0xff, 
 0x08, 0x00, 0x00, 0x00, 0x10, 0x00, 0x00, 0x00, 0x01, 0x00, 0x00, 0x00, 
 0x80, 0xff, 0xff, 0xff, 0xff, 0xff, 0xff, 0xff, 0x01, 0x00, 0x00, 0x00, 
 0x92, 0xa9, 0x3b, 0x3d, 0x42, 0x01, 0x00, 0x00, 0x63, 0x6e, 0x6e, 0x31, 
 0x64, 0x5f, 0x62, 0x6c, 0x6f, 0x63, 0x6b, 0x73, 0x34, 0x5f, 0x73, 0x74, 
 0x72, 0x75, 0x63, 0x74, 0x5f, 0x70, 0x72, 0x75, 0x6e, 0x65, 0x64, 0x2f, 
 0x61, 0x63, 0x74, 0x5f, 0x32, 0x2f, 0x52, 0x65, 0x6c, 0x75, 0x3b, 0x63, 
 0x6e, 0x6e, 0x31, 0x64, 0x5f, 0x62, 0x6c, 0x6f, 0x63, 0x6b, 0x73, 0x34, 
 0x5f, 0x73, 0x74, 0x72, 0x75, 0x63, 0x74, 0x5f, 0x70, 0x72, 0x75, 0x6e, 
 0x65, 0x64, 0x2f, 0x62, 0x6e, 0x5f, 0x32, 0x2f, 0x62, 0x61, 0x74, 0x63, 
 0x68, 0x6e, 0x6f, 0x72, 0x6d, 0x2f, 0x61, 0x64, 0x64, 0x5f, 0x31, 0x3b, 
 0x63, 0x6e, 0x6e, 0x31, 0x64, 0x5f, 0x62, 0x6c, 0x6f, 0x63, 0x6b, 0x73, 
 0x34, 0x5f, 0x73, 0x74, 0x72, 0x75, 0x63, 0x74, 0x5f, 0x70, 0x72, 0x75, 
 0x6e, 0x65, 0x64, 0x2f, 0x63, 0x6f, 0x6e, 0x76, 0x5f, 0x32, 0x2f, 0x43, 
 0x6f, 0x6e, 0x76, 0x31, 0x44, 0x2f, 0x53, 0x71, 0x75, 0x65, 0x65, 0x7a, 
 0x65, 0x3b, 0x63, 0x6e, 0x6e, 0x31, 0x64, 0x5f, 0x62, 0x6c, 0x6f, 0x63, 
 0x6b, 0x73, 0x34, 0x5f, 0x73, 0x74, 0x72, 0x75, 0x63, 0x74, 0x5f, 0x70, 
 0x72, 0x75, 0x6e, 0x65, 0x64, 0x2f, 0x62, 0x6e, 0x5f, 0x32, 0x2f, 0x62, 
 0x61, 0x74, 0x63, 0x68, 0x6e, 0x6f, 0x72, 0x6d, 0x2f, 0x6d, 0x75, 0x6c, 
 0x5f, 0x31, 0x3b, 0x63, 0x6e, 0x6e, 0x31, 0x64, 0x5f, 0x62, 0x6c, 0x6f, 
 0x63, 0x6b, 0x73, 0x34, 0x5f, 0x73, 0x74, 0x72, 0x75, 0x63, 0x74, 0x5f, 
 0x70, 0x72, 0x75, 0x6e, 0x65, 0x64, 0x2f, 0x62, 0x6e, 0x5f, 0x32, 0x2f, 
 0x62, 0x61, 0x74, 0x63, 0x68, 0x6e, 0x6f, 0x72, 0x6d, 0x2f, 0x6d, 0x75, 
 0x6c, 0x3b, 0x63, 0x6e, 0x6e, 0x31, 0x64, 0x5f, 0x62, 0x6c, 0x6f, 0x63, 
 0x6b, 0x73, 0x34, 0x5f, 0x73, 0x74, 0x72, 0x75, 0x63, 0x74, 0x5f, 0x70, 
 0x72, 0x75, 0x6e, 0x65, 0x64, 0x2f, 0x62, 0x6e, 0x5f, 0x32, 0x2f, 0x62, 
 0x61, 0x74, 0x63, 0x68, 0x6e, 0x6f, 0x72, 0x6d, 0x2f, 0x73, 0x75, 0x62, 
 0x3b, 0x63, 0x6e, 0x6e, 0x31, 0x64, 0x5f, 0x62, 0x6c, 0x6f, 0x63, 0x6b, 
 0x73, 0x34, 0x5f, 0x73, 0x74, 0x72, 0x75, 0x63, 0x74, 0x5f, 0x70, 0x72, 
 0x75, 0x6e, 0x65, 0x64, 0x2f, 0x63, 0x6f, 0x6e, 0x76, 0x5f, 0x32, 0x2f, 
 0x43, 0x6f, 0x6e, 0x76, 0x31, 0x44, 0x00, 0x00, 0x04, 0x00, 0x00, 0x00, 
 0x01, 0x00, 0x00, 0x00, 0x01, 0x00, 0x00, 0x00, 0x00, 0x01, 0x00, 0x00, 
 0x0a, 0x00, 0x00, 0x00, 0xba, 0xf9, 0xff, 0xff, 0x00, 0x00, 0x00, 0x01, 
 0x18, 0x00, 0x00, 0x00, 0x28, 0x00, 0x00, 0x00, 0x44, 0x00, 0x00, 0x00, 
 0x20, 0x00, 0x00, 0x00, 0x00, 0x00, 0x00, 0x09, 0x74, 0x00, 0x00, 0x00, 
 0x04, 0x00, 0x00, 0x00, 0xff, 0xff, 0xff, 0xff, 0x01, 0x00, 0x00, 0x00, 
 0x00, 0x01, 0x00, 0x00, 0x05, 0x00, 0x00, 0x00, 0xdc, 0xea, 0xff, 0xff, 
 0x08, 0x00, 0x00, 0x00, 0x10, 0x00, 0x00, 0x00, 0x01, 0x00, 0x00, 0x00, 
 0x80, 0xff, 0xff, 0xff, 0xff, 0xff, 0xff, 0xff, 0x01, 0x00, 0x00, 0x00, 
 0xdf, 0xf2, 0x8f, 0x3d, 0x34, 0x00, 0x00, 0x00, 0x63, 0x6e, 0x6e, 0x31, 
 0x64, 0x5f, 0x62, 0x6c, 0x6f, 0x63, 0x6b, 0x73, 0x34, 0x5f, 0x73, 0x74, 
 0x72, 0x75, 0x63, 0x74, 0x5f, 0x70, 0x72, 0x75, 0x6e, 0x65, 0x64, 0x2f, 
 0x63, 0x6f, 0x6e, 0x76, 0x5f, 0x32, 0x2f, 0x43, 0x6f, 0x6e, 0x76, 0x31, 
 0x44, 0x2f, 0x45, 0x78, 0x70, 0x61, 0x6e, 0x64, 0x44, 0x69, 0x6d, 0x73, 
 0x00, 0x00, 0x00, 0x00, 0x04, 0x00, 0x00, 0x00, 0x01, 0x00, 0x00, 0x00, 
 0x01, 0x00, 0x00, 0x00, 0x00, 0x01, 0x00, 0x00, 0x05, 0x00, 0x00, 0x00, 
 0x5e, 0xfa, 0xff, 0xff, 0x00, 0x00, 0x00, 0x01, 0x18, 0x00, 0x00, 0x00, 
 0x24, 0x00, 0x00, 0x00, 0x44, 0x00, 0x00, 0x00, 0x1f, 0x00, 0x00, 0x00, 
 0x00, 0x00, 0x00, 0x09, 0x68, 0x00, 0x00, 0x00, 0x03, 0x00, 0x00, 0x00, 
 0xff, 0xff, 0xff, 0xff, 0x00, 0x01, 0x00, 0x00, 0x05, 0x00, 0x00, 0x00, 
 0x7c, 0xeb, 0xff, 0xff, 0x08, 0x00, 0x00, 0x00, 0x14, 0x00, 0x00, 0x00, 
 0x01, 0x00, 0x00, 0x00, 0x80, 0xff, 0xff, 0xff, 0xff, 0xff, 0xff, 0xff, 
 0x00, 0x00, 0x00, 0x00, 0x01, 0x00, 0x00, 0x00, 0xdf, 0xf2, 0x8f, 0x3d, 
 0x2a, 0x00, 0x00, 0x00, 0x63, 0x6e, 0x6e, 0x31, 0x64, 0x5f, 0x62, 0x6c, 
 0x6f, 0x63, 0x6b, 0x73, 0x34, 0x5f, 0x73, 0x74, 0x72, 0x75, 0x63, 0x74, 
 0x5f, 0x70, 0x72, 0x75, 0x6e, 0x65, 0x64, 0x2f, 0x70, 0x6f, 0x6f, 0x6c, 
 0x5f, 0x31, 0x2f, 0x53, 0x71, 0x75, 0x65, 0x65, 0x7a, 0x65, 0x00, 0x00, 
 0x03, 0x00, 0x00, 0x00, 0x01, 0x00, 0x00, 0x00, 0x00, 0x01, 0x00, 0x00, 
 0x05, 0x00, 0x00, 0x00, 0xf2, 0xfa, 0xff, 0xff, 0x00, 0x00, 0x00, 0x01, 
 0x18, 0x00, 0x00, 0x00, 0x28, 0x00, 0x00, 0x00, 0x44, 0x00, 0x00, 0x00, 
 0x1e, 0x00, 0x00, 0x00, 0x00, 0x00, 0x00, 0x09, 0x68, 0x00, 0x00, 0x00, 
 0x04, 0x00, 0x00, 0x00, 0xff, 0xff, 0xff, 0xff, 0x00, 0x01, 0x00, 0x00, 
 0x01, 0x00, 0x00, 0x00, 0x05, 0x00, 0x00, 0x00, 0x14, 0xec, 0xff, 0xff, 
 0x08, 0x00, 0x00, 0x00, 0x10, 0x00, 0x00, 0x00, 0x01, 0x00, 0x00, 0x00, 
 0x80, 0xff, 0xff, 0xff, 0xff, 0xff, 0xff, 0xff, 0x01, 0x00, 0x00, 0x00, 
 0xdf, 0xf2, 0x8f, 0x3d, 0x2a, 0x00, 0x00, 0x00, 0x63, 0x6e, 0x6e, 0x31, 
 0x64, 0x5f, 0x62, 0x6c, 0x6f, 0x63, 0x6b, 0x73, 0x34, 0x5f, 0x73, 0x74, 
 0x72, 0x75, 0x63, 0x74, 0x5f, 0x70, 0x72, 0x75, 0x6e, 0x65, 0x64, 0x2f, 
 0x70, 0x6f, 0x6f, 0x6c, 0x5f, 0x31, 0x2f, 0x4d, 0x61, 0x78, 0x50, 0x6f, 
 0x6f, 0x6c, 0x00, 0x00, 0x04, 0x00, 0x00, 0x00, 0x01, 0x00, 0x00, 0x00, 
 0x00, 0x01, 0x00, 0x00, 0x01, 0x00, 0x00, 0x00, 0x05, 0x00, 0x00, 0x00, 
 0x8a, 0xfb, 0xff, 0xff, 0x00, 0x00, 0x00, 0x01, 0x18, 0x00, 0x00, 0x00, 
 0x28, 0x00, 0x00, 0x00, 0x44, 0x00, 0x00, 0x00, 0x1d, 0x00, 0x00, 0x00, 
 0x00, 0x00, 0x00, 0x09, 0x6c, 0x00, 0x00, 0x00, 0x04, 0x00, 0x00, 0x00, 
 0xff, 0xff, 0xff, 0xff, 0x00, 0x02, 0x00, 0x00, 0x01, 0x00, 0x00, 0x00, 
 0x05, 0x00, 0x00, 0x00, 0xac, 0xec, 0xff, 0xff, 0x08, 0x00, 0x00, 0x00, 
 0x10, 0x00, 0x00, 0x00, 0x01, 0x00, 0x00, 0x00, 0x80, 0xff, 0xff, 0xff, 
 0xff, 0xff, 0xff, 0xff, 0x01, 0x00, 0x00, 0x00, 0xdf, 0xf2, 0x8f, 0x3d, 
 0x2d, 0x00, 0x00, 0x00, 0x63, 0x6e, 0x6e, 0x31, 0x64, 0x5f, 0x62, 0x6c, 
 0x6f, 0x63, 0x6b, 0x73, 0x34, 0x5f, 0x73, 0x74, 0x72, 0x75, 0x63, 0x74, 
 0x5f, 0x70, 0x72, 0x75, 0x6e, 0x65, 0x64, 0x2f, 0x70, 0x6f, 0x6f, 0x6c, 
 0x5f, 0x31, 0x2f, 0x45, 0x78, 0x70, 0x61, 0x6e, 0x64, 0x44, 0x69, 0x6d, 
 0x73, 0x00, 0x00, 0x00, 0x04, 0x00, 0x00, 0x00, 0x01, 0x00, 0x00, 0x00, 
 0x00, 0x02, 0x00, 0x00, 0x01, 0x00, 0x00, 0x00, 0x05, 0x00, 0x00, 0x00, 
 0x26, 0xfc, 0xff, 0xff, 0x00, 0x00, 0x00, 0x01, 0x18, 0x00, 0x00, 0x00, 
 0x24, 0x00, 0x00, 0x00, 0x44, 0x00, 0x00, 0x00, 0x1c, 0x00, 0x00, 0x00, 
 0x00, 0x00, 0x00, 0x09, 0x58, 0x01, 0x00, 0x00, 0x03, 0x00, 0x00, 0x00, 
 0xff, 0xff, 0xff, 0xff, 0x00, 0x02, 0x00, 0x00, 0x05, 0x00, 0x00, 0x00, 
 0x44, 0xed, 0xff, 0xff, 0x08, 0x00, 0x00, 0x00, 0x14, 0x00, 0x00, 0x00, 
 0x01, 0x00, 0x00, 0x00, 0x80, 0xff, 0xff, 0xff, 0xff, 0xff, 0xff, 0xff, 
 0x00, 0x00, 0x00, 0x00, 0x01, 0x00, 0x00, 0x00, 0xdf, 0xf2, 0x8f, 0x3d, 
 0x18, 0x01, 0x00, 0x00, 0x63, 0x6e, 0x6e, 0x31, 0x64, 0x5f, 0x62, 0x6c, 
 0x6f, 0x63, 0x6b, 0x73, 0x34, 0x5f, 0x73, 0x74, 0x72, 0x75, 0x63, 0x74, 
 0x5f, 0x70, 0x72, 0x75, 0x6e, 0x65, 0x64, 0x2f, 0x61, 0x63, 0x74, 0x5f, 
 0x31, 0x2f, 0x52, 0x65, 0x6c, 0x75, 0x3b, 0x63, 0x6e, 0x6e, 0x31, 0x64, 
 0x5f, 0x62, 0x6c, 0x6f, 0x63, 0x6b, 0x73, 0x34, 0x5f, 0x73, 0x74, 0x72, 
 0x75, 0x63, 0x74, 0x5f, 0x70, 0x72, 0x75, 0x6e, 0x65, 0x64, 0x2f, 0x62, 
 0x6e, 0x5f, 0x31, 0x2f, 0x62, 0x61, 0x74, 0x63, 0x68, 0x6e, 0x6f, 0x72, 
 0x6d, 0x2f, 0x61, 0x64, 0x64, 0x5f, 0x31, 0x3b, 0x63, 0x6e, 0x6e, 0x31, 
 0x64, 0x5f, 0x62, 0x6c, 0x6f, 0x63, 0x6b, 0x73, 0x34, 0x5f, 0x73, 0x74, 
 0x72, 0x75, 0x63, 0x74, 0x5f, 0x70, 0x72, 0x75, 0x6e, 0x65, 0x64, 0x2f, 
 0x63, 0x6f, 0x6e, 0x76, 0x5f, 0x31, 0x2f, 0x43, 0x6f, 0x6e, 0x76, 0x31, 
 0x44, 0x2f, 0x53, 0x71, 0x75, 0x65, 0x65, 0x7a, 0x65, 0x3b, 0x63, 0x6e, 
 0x6e, 0x31, 0x64, 0x5f, 0x62, 0x6c, 0x6f, 0x63, 0x6b, 0x73, 0x34, 0x5f, 
 0x73, 0x74, 0x72, 0x75, 0x63, 0x74, 0x5f, 0x70, 0x72, 0x75, 0x6e, 0x65, 
 0x64, 0x2f, 0x62, 0x6e, 0x5f, 0x31, 0x2f, 0x62, 0x61, 0x74, 0x63, 0x68, 
 0x6e, 0x6f, 0x72, 0x6d, 0x2f, 0x6d, 0x75, 0x6c, 0x5f, 0x31, 0x3b, 0x63, 
 0x6e, 0x6e, 0x31, 0x64, 0x5f, 0x62, 0x6c, 0x6f, 0x63, 0x6b, 0x73, 0x34, 
 0x5f, 0x73, 0x74, 0x72, 0x75, 0x63, 0x74, 0x5f, 0x70, 0x72, 0x75, 0x6e, 
 0x65, 0x64, 0x2f, 0x62, 0x6e, 0x5f, 0x31, 0x2f, 0x62, 0x61, 0x74, 0x63, 
 0x68, 0x6e, 0x6f, 0x72, 0x6d, 0x2f, 0x6d, 0x75, 0x6c, 0x3b, 0x63, 0x6e, 
 0x6e, 0x31, 0x64, 0x5f, 0x62, 0x6c, 0x6f, 0x63, 0x6b, 0x73, 0x34, 0x5f, 
 0x73, 0x74, 0x72, 0x75, 0x63, 0x74, 0x5f, 0x70, 0x72, 0x75, 0x6e, 0x65, 
 0x64, 0x2f, 0x62, 0x6e, 0x5f, 0x31, 0x2f, 0x62, 0x61, 0x74, 0x63, 0x68, 
 0x6e, 0x6f, 0x72, 0x6d, 0x2f, 0x73, 0x75, 0x62, 0x00, 0x00, 0x00, 0x00, 
 0x03, 0x00, 0x00, 0x00, 0x01, 0x00, 0x00, 0x00, 0x00, 0x02, 0x00, 0x00, 
 0x05, 0x00, 0x00, 0x00, 0xaa, 0xfd, 0xff, 0xff, 0x00, 0x00, 0x00, 0x01, 
 0x18, 0x00, 0x00, 0x00, 0x28, 0x00, 0x00, 0x00, 0x44, 0x00, 0x00, 0x00, 
 0x1b, 0x00, 0x00, 0x00, 0x00, 0x00, 0x00, 0x09, 0x80, 0x01, 0x00, 0x00, 
 0x04, 0x00, 0x00, 0x00, 0xff, 0xff, 0xff, 0xff, 0x01, 0x00, 0x00, 0x00, 
 0x00, 0x02, 0x00, 0x00, 0x05, 0x00, 0x00, 0x00, 0xcc, 0xee, 0xff, 0xff, 
 0x08, 0x00, 0x00, 0x00, 0x10, 0x00, 0x00, 0x00, 0x01, 0x00, 0x00, 0x00, 
 0x80, 0xff, 0xff, 0xff, 0xff, 0xff, 0xff, 0xff, 0x01, 0x00, 0x00, 0x00, 
 0xdf, 0xf2, 0x8f, 0x3d, 0x42, 0x01, 0x00, 0x00, 0x63, 0x6e, 0x6e, 0x31, 
 0x64, 0x5f, 0x62, 0x6c, 0x6f, 0x63, 0x6b, 0x73, 0x34, 0x5f, 0x73, 0x74, 
 0x72, 0x75, 0x63, 0x74, 0x5f, 0x70, 0x72, 0x75, 0x6e, 0x65, 0x64, 0x2f, 
 0x61, 0x63, 0x74, 0x5f, 0x31, 0x2f, 0x52, 0x65, 0x6c, 0x75, 0x3b, 0x63, 
 0x6e, 0x6e, 0x31, 0x64, 0x5f, 0x62, 0x6c, 0x6f, 0x63, 0x6b, 0x73, 0x34, 
 0x5f, 0x73, 0x74, 0x72, 0x75, 0x63, 0x74, 0x5f, 0x70, 0x72, 0x75, 0x6e, 
 0x65, 0x64, 0x2f, 0x62, 0x6e, 0x5f, 0x31, 0x2f, 0x62, 0x61, 0x74, 0x63, 
 0x68, 0x6e, 0x6f, 0x72, 0x6d, 0x2f, 0x61, 0x64, 0x64, 0x5f, 0x31, 0x3b, 
 0x63, 0x6e, 0x6e, 0x31, 0x64, 0x5f, 0x62, 0x6c, 0x6f, 0x63, 0x6b, 0x73, 
 0x34, 0x5f, 0x73, 0x74, 0x72, 0x75, 0x63, 0x74, 0x5f, 0x70, 0x72, 0x75, 
 0x6e, 0x65, 0x64, 0x2f, 0x63, 0x6f, 0x6e, 0x76, 0x5f, 0x31, 0x2f, 0x43, 
 0x6f, 0x6e, 0x76, 0x31, 0x44, 0x2f, 0x53, 0x71, 0x75, 0x65, 0x65, 0x7a, 
 0x65, 0x3b, 0x63, 0x6e, 0x6e, 0x31, 0x64, 0x5f, 0x62, 0x6c, 0x6f, 0x63, 
 0x6b, 0x73, 0x34, 0x5f, 0x73, 0x74, 0x72, 0x75, 0x63, 0x74, 0x5f, 0x70, 
 0x72, 0x75, 0x6e, 0x65, 0x64, 0x2f, 0x62, 0x6e, 0x5f, 0x31, 0x2f, 0x62, 
 0x61, 0x74, 0x63, 0x68, 0x6e, 0x6f, 0x72, 0x6d, 0x2f, 0x6d, 0x75, 0x6c, 
 0x5f, 0x31, 0x3b, 0x63, 0x6e, 0x6e, 0x31, 0x64, 0x5f, 0x62, 0x6c, 0x6f, 
 0x63, 0x6b, 0x73, 0x34, 0x5f, 0x73, 0x74, 0x72, 0x75, 0x63, 0x74, 0x5f, 
 0x70, 0x72, 0x75, 0x6e, 0x65, 0x64, 0x2f, 0x62, 0x6e, 0x5f, 0x31, 0x2f, 
 0x62, 0x61, 0x74, 0x63, 0x68, 0x6e, 0x6f, 0x72, 0x6d, 0x2f, 0x6d, 0x75, 
 0x6c, 0x3b, 0x63, 0x6e, 0x6e, 0x31, 0x64, 0x5f, 0x62, 0x6c, 0x6f, 0x63, 
 0x6b, 0x73, 0x34, 0x5f, 0x73, 0x74, 0x72, 0x75, 0x63, 0x74, 0x5f, 0x70, 
 0x72, 0x75, 0x6e, 0x65, 0x64, 0x2f, 0x62, 0x6e, 0x5f, 0x31, 0x2f, 0x62, 
 0x61, 0x74, 0x63, 0x68, 0x6e, 0x6f, 0x72, 0x6d, 0x2f, 0x73, 0x75, 0x62, 
 0x3b, 0x63, 0x6e, 0x6e, 0x31, 0x64, 0x5f, 0x62, 0x6c, 0x6f, 0x63, 0x6b, 
 0x73, 0x34, 0x5f, 0x73, 0x74, 0x72, 0x75, 0x63, 0x74, 0x5f, 0x70, 0x72, 
 0x75, 0x6e, 0x65, 0x64, 0x2f, 0x63, 0x6f, 0x6e, 0x76, 0x5f, 0x31, 0x2f, 
 0x43, 0x6f, 0x6e, 0x76, 0x31, 0x44, 0x00, 0x00, 0x04, 0x00, 0x00, 0x00, 
 0x01, 0x00, 0x00, 0x00, 0x01, 0x00, 0x00, 0x00, 0x00, 0x02, 0x00, 0x00, 
 0x05, 0x00, 0x00, 0x00, 0x5a, 0xff, 0xff, 0xff, 0x00, 0x00, 0x00, 0x01, 
 0x18, 0x00, 0x00, 0x00, 0x28, 0x00, 0x00, 0x00, 0x44, 0x00, 0x00, 0x00, 
 0x1a, 0x00, 0x00, 0x00, 0x00, 0x00, 0x00, 0x09, 0x74, 0x00, 0x00, 0x00, 
 0x04, 0x00, 0x00, 0x00, 0xff, 0xff, 0xff, 0xff, 0x01, 0x00, 0x00, 0x00, 
 0x00, 0x02, 0x00, 0x00, 0x01, 0x00, 0x00, 0x00, 0x7c, 0xf0, 0xff, 0xff, 
 0x08, 0x00, 0x00, 0x00, 0x10, 0x00, 0x00, 0x00, 0x01, 0x00, 0x00, 0x00, 
 0xf1, 0xff, 0xff, 0xff, 0xff, 0xff, 0xff, 0xff, 0x01, 0x00, 0x00, 0x00, 
 0x3b, 0xa7, 0x53, 0x3d, 0x34, 0x00, 0x00, 0x00, 0x63, 0x6e, 0x6e, 0x31, 
 0x64, 0x5f, 0x62, 0x6c, 0x6f, 0x63, 0x6b, 0x73, 0x34, 0x5f, 0x73, 0x74, 
 0x72, 0x75, 0x63, 0x74, 0x5f, 0x70, 0x72, 0x75, 0x6e, 0x65, 0x64, 0x2f, 
 0x63, 0x6f, 0x6e, 0x76, 0x5f, 0x31, 0x2f, 0x43, 0x6f, 0x6e, 0x76, 0x31, 
 0x44, 0x2f, 0x45, 0x78, 0x70, 0x61, 0x6e, 0x64, 0x44, 0x69, 0x6d, 0x73, 
 0x00, 0x00, 0x00, 0x00, 0x04, 0x00, 0x00, 0x00, 0x01, 0x00, 0x00, 0x00, 
 0x01, 0x00, 0x00, 0x00, 0x00, 0x02, 0x00, 0x00, 0x01, 0x00, 0x00, 0x00, 
 0x00, 0x00, 0x16, 0x00, 0x20, 0x00, 0x1c, 0x00, 0x1b, 0x00, 0x14, 0x00, 
 0x10, 0x00, 0x0c, 0x00, 0x00, 0x00, 0x00, 0x00, 0x08, 0x00, 0x07, 0x00, 
 0x16, 0x00, 0x00, 0x00, 0x00, 0x00, 0x00, 0x01, 0x18, 0x00, 0x00, 0x00, 
 0x24, 0x00, 0x00, 0x00, 0x40, 0x00, 0x00, 0x00, 0x19, 0x00, 0x00, 0x00, 
 0x00, 0x00, 0x00, 0x09, 0x48, 0x00, 0x00, 0x00, 0x03, 0x00, 0x00, 0x00, 
 0xff, 0xff, 0xff, 0xff, 0x00, 0x02, 0x00, 0x00, 0x01, 0x00, 0x00, 0x00, 
 0x34, 0xf1, 0xff, 0xff, 0x08, 0x00, 0x00, 0x00, 0x10, 0x00, 0x00, 0x00, 
 0x01, 0x00, 0x00, 0x00, 0xf1, 0xff, 0xff, 0xff, 0xff, 0xff, 0xff, 0xff, 
 0x01, 0x00, 0x00, 0x00, 0x3b, 0xa7, 0x53, 0x3d, 0x0c, 0x00, 0x00, 0x00, 
 0x74, 0x66, 0x6c, 0x2e, 0x71, 0x75, 0x61, 0x6e, 0x74, 0x69, 0x7a, 0x65, 
 0x00, 0x00, 0x00, 0x00, 0x03, 0x00, 0x00, 0x00, 0x01, 0x00, 0x00, 0x00, 
 0x00, 0x02, 0x00, 0x00, 0x01, 0x00, 0x00, 0x00, 0xc6, 0xee, 0xff, 0xff, 
 0x00, 0x00, 0x00, 0x01, 0x14, 0x00, 0x00, 0x00, 0x60, 0x00, 0x00, 0x00, 
 0x18, 0x00, 0x00, 0x00, 0x00, 0x00, 0x00, 0x09, 0x6c, 0x00, 0x00, 0x00, 
 0x94, 0xf1, 0xff, 0xff, 0x08, 0x00, 0x00, 0x00, 0x30, 0x00, 0x00, 0x00, 
 0x05, 0x00, 0x00, 0x00, 0x00, 0x00, 0x00, 0x00, 0x00, 0x00, 0x00, 0x00, 
 0x00, 0x00, 0x00, 0x00, 0x00, 0x00, 0x00, 0x00, 0x00, 0x00, 0x00, 0x00, 
 0x00, 0x00, 0x00, 0x00, 0x00, 0x00, 0x00, 0x00, 0x00, 0x00, 0x00, 0x00, 
 0x00, 0x00, 0x00, 0x00, 0x00, 0x00, 0x00, 0x00, 0x05, 0x00, 0x00, 0x00, 
 0x8c, 0x08, 0x8a, 0x3b, 0x4d, 0xe1, 0xa1, 0x3b, 0xcf, 0xb0, 0x7f, 0x3b, 
 0xde, 0x68, 0xfd, 0x3c, 0x82, 0xba, 0xb8, 0x3b, 0x13, 0x00, 0x00, 0x00, 
 0x74, 0x66, 0x6c, 0x2e, 0x70, 0x73, 0x65, 0x75, 0x64, 0x6f, 0x5f, 0x71, 
 0x63, 0x6f, 0x6e, 0x73, 0x74, 0x31, 0x31, 0x00, 0x04, 0x00, 0x00, 0x00, 
 0x05, 0x00, 0x00, 0x00, 0x01, 0x00, 0x00, 0x00, 0x07, 0x00, 0x00, 0x00, 
 0x01, 0x00, 0x00, 0x00, 0x5e, 0xef, 0xff, 0xff, 0x00, 0x00, 0x00, 0x01, 
 0x14, 0x00, 0x00, 0x00, 0x64, 0x00, 0x00, 0x00, 0x17, 0x00, 0x00, 0x00, 
 0x00, 0x00, 0x00, 0x02, 0x70, 0x00, 0x00, 0x00, 0x2c, 0xf2, 0xff, 0xff, 
 0x08, 0x00, 0x00, 0x00, 0x34, 0x00, 0x00, 0x00, 0x05, 0x00, 0x00, 0x00, 
 0x00, 0x00, 0x00, 0x00, 0x00, 0x00, 0x00, 0x00, 0x00, 0x00, 0x00, 0x00, 
 0x00, 0x00, 0x00, 0x00, 0x00, 0x00, 0x00, 0x00, 0x00, 0x00, 0x00, 0x00, 
 0x00, 0x00, 0x00, 0x00, 0x00, 0x00, 0x00, 0x00, 0x00, 0x00, 0x00, 0x00, 
 0x00, 0x00, 0x00, 0x00, 0x00, 0x00, 0x00, 0x00, 0x05, 0x00, 0x00, 0x00, 
 0x6e, 0x3e, 0x64, 0x39, 0x72, 0xd6, 0x85, 0x39, 0xc2, 0x65, 0x53, 0x39, 
 0xf9, 0x82, 0xd1, 0x3a, 0x65, 0xba, 0x98, 0x39, 0x13, 0x00, 0x00, 0x00, 
 0x74, 0x66, 0x6c, 0x2e, 0x70, 0x73, 0x65, 0x75, 0x64, 0x6f, 0x5f, 0x71, 
 0x63, 0x6f, 0x6e, 0x73, 0x74, 0x31, 0x30, 0x00, 0x01, 0x00, 0x00, 0x00, 
 0x05, 0x00, 0x00, 0x00, 0xee, 0xef, 0xff, 0xff, 0x00, 0x00, 0x00, 0x01, 
 0x14, 0x00, 0x00, 0x00, 0xa0, 0x00, 0x00, 0x00, 0x16, 0x00, 0x00, 0x00, 
 0x00, 0x00, 0x00, 0x09, 0xac, 0x00, 0x00, 0x00, 0xbc, 0xf2, 0xff, 0xff, 
 0x08, 0x00, 0x00, 0x00, 0x5c, 0x00, 0x00, 0x00, 0x0a, 0x00, 0x00, 0x00, 
 0x00, 0x00, 0x00, 0x00, 0x00, 0x00, 0x00, 0x00, 0x00, 0x00, 0x00, 0x00, 
 0x00, 0x00, 0x00, 0x00, 0x00, 0x00, 0x00, 0x00, 0x00, 0x00, 0x00, 0x00, 
 0x00, 0x00, 0x00, 0x00, 0x00, 0x00, 0x00, 0x00, 0x00, 0x00, 0x00, 0x00, 
 0x00, 0x00, 0x00, 0x00, 0x00, 0x00, 0x00, 0x00, 0x00, 0x00, 0x00, 0x00, 
 0x00, 0x00, 0x00, 0x00, 0x00, 0x00, 0x00, 0x00, 0x00, 0x00, 0x00, 0x00, 
 0x00, 0x00, 0x00, 0x00, 0x00, 0x00, 0x00, 0x00, 0x00, 0x00, 0x00, 0x00, 
 0x00, 0x00, 0x00, 0x00, 0x00, 0x00, 0x00, 0x00, 0x00, 0x00, 0x00, 0x00, 
 0x0a, 0x00, 0x00, 0x00, 0x8b, 0x8c, 0x5b, 0x3b, 0x6a, 0x69, 0xb2, 0x3b, 
 0x29, 0x7a, 0x92, 0x3b, 0xd5, 0xde, 0xae, 0x3b, 0x11, 0x94, 0x74, 0x3b, 
 0xb4, 0x4c, 0x5d, 0x3b, 0xd8, 0x7b, 0xc9, 0x3b, 0x04, 0x88, 0xa9, 0x3b, 
 0x09, 0xeb, 0x44, 0x3b, 0x1f, 0xe2, 0xa0, 0x3b, 0x12, 0x00, 0x00, 0x00, 
 0x74, 0x66, 0x6c, 0x2e, 0x70, 0x73, 0x65, 0x75, 0x64, 0x6f, 0x5f, 0x71, 
 0x63, 0x6f, 0x6e, 0x73, 0x74, 0x39, 0x00, 0x00, 0x04, 0x00, 0x00, 0x00, 
 0x0a, 0x00, 0x00, 0x00, 0x01, 0x00, 0x00, 0x00, 0x05, 0x00, 0x00, 0x00, 
 0x05, 0x00, 0x00, 0x00, 0xc6, 0xf0, 0xff, 0xff, 0x00, 0x00, 0x00, 0x01, 
 0x14, 0x00, 0x00, 0x00, 0x9c, 0x00, 0x00, 0x00, 0x15, 0x00, 0x00, 0x00, 
 0x00, 0x00, 0x00, 0x02, 0xa8, 0x00, 0x00, 0x00, 0x94, 0xf3, 0xff, 0xff, 
 0x08, 0x00, 0x00, 0x00, 0x58, 0x00, 0x00, 0x00, 0x0a, 0x00, 0x00, 0x00, 
 0x00, 0x00, 0x00, 0x00, 0x00, 0x00, 0x00, 0x00, 0x00, 0x00, 0x00, 0x00, 
 0x00, 0x00, 0x00, 0x00, 0x00, 0x00, 0x00, 0x00, 0x00, 0x00, 0x00, 0x00, 
 0x00, 0x00, 0x00, 0x00, 0x00, 0x00, 0x00, 0x00, 0x00, 0x00, 0x00, 0x00, 
 0x00, 0x00, 0x00, 0x00, 0x00, 0x00, 0x00, 0x00, 0x00, 0x00, 0x00, 0x00, 
 0x00, 0x00, 0x00, 0x00, 0x00, 0x00, 0x00, 0x00, 0x00, 0x00, 0x00, 0x00, 
 0x00, 0x00, 0x00, 0x00, 0x00, 0x00, 0x00, 0x00, 0x00, 0x00, 0x00, 0x00, 
 0x00, 0x00, 0x00, 0x00, 0x00, 0x00, 0x00, 0x00, 0x0a, 0x00, 0x00, 0x00, 
 0x97, 0xe7, 0x76, 0x39, 0x4b, 0xa4, 0xc8, 0x39, 0x68, 0xba, 0xa4, 0x39, 
 0xc0, 0xa8, 0xc4, 0x39, 0xbf, 0x86, 0x89, 0x39, 0x98, 0xdf, 0x78, 0x39, 
 0xa8, 0x96, 0xe2, 0x39, 0xa1, 0xa7, 0xbe, 0x39, 0x37, 0x74, 0x5d, 0x39, 
 0xe2, 0xed, 0xb4, 0x39, 0x12, 0x00, 0x00, 0x00, 0x74, 0x66, 0x6c, 0x2e, 
 0x70, 0x73, 0x65, 0x75, 0x64, 0x6f, 0x5f, 0x71, 0x63, 0x6f, 0x6e, 0x73, 
 0x74, 0x38, 0x00, 0x00, 0x01, 0x00, 0x00, 0x00, 0x0a, 0x00, 0x00, 0x00, 
 0x8e, 0xf1, 0xff, 0xff, 0x00, 0x00, 0x00, 0x01, 0x14, 0x00, 0x00, 0x00, 
 0x18, 0x01, 0x00, 0x00, 0x14, 0x00, 0x00, 0x00, 0x00, 0x00, 0x00, 0x09, 
 0x24, 0x01, 0x00, 0x00, 0x5c, 0xf4, 0xff, 0xff, 0x08, 0x00, 0x00, 0x00, 
