#ifndef CNN_1D_DISTILL_FLOAT_H
#define CNN_1D_DISTILL_FLOAT_H

#include <stdint.h>

const unsigned int cnn_1d_distill_float_len = 21036;
alignas(16) const unsigned char cnn_1d_distill_float[] = {
 0x1c, 0x00, 0x00, 0x00, 0x54, 0x46, 0x4c, 0x33, 0x14, 0x00, 0x20, 0x00, 
 0x1c, 0x00, 0x18, 0x00, 0x14, 0x00, 0x10, 0x00, 0x0c, 0x00, 0x00, 0x00, 
 0x08, 0x00, 0x04, 0x00, 0x14, 0x00, 0x00, 0x00, 0x1c, 0x00, 0x00, 0x00, 
 0x80, 0x00, 0x00, 0x00, 0xd8, 0x00, 0x00, 0x00, 0x2c, 0x3f, 0x00, 0x00, 
 0x3c, 0x3f, 0x00, 0x00, 0x78, 0x51, 0x00, 0x00, 0x03, 0x00, 0x00, 0x00, 
 0x01, 0x00, 0x00, 0x00, 0x04, 0x00, 0x00, 0x00, 0xba, 0xbd, 0xff, 0xff, 
 0x0c, 0x00, 0x00, 0x00, 0x1c, 0x00, 0x00, 0x00, 0x38, 0x00, 0x00, 0x00, 
 0x0f, 0x00, 0x00, 0x00, 0x73, 0x65, 0x72, 0x76, 0x69, 0x6e, 0x67, 0x5f, 
 0x64, 0x65, 0x66, 0x61, 0x75, 0x6c, 0x74, 0x00, 0x01, 0x00, 0x00, 0x00, 
 0x04, 0x00, 0x00, 0x00, 0x9c, 0xff, 0xff, 0xff, 0x1f, 0x00, 0x00, 0x00, 
 0x04, 0x00, 0x00, 0x00, 0x04, 0x00, 0x00, 0x00, 0x70, 0x72, 0x65, 0x64, 
 0x00, 0x00, 0x00, 0x00, 0x01, 0x00, 0x00, 0x00, 0x04, 0x00, 0x00, 0x00, 
 0x8a, 0xc0, 0xff, 0xff, 0x04, 0x00, 0x00, 0x00, 0x04, 0x00, 0x00, 0x00, 
 0x78, 0x5f, 0x69, 0x6e, 0x00, 0x00, 0x00, 0x00, 0x02, 0x00, 0x00, 0x00, 
 0x34, 0x00, 0x00, 0x00, 0x04, 0x00, 0x00, 0x00, 0xdc, 0xff, 0xff, 0xff, 
 0x22, 0x00, 0x00, 0x00, 0x04, 0x00, 0x00, 0x00, 0x13, 0x00, 0x00, 0x00, 
 0x43, 0x4f, 0x4e, 0x56, 0x45, 0x52, 0x53, 0x49, 0x4f, 0x4e, 0x5f, 0x4d, 
 0x45, 0x54, 0x41, 0x44, 0x41, 0x54, 0x41, 0x00, 0x08, 0x00, 0x0c, 0x00, 
 0x08, 0x00, 0x04, 0x00, 0x08, 0x00, 0x00, 0x00, 0x21, 0x00, 0x00, 0x00, 
 0x04, 0x00, 0x00, 0x00, 0x13, 0x00, 0x00, 0x00, 0x6d, 0x69, 0x6e, 0x5f, 
 0x72, 0x75, 0x6e, 0x74, 0x69, 0x6d, 0x65, 0x5f, 0x76, 0x65, 0x72, 0x73, 
 0x69, 0x6f, 0x6e, 0x00, 0x23, 0x00, 0x00, 0x00, 0x50, 0x3e, 0x00, 0x00, 
 0x48, 0x3e, 0x00, 0x00, 0xb8, 0x3d, 0x00, 0x00, 0x68, 0x3d, 0x00, 0x00, 
 0xd8, 0x3c, 0x00, 0x00, 0xc8, 0x14, 0x00, 0x00, 0xf8, 0x12, 0x00, 0x00, 
 0xe0, 0x12, 0x00, 0x00, 0xc4, 0x12, 0x00, 0x00, 0xa8, 0x12, 0x00, 0x00, 
 0x8c, 0x12, 0x00, 0x00, 0x70, 0x12, 0x00, 0x00, 0x60, 0x11, 0x00, 0x00, 
 0x50, 0x01, 0x00, 0x00, 0x3c, 0x01, 0x00, 0x00, 0x28, 0x01, 0x00, 0x00, 
 0x14, 0x01, 0x00, 0x00, 0x0c, 0x01, 0x00, 0x00, 0x04, 0x01, 0x00, 0x00, 
 0xfc, 0x00, 0x00, 0x00, 0xf4, 0x00, 0x00, 0x00, 0xec, 0x00, 0x00, 0x00, 
 0xe4, 0x00, 0x00, 0x00, 0xdc, 0x00, 0x00, 0x00, 0xd4, 0x00, 0x00, 0x00, 
 0xcc, 0x00, 0x00, 0x00, 0xc4, 0x00, 0x00, 0x00, 0xbc, 0x00, 0x00, 0x00, 
 0xb4, 0x00, 0x00, 0x00, 0xac, 0x00, 0x00, 0x00, 0xa4, 0x00, 0x00, 0x00, 
 0x9c, 0x00, 0x00, 0x00, 0x94, 0x00, 0x00, 0x00, 0x74, 0x00, 0x00, 0x00, 
 0x04, 0x00, 0x00, 0x00, 0x8a, 0xc1, 0xff, 0xff, 0x04, 0x00, 0x00, 0x00, 
 0x60, 0x00, 0x00, 0x00, 0x10, 0x00, 0x00, 0x00, 0x00, 0x00, 0x00, 0x00, 
 0x08, 0x00, 0x0e, 0x00, 0x08, 0x00, 0x04, 0x00, 0x08, 0x00, 0x00, 0x00, 
 0x10, 0x00, 0x00, 0x00, 0x24, 0x00, 0x00, 0x00, 0x00, 0x00, 0x06, 0x00, 
 0x08, 0x00, 0x04, 0x00, 0x06, 0x00, 0x00, 0x00, 0x04, 0x00, 0x00, 0x00, 
 0x00, 0x00, 0x00, 0x00, 0x0c, 0x00, 0x18, 0x00, 0x14, 0x00, 0x10, 0x00, 
 0x0c, 0x00, 0x04, 0x00, 0x0c, 0x00, 0x00, 0x00, 0x90, 0x6c, 0x0f, 0xdb, 
 0xe9, 0x2c, 0x8d, 0xde, 0x02, 0x00, 0x00, 0x00, 0x02, 0x00, 0x00, 0x00, 
 0x04, 0x00, 0x00, 0x00, 0x06, 0x00, 0x00, 0x00, 0x32, 0x2e, 0x32, 0x30, 
 0x2e, 0x30, 0x00, 0x00, 0xf6, 0xc1, 0xff, 0xff, 0x04, 0x00, 0x00, 0x00, 
 0x10, 0x00, 0x00, 0x00, 0x31, 0x2e, 0x31, 0x30, 0x2e, 0x30, 0x00, 0x00, 
 0x00, 0x00, 0x00, 0x00, 0x00, 0x00, 0x00, 0x00, 0xa0, 0xb0, 0xff, 0xff, 
 0xa4, 0xb0, 0xff, 0xff, 0xa8, 0xb0, 0xff, 0xff, 0xac, 0xb0, 0xff, 0xff, 
 0xb0, 0xb0, 0xff, 0xff, 0xb4, 0xb0, 0xff, 0xff, 0xb8, 0xb0, 0xff, 0xff, 
 0xbc, 0xb0, 0xff, 0xff, 0xc0, 0xb0, 0xff, 0xff, 0xc4, 0xb0, 0xff, 0xff, 
 0xc8, 0xb0, 0xff, 0xff, 0xcc, 0xb0, 0xff, 0xff, 0xd0, 0xb0, 0xff, 0xff, 
 0xd4, 0xb0, 0xff, 0xff, 0xd8, 0xb0, 0xff, 0xff, 0xdc, 0xb0, 0xff, 0xff, 
 0x52, 0xc2, 0xff, 0xff, 0x04, 0x00, 0x00, 0x00, 0x04, 0x00, 0x00, 0x00, 
 0x02, 0x00, 0x00, 0x00, 0x62, 0xc2, 0xff, 0xff, 0x04, 0x00, 0x00, 0x00, 
 0x04, 0x00, 0x00, 0x00, 0x01, 0x00, 0x00, 0x00, 0x72, 0xc2, 0xff, 0xff, 
 0x04, 0x00, 0x00, 0x00, 0x04, 0x00, 0x00, 0x00, 0xfd, 0xff, 0xff, 0xff, 
 0x82, 0xc2, 0xff, 0xff, 0x04, 0x00, 0x00, 0x00, 0x00, 0x10, 0x00, 0x00, 
 0x4e, 0xcc, 0xc7, 0x3d, 0x02, 0x32, 0xe0, 0xba, 0x9d, 0x33, 0xd1, 0xbd, 
 0x36, 0x45, 0x9f, 0x3e, 0xbb, 0x5b, 0x73, 0xbe, 0x7d, 0x5f, 0x63, 0xbd, 
 0xab, 0xb3, 0xa1, 0xba, 0x2d, 0x00, 0x99, 0xbe, 0xd1, 0x7b, 0xe4, 0x3d, 
 0x1c, 0x2b, 0x58, 0x3e, 0xe5, 0xe4, 0xa7, 0x3d, 0x34, 0x43, 0x4c, 0x3e, 
 0x24, 0x7b, 0x39, 0x3e, 0xe8, 0x3e, 0xe9, 0x3d, 0x02, 0x06, 0xa1, 0x3e, 
 0x1d, 0x33, 0x3f, 0xbe, 0x68, 0xee, 0x8f, 0xbd, 0xe0, 0x1b, 0xaf, 0xbd, 
 0xc4, 0xd1, 0x93, 0x3e, 0x5a, 0x85, 0x2c, 0x3e, 0x38, 0x37, 0x6e, 0xbe, 
 0x18, 0xd2, 0x49, 0x3d, 0x24, 0x3b, 0x89, 0x3e, 0x51, 0x3d, 0x60, 0xbe, 
 0xb4, 0x4f, 0x70, 0x3e, 0xc8, 0xb5, 0x01, 0xbd, 0x31, 0xf8, 0x31, 0xbd, 
 0x87, 0x55, 0x8b, 0xbe, 0x02, 0xee, 0xa2, 0x3e, 0xde, 0xe2, 0x25, 0xbe, 
 0x47, 0xf9, 0x81, 0x3e, 0x84, 0xd6, 0x0b, 0xbe, 0x1b, 0xa9, 0x88, 0xbe, 
 0xaa, 0xbc, 0x3f, 0xbd, 0x68, 0x69, 0xaf, 0x3c, 0xfe, 0x71, 0x49, 0xbc, 
 0x4f, 0x4a, 0xa4, 0x3e, 0x37, 0x4d, 0x72, 0x3e, 0x38, 0xd4, 0x6b, 0x3e, 
 0x52, 0x5d, 0x19, 0xbe, 0xb3, 0x63, 0x42, 0xbe, 0xdb, 0x88, 0x49, 0xbe, 
 0x52, 0x3a, 0xcb, 0x3d, 0x40, 0x83, 0xbf, 0x3c, 0xd5, 0x03, 0x02, 0xbe, 
 0x21, 0x57, 0x92, 0x3e, 0x41, 0x4f, 0x7e, 0xbe, 0x42, 0x69, 0xe5, 0x3d, 
 0x6b, 0x44, 0x6e, 0x3e, 0x9b, 0x10, 0x8d, 0x3d, 0x39, 0x98, 0x2e, 0x3e, 
 0xde, 0xc6, 0x85, 0xbe, 0x56, 0x59, 0x44, 0x3e, 0xdf, 0xa8, 0xa1, 0x3e, 
 0x89, 0xc9, 0x0b, 0xbe, 0xa2, 0x8c, 0x8a, 0xbe, 0xda, 0x35, 0xe7, 0x3d, 
 0x95, 0xe8, 0x14, 0x3e, 0x56, 0xcc, 0x21, 0x3e, 0x8a, 0xe9, 0x08, 0x3e, 
 0x84, 0x43, 0x87, 0x3e, 0x31, 0x96, 0xb9, 0xbd, 0xe6, 0x73, 0x91, 0x3e, 
 0xf8, 0x27, 0x81, 0x3e, 0x86, 0x35, 0xc3, 0xbd, 0x10, 0xc4, 0x8a, 0x3e, 
 0xf7, 0x4b, 0x88, 0x3d, 0x2c, 0x5b, 0x90, 0x3e, 0xb5, 0xc6, 0x4b, 0x3e, 
 0xac, 0xdf, 0xaa, 0x3e, 0x7e, 0xea, 0x4f, 0xbe, 0x7b, 0x11, 0x68, 0x3e, 
 0x72, 0x0a, 0x80, 0x3e, 0x7d, 0x38, 0x4c, 0xbe, 0x56, 0x8a, 0xda, 0x3d, 
 0xbc, 0x83, 0x37, 0xbe, 0xfb, 0xd5, 0x82, 0xbe, 0x5f, 0xc2, 0x7f, 0x3d, 
 0x0e, 0x12, 0x04, 0xbe, 0x56, 0x6a, 0x0e, 0xbd, 0x3b, 0xf7, 0xbc, 0x3d, 
 0x91, 0x6f, 0x1e, 0x3e, 0x66, 0xa5, 0xf7, 0xbd, 0x2b, 0xbd, 0x09, 0xbe, 
 0xe6, 0x3e, 0x2d, 0x3e, 0x13, 0xa4, 0x95, 0x3d, 0x6f, 0x70, 0xe0, 0xbd, 
 0x2c, 0x68, 0x6a, 0x3e, 0xd8, 0xd8, 0x26, 0xbc, 0x80, 0x84, 0x02, 0x3e, 
 0x38, 0xd9, 0xbf, 0xbd, 0xcf, 0x56, 0x8f, 0xbc, 0xf3, 0xc9, 0x23, 0x3e, 
 0xd7, 0x91, 0x8b, 0x3e, 0xc2, 0x72, 0x34, 0xbc, 0xf9, 0xf9, 0x25, 0x3d, 
 0xd8, 0xc2, 0xa0, 0x3e, 0x8e, 0x35, 0xdd, 0x3d, 0x91, 0xfd, 0x54, 0xbe, 
 0x79, 0x5a, 0xb7, 0xbd, 0xc7, 0x55, 0x41, 0xbe, 0x06, 0x7e, 0xb5, 0xbc, 
 0x32, 0xd0, 0x3d, 0xbe, 0x9e, 0x53, 0x00, 0xbe, 0x8d, 0xcd, 0xc6, 0xbc, 
 0x83, 0xf8, 0x48, 0xbd, 0x8c, 0xf2, 0x3e, 0x3d, 0xc1, 0x0a, 0xaa, 0xbd, 
 0x5f, 0x0e, 0x8f, 0x3e, 0xa8, 0x61, 0x80, 0xbe, 0x1a, 0x24, 0x6c, 0xbd, 
 0x5d, 0x94, 0x33, 0x3e, 0x6d, 0x86, 0x52, 0x3d, 0x08, 0xaf, 0x36, 0xbe, 
 0x89, 0xb9, 0x40, 0x3e, 0x6d, 0x91, 0xda, 0x3d, 0xb6, 0xf8, 0x80, 0x3e, 
 0xa9, 0xd2, 0x1f, 0xbe, 0x28, 0x70, 0x92, 0xbc, 0x5d, 0xcf, 0xe2, 0xbd, 
 0xcb, 0x3b, 0x91, 0x3e, 0x9d, 0xf9, 0x62, 0xbd, 0x86, 0x6d, 0x94, 0x3e, 
 0xfa, 0x80, 0x08, 0xbe, 0x47, 0x7f, 0xe3, 0xbd, 0x45, 0xdf, 0x97, 0xbd, 
 0xf6, 0x09, 0x9c, 0xbd, 0xbd, 0xe2, 0x89, 0x3e, 0xda, 0xb3, 0x20, 0x3e, 
 0x36, 0x71, 0x7e, 0xbe, 0x9e, 0xc5, 0x65, 0xbe, 0x22, 0x40, 0x23, 0x3d, 
 0x4d, 0x02, 0x47, 0xbc, 0x2c, 0xeb, 0x0a, 0xbe, 0xee, 0x53, 0x00, 0x3e, 
 0xea, 0xa0, 0x90, 0xbd, 0x70, 0xdb, 0x6c, 0x3e, 0xd4, 0x3d, 0x3d, 0x3e, 
 0x41, 0xe3, 0x52, 0x3e, 0x01, 0xb0, 0xe9, 0x3c, 0xbe, 0x17, 0x2c, 0x3e, 
 0xbb, 0xce, 0x60, 0xbe, 0x92, 0x81, 0xe1, 0x3d, 0x22, 0x37, 0x88, 0xbd, 
 0x57, 0xe7, 0x78, 0x3e, 0x6e, 0x52, 0x18, 0x3e, 0x05, 0xed, 0x2a, 0xbc, 
 0xd9, 0x22, 0x8c, 0xbe, 0xbf, 0x91, 0x7e, 0xbc, 0xf4, 0xfe, 0x4d, 0xbe, 
 0xb3, 0xc4, 0x31, 0x3e, 0xaa, 0x82, 0x95, 0xbd, 0xee, 0xb1, 0x8e, 0x3e, 
 0x63, 0x0c, 0x7d, 0xbd, 0x73, 0x91, 0x4c, 0x3e, 0xd8, 0xec, 0xac, 0x3e, 
 0xb4, 0x63, 0x3d, 0xbc, 0x8b, 0x61, 0x11, 0x3e, 0xd2, 0x0c, 0x15, 0xbe, 
 0x8d, 0x20, 0x72, 0x3e, 0x91, 0xd5, 0xbf, 0x3d, 0xd1, 0xf8, 0x51, 0xbd, 
 0x46, 0x4b, 0x63, 0x3c, 0xb9, 0xa9, 0x6b, 0xbe, 0xc5, 0x84, 0x12, 0x3e, 
 0xcd, 0x18, 0x54, 0xbe, 0x6f, 0x85, 0xbe, 0xbd, 0x96, 0x0e, 0x59, 0x3d, 
 0x8d, 0xa5, 0x4d, 0xbd, 0xfd, 0x19, 0xc3, 0x3d, 0x4f, 0x23, 0x32, 0xbe, 
 0xde, 0x63, 0xe8, 0x3d, 0x00, 0x8e, 0x0e, 0xbe, 0xc9, 0x62, 0x52, 0x3e, 
 0x1d, 0x90, 0x3d, 0xbd, 0xda, 0x37, 0x4c, 0x3d, 0x85, 0xe7, 0x6c, 0xbd, 
 0xd1, 0x78, 0x97, 0xbb, 0x08, 0x3e, 0x15, 0x3d, 0x70, 0x37, 0xa9, 0x3d, 
 0x01, 0x43, 0x9d, 0x3e, 0x1f, 0x59, 0xc2, 0x3d, 0x9e, 0x60, 0x94, 0x3e, 
 0xa8, 0xc8, 0xad, 0x3e, 0x83, 0x12, 0x1f, 0x3d, 0x6d, 0xdb, 0xe5, 0x3d, 
 0xea, 0xca, 0x1d, 0x3d, 0xa5, 0x69, 0x05, 0x3e, 0x1b, 0xe0, 0x54, 0xbe, 
 0xc0, 0xfa, 0x14, 0x3e, 0x24, 0x27, 0x4d, 0xbe, 0x1c, 0xe3, 0x0d, 0x3e, 
 0x44, 0xc8, 0xe3, 0xbc, 0xcb, 0xc6, 0x1a, 0x3e, 0x23, 0xda, 0xbd, 0xba, 
 0x77, 0xc0, 0x4c, 0x3d, 0x30, 0x06, 0x65, 0x3d, 0x53, 0xf7, 0x7d, 0xbc, 
 0x80, 0xe1, 0x26, 0x3e, 0x4c, 0x5f, 0x31, 0xbe, 0x54, 0x96, 0x0d, 0x3e, 
 0xb4, 0x3b, 0x81, 0x3e, 0xd4, 0x41, 0x2b, 0xbe, 0x09, 0x2a, 0x87, 0xbe, 
 0xe7, 0xb7, 0x0e, 0x3d, 0x6f, 0xf4, 0xd4, 0xbc, 0x10, 0xcb, 0x9a, 0x3d, 
 0x3a, 0xf2, 0x55, 0x3d, 0xf0, 0x6a, 0xea, 0xbc, 0x50, 0x5a, 0xe7, 0x3d, 
 0xd2, 0x8a, 0x3d, 0x3e, 0xf8, 0x85, 0x4b, 0xbd, 0xe2, 0xd1, 0x30, 0x3e, 
 0xfe, 0x93, 0xda, 0xbc, 0x04, 0x1f, 0x17, 0xbe, 0xf3, 0xaa, 0xc1, 0xbd, 
 0xd6, 0xc9, 0x79, 0x3e, 0x90, 0x01, 0x06, 0xbe, 0x47, 0xe6, 0xd3, 0xbd, 
 0x18, 0x67, 0xd5, 0xbd, 0x6c, 0x00, 0x1d, 0xbd, 0x20, 0xba, 0xa4, 0x3c, 
 0x53, 0xe9, 0x6d, 0x3e, 0x1a, 0x87, 0x76, 0x3e, 0x68, 0xd5, 0x68, 0xbe, 
 0xec, 0xc4, 0x3e, 0x3e, 0x68, 0x54, 0xfa, 0xbd, 0x98, 0xa4, 0x7c, 0x3e, 
 0x2c, 0xba, 0xf8, 0x3d, 0xa9, 0xf2, 0x94, 0x3e, 0xc0, 0x60, 0x0a, 0x3e, 
 0xa2, 0xda, 0xc0, 0x3d, 0xeb, 0x62, 0x47, 0xbe, 0xf2, 0xdb, 0x82, 0x3e, 
 0x61, 0xe2, 0xcb, 0x3d, 0x2b, 0x22, 0x74, 0xbe, 0x3d, 0x16, 0x69, 0xbc, 
 0x36, 0xab, 0x87, 0x3e, 0xdf, 0x9b, 0x8b, 0x3e, 0x29, 0x8a, 0xa6, 0x3c, 
 0xf6, 0xc1, 0x6c, 0x3d, 0x77, 0x20, 0xd1, 0xbd, 0xb8, 0xb3, 0xca, 0x3c, 
 0x14, 0x10, 0x90, 0x3e, 0x94, 0x5d, 0x93, 0x3e, 0xad, 0x20, 0xbc, 0x3d, 
 0xd9, 0xd4, 0x07, 0x3e, 0x8d, 0xa7, 0x78, 0x3e, 0xe1, 0xdb, 0xc6, 0xbd, 
 0x28, 0x31, 0x55, 0x3e, 0x13, 0x76, 0x3b, 0x3e, 0x5b, 0x0b, 0x8c, 0xb9, 
 0x4c, 0x16, 0x6a, 0x3e, 0xec, 0xe1, 0xb1, 0x3e, 0xb0, 0x3b, 0x9b, 0x3e, 
 0x59, 0x95, 0x87, 0xbe, 0xee, 0x09, 0x32, 0x3e, 0x5c, 0x9d, 0x41, 0xbe, 
 0xeb, 0xa8, 0x1a, 0x3e, 0x45, 0x8b, 0xef, 0xbb, 0xd1, 0x28, 0x5b, 0x3e, 
 0x30, 0x42, 0x8e, 0x3e, 0x0b, 0x81, 0x43, 0xbc, 0x27, 0x19, 0x06, 0x3e, 
 0x36, 0x29, 0xcd, 0x3c, 0x0d, 0xc5, 0x6d, 0xbe, 0x25, 0xfb, 0x68, 0xbe, 
 0x04, 0x94, 0x40, 0xbe, 0xe4, 0x78, 0xf9, 0xbd, 0x61, 0xc3, 0x8a, 0x3e, 
 0xcf, 0x12, 0x0c, 0xbe, 0x57, 0xfd, 0x00, 0x3e, 0xf0, 0xf2, 0x71, 0xbe, 
 0x48, 0x4b, 0xb2, 0xbd, 0x46, 0x5a, 0x4b, 0x3e, 0x09, 0x5f, 0xa7, 0xbd, 
 0x48, 0x4c, 0x20, 0xbe, 0x43, 0x62, 0x62, 0x3e, 0x6d, 0xf4, 0x11, 0xbd, 
 0xe1, 0x3d, 0x63, 0x3d, 0x14, 0x11, 0x1f, 0x3e, 0x7b, 0xad, 0x12, 0xbd, 
 0x84, 0x10, 0x20, 0xbd, 0x79, 0x37, 0x25, 0x3e, 0x3d, 0x2a, 0x83, 0x3e, 
 0x76, 0x88, 0xad, 0x3e, 0x57, 0xdb, 0xc1, 0x3c, 0x0f, 0x11, 0x0e, 0xbd, 
 0xaa, 0x8b, 0x92, 0xbe, 0x67, 0x0b, 0x51, 0xbe, 0xf6, 0xf7, 0x99, 0x3e, 
 0xbd, 0x97, 0x23, 0x3e, 0x1f, 0x6b, 0x01, 0x3e, 0xc7, 0x4c, 0xdc, 0x3c, 
 0x83, 0x30, 0x12, 0xbe, 0x3b, 0x69, 0xe7, 0x3c, 0x0e, 0x56, 0x54, 0xbe, 
 0xe2, 0xea, 0xa2, 0xbd, 0x0c, 0x1b, 0x75, 0xbc, 0xfc, 0xe4, 0x99, 0x3e, 
 0x6a, 0x0a, 0x3d, 0x3e, 0x2f, 0x9a, 0xb3, 0x3e, 0x09, 0x03, 0xa5, 0x3d, 
 0x01, 0x26, 0xda, 0x3d, 0xcd, 0x30, 0x9f, 0x3e, 0xce, 0x21, 0xb1, 0xbd, 
 0x6d, 0xe2, 0xac, 0x3c, 0x8e, 0x73, 0x24, 0xbd, 0x18, 0xa5, 0x9d, 0x3e, 
 0xad, 0x10, 0xa4, 0x3d, 0x40, 0x90, 0xfc, 0x3d, 0xfb, 0x21, 0x46, 0x3c, 
 0xb1, 0x79, 0x1c, 0x3e, 0x0d, 0x91, 0xee, 0xbb, 0x85, 0x52, 0x0a, 0x3e, 
 0xb0, 0x64, 0x7b, 0x3e, 0xd7, 0x8b, 0xa9, 0x3c, 0xad, 0x00, 0x20, 0xbe, 
 0x9b, 0x92, 0x2f, 0x3e, 0x0f, 0xd3, 0x25, 0x3b, 0x91, 0x5c, 0x6e, 0xbe, 
 0x38, 0xcb, 0x93, 0xbe, 0xc6, 0x06, 0x15, 0xbe, 0x1e, 0x70, 0xd9, 0x3d, 
 0x04, 0xfb, 0xcc, 0x3b, 0x5b, 0xb6, 0x6e, 0x3e, 0x48, 0x73, 0x94, 0x3d, 
 0xbc, 0xd5, 0x69, 0xbd, 0x7f, 0x4b, 0xd8, 0x3d, 0xeb, 0x84, 0x59, 0xbe, 
 0x46, 0xf0, 0x54, 0xbe, 0xdb, 0xd1, 0xfa, 0xbd, 0x4b, 0xb9, 0x4b, 0xbe, 
 0xcb, 0x76, 0x5d, 0x3c, 0xc8, 0x42, 0xfc, 0xbd, 0x08, 0x56, 0x3c, 0x3e, 
 0xf7, 0x75, 0xa7, 0xbd, 0x61, 0x2c, 0x67, 0xbe, 0xcc, 0xa0, 0xed, 0x3d, 
 0x60, 0x57, 0x9d, 0x3e, 0xa1, 0xbe, 0x57, 0xbb, 0xe3, 0x4a, 0x4c, 0xbe, 
 0x8e, 0x03, 0x88, 0x3e, 0x52, 0xa7, 0x9e, 0xbe, 0x98, 0x65, 0x8f, 0x3a, 
 0x90, 0xd9, 0x6e, 0xbd, 0xd3, 0xaa, 0x6c, 0xbe, 0x0f, 0xc7, 0x8a, 0x3d, 
 0x05, 0xc1, 0xbc, 0xbd, 0x64, 0x18, 0x5a, 0xbd, 0x9d, 0xd0, 0x80, 0x3d, 
 0x08, 0x5a, 0x11, 0x3e, 0x29, 0x4c, 0xd0, 0xbd, 0x1b, 0x1d, 0x42, 0x3e, 
 0xa8, 0xaf, 0x97, 0x3e, 0x6a, 0x8d, 0x9a, 0x3d, 0xa2, 0x0c, 0x9a, 0x3c, 
 0xb3, 0x5d, 0x58, 0xbe, 0x07, 0x8f, 0x81, 0x3d, 0x12, 0xf8, 0x7a, 0xbd, 
 0xd5, 0xbb, 0x2d, 0xbe, 0x54, 0x08, 0x8b, 0x3e, 0xc9, 0xe0, 0x3e, 0xbd, 
 0x61, 0x1a, 0xb1, 0xbd, 0xec, 0x62, 0x89, 0xbe, 0x28, 0x68, 0x63, 0xbe, 
 0x52, 0xbc, 0xa0, 0xbe, 0x08, 0x90, 0x25, 0xbe, 0xae, 0xa3, 0x51, 0xbb, 
 0xae, 0x8e, 0x7b, 0x3e, 0x98, 0xc4, 0x35, 0x3e, 0xcd, 0x24, 0xc6, 0xbb, 
 0x3e, 0x83, 0xc1, 0x3d, 0x5b, 0xa0, 0x42, 0xbd, 0xcc, 0xfd, 0x90, 0x3e, 
 0xae, 0xa9, 0x94, 0x3e, 0xd5, 0xe6, 0x8d, 0x3e, 0x04, 0xe0, 0x6b, 0xbe, 
 0x3a, 0x60, 0x3b, 0x3d, 0xb7, 0xd6, 0xc6, 0xbc, 0x4a, 0x73, 0xed, 0xbd, 
 0xc5, 0x24, 0xfc, 0xbd, 0xf3, 0x35, 0x50, 0xbd, 0x78, 0x6c, 0x05, 0x3e, 
 0xfa, 0x10, 0x53, 0x3e, 0x11, 0x3d, 0x91, 0x3e, 0xbb, 0x15, 0x36, 0x3e, 
 0xa0, 0xc6, 0x77, 0xbe, 0x6d, 0x88, 0xbb, 0x3d, 0x38, 0x68, 0xe6, 0xbd, 
 0x6a, 0x7a, 0x14, 0x3e, 0x70, 0x0e, 0xe8, 0xbd, 0xa5, 0xc5, 0x00, 0xbe, 
 0x72, 0x8c, 0x88, 0xbe, 0x67, 0x75, 0x60, 0xbe, 0x79, 0x1f, 0xc2, 0xbd, 
 0x37, 0x7e, 0x28, 0x3e, 0xef, 0x8a, 0x1e, 0xbe, 0xa2, 0x4f, 0x00, 0x3e, 
 0xac, 0x65, 0xd4, 0xbd, 0xbd, 0x38, 0xa0, 0x3e, 0xf8, 0x58, 0x9a, 0x3e, 
 0x82, 0x4c, 0x35, 0xbe, 0xd3, 0x51, 0x80, 0x3e, 0x4a, 0xa0, 0x5e, 0xbe, 
 0xce, 0x5f, 0x00, 0xbe, 0xdb, 0xe2, 0x9c, 0x3e, 0x59, 0x72, 0xa3, 0x3c, 
 0xf9, 0x35, 0x01, 0x3e, 0xd8, 0x6e, 0xc4, 0x3d, 0xf6, 0x88, 0x98, 0x3e, 
 0x5e, 0xa7, 0x8a, 0x3e, 0xda, 0x7f, 0x28, 0xbd, 0x47, 0xae, 0x23, 0x3e, 
 0xbd, 0x29, 0x98, 0xbc, 0x69, 0x2a, 0x5b, 0xbe, 0x1f, 0x7d, 0x96, 0xbe, 
 0xc5, 0xea, 0x97, 0xbe, 0xeb, 0x19, 0x9a, 0x3e, 0x67, 0xb4, 0x01, 0xbe, 
 0x24, 0xeb, 0x05, 0x3e, 0x5c, 0xfd, 0xa3, 0xbd, 0xc1, 0x61, 0x96, 0xbd, 
 0xe3, 0xc5, 0x79, 0x3d, 0xbf, 0x73, 0x8c, 0xbc, 0x08, 0xd8, 0x8a, 0x3e, 
 0x1c, 0x05, 0xf5, 0xbd, 0xab, 0x41, 0x90, 0xbd, 0xdd, 0x70, 0x2b, 0x3e, 
 0xd3, 0xb0, 0x18, 0xbc, 0x70, 0x14, 0x7b, 0xbe, 0x77, 0x29, 0x5a, 0xbe, 
 0x22, 0x76, 0x5f, 0xbe, 0x4a, 0x75, 0x33, 0x3e, 0x92, 0xe9, 0x99, 0x3e, 
 0x7b, 0xb6, 0x70, 0xbd, 0x5a, 0x3d, 0xac, 0xbd, 0xe0, 0xca, 0x6a, 0x3e, 
 0xc5, 0x77, 0x77, 0x3e, 0xb1, 0x10, 0x8a, 0xbe, 0xc6, 0xcd, 0x7d, 0xbe, 
 0x00, 0xca, 0x87, 0x3d, 0x36, 0x1e, 0x7f, 0x3e, 0x8e, 0x2e, 0x9b, 0xbc, 
 0xa3, 0x7a, 0xfe, 0x3d, 0x40, 0xd7, 0x9e, 0xbe, 0xa1, 0x2b, 0x81, 0xbe, 
 0x17, 0xad, 0x81, 0x3c, 0x94, 0xed, 0xa8, 0xbd, 0x7a, 0xfd, 0x83, 0x3c, 
 0x3c, 0x72, 0xe3, 0xbd, 0x20, 0xeb, 0x96, 0xbc, 0x39, 0x4b, 0x6b, 0xbe, 
 0x22, 0x72, 0x86, 0xbd, 0xff, 0x0f, 0x93, 0xbd, 0xdd, 0x14, 0x94, 0xbe, 
 0xe9, 0x98, 0x22, 0xbe, 0x11, 0xb5, 0x45, 0xbe, 0x6d, 0x70, 0xca, 0x3d, 
 0x55, 0x2c, 0x80, 0xbe, 0x8c, 0x6d, 0xd3, 0xbd, 0x3c, 0x28, 0x0e, 0x3e, 
 0x2a, 0xee, 0xc1, 0xbd, 0x71, 0x2c, 0x7b, 0xbe, 0x04, 0x81, 0x46, 0xbe, 
 0x2a, 0xb0, 0x8d, 0xbe, 0x95, 0xe8, 0x87, 0x3e, 0xbe, 0xa1, 0x04, 0xbe, 
 0x8e, 0xa7, 0x49, 0x3e, 0x61, 0x07, 0x57, 0xbe, 0x40, 0xe5, 0x1c, 0x3e, 
 0x20, 0xbb, 0x0d, 0xbe, 0x9e, 0x62, 0x67, 0xbd, 0x11, 0x2b, 0x08, 0x3d, 
 0x0c, 0xd5, 0x14, 0xbe, 0xb6, 0xc4, 0x2e, 0x3e, 0xf1, 0xf5, 0xd7, 0x3d, 
 0xe1, 0x11, 0x22, 0x3e, 0xf2, 0xd1, 0x16, 0x3e, 0xc5, 0xca, 0x84, 0xbd, 
 0xcc, 0xc6, 0x52, 0x3e, 0x8f, 0xa4, 0x83, 0xbe, 0x00, 0xd8, 0x01, 0xbe, 
 0x28, 0xde, 0xb2, 0xbd, 0x02, 0xe1, 0xaf, 0xbd, 0xb3, 0x0c, 0x0b, 0x3e, 
 0xf0, 0xc4, 0xc2, 0x3d, 0x8d, 0x56, 0x5c, 0xbe, 0x7d, 0x6a, 0x88, 0x3e, 
 0xd0, 0xdd, 0x4f, 0xbd, 0x4c, 0x44, 0x95, 0xbd, 0x1e, 0x52, 0x8e, 0x3e, 
 0xeb, 0x13, 0x82, 0x3e, 0xdc, 0xc1, 0x3c, 0x3d, 0x47, 0xb4, 0xe0, 0xbd, 
 0xfa, 0x7f, 0x98, 0x3e, 0x1f, 0x0c, 0x98, 0xbd, 0x29, 0x4f, 0x34, 0xbe, 
 0x4e, 0x28, 0x68, 0x3e, 0xc7, 0xdf, 0x60, 0x3e, 0xb9, 0x7d, 0x6e, 0x3d, 
 0xad, 0x07, 0x7a, 0xbe, 0x88, 0x0d, 0x86, 0xbe, 0x2a, 0x65, 0x10, 0xbe, 
 0xff, 0x03, 0xe9, 0x3d, 0x52, 0x5b, 0xd0, 0x3d, 0xca, 0x85, 0x4e, 0xbd, 
 0x49, 0xec, 0x27, 0xbe, 0x2b, 0xff, 0x18, 0xbe, 0xb5, 0x42, 0x9e, 0xbd, 
 0x08, 0x7e, 0x9c, 0x3e, 0x93, 0xb3, 0x3b, 0xbe, 0x05, 0xee, 0xcd, 0xbd, 
 0x84, 0xce, 0x5e, 0x3d, 0x59, 0xa6, 0x4c, 0xbe, 0x33, 0x3b, 0x86, 0x3e, 
 0x4b, 0x6c, 0xdf, 0xbc, 0xa7, 0x7c, 0x8e, 0x3e, 0x80, 0x44, 0x3d, 0x3e, 
 0xd3, 0x76, 0x45, 0xbe, 0x54, 0x00, 0x3e, 0x3d, 0x77, 0x1b, 0x23, 0x3d, 
 0xbe, 0x2c, 0x04, 0xbe, 0xe5, 0x10, 0xa3, 0x3e, 0x79, 0x70, 0xf7, 0x3d, 
 0x75, 0x1b, 0x01, 0x3e, 0x0b, 0x0d, 0x09, 0x3e, 0x21, 0x2b, 0x6f, 0xbe, 
 0xd4, 0x3a, 0xc3, 0xbd, 0xe0, 0x16, 0x41, 0xbd, 0x27, 0x76, 0xa4, 0x3e, 
 0x1d, 0xb4, 0x98, 0x3d, 0x22, 0x7f, 0x57, 0xbc, 0x27, 0x29, 0x3a, 0x3d, 
 0xb0, 0x3b, 0x84, 0xbd, 0x83, 0x47, 0x6b, 0x3e, 0x3f, 0x63, 0x34, 0xbe, 
 0xef, 0x27, 0xd4, 0xbd, 0x40, 0xce, 0x45, 0x3c, 0x71, 0x04, 0x11, 0xbe, 
 0x57, 0x32, 0x38, 0x3e, 0x06, 0xd3, 0x21, 0xbe, 0xd1, 0x81, 0x1b, 0x3e, 
 0x47, 0x85, 0xc0, 0xbd, 0x92, 0x7b, 0x4d, 0xbe, 0x2d, 0x0f, 0xad, 0xbd, 
 0x93, 0x0b, 0xb0, 0xbd, 0xb9, 0x88, 0x83, 0x3e, 0x2b, 0xfd, 0x1c, 0x3e, 
 0x24, 0xd9, 0x4d, 0xbe, 0x0f, 0x7f, 0x10, 0xbc, 0x74, 0x5f, 0xb7, 0x3e, 
 0xb3, 0x5f, 0xe3, 0x3d, 0x0c, 0x55, 0x6f, 0xbe, 0x9c, 0x35, 0x3d, 0x3d, 
 0xf3, 0x57, 0xc3, 0x3d, 0x53, 0x0b, 0x59, 0x3e, 0x2a, 0xa7, 0x3a, 0x3e, 
 0x46, 0x79, 0x16, 0xbe, 0x12, 0x67, 0x65, 0x3e, 0xef, 0x9c, 0x8c, 0x3e, 
 0x7f, 0x7c, 0xa8, 0x3d, 0xe7, 0x19, 0x12, 0xbe, 0x7c, 0x5e, 0x32, 0xbe, 
 0x5a, 0xb5, 0xf7, 0x3b, 0xb5, 0xbc, 0x07, 0xbe, 0xb8, 0x9e, 0x10, 0xbe, 
 0x0a, 0xfe, 0x4b, 0x3e, 0x6a, 0x33, 0xef, 0xbd, 0xe1, 0xb5, 0x7c, 0x3e, 
 0x45, 0x32, 0x93, 0x3e, 0x3e, 0x1e, 0x96, 0x3e, 0x5e, 0x00, 0x64, 0x3e, 
 0xee, 0x8d, 0x20, 0xbe, 0xc8, 0x94, 0x9d, 0x3e, 0xa2, 0xd7, 0xd0, 0xbd, 
 0xaa, 0x86, 0x9d, 0x3e, 0xd8, 0x2b, 0x8f, 0x3c, 0xeb, 0x7d, 0x53, 0x3e, 
 0xd6, 0x0f, 0xce, 0x3c, 0x3b, 0x43, 0x99, 0xbe, 0x4f, 0xe4, 0x78, 0x3e, 
 0xb3, 0x57, 0x46, 0x3d, 0x6a, 0x39, 0x7d, 0x3e, 0xa0, 0xb5, 0x09, 0x3e, 
 0x42, 0x3a, 0xa6, 0x3e, 0xa8, 0x1d, 0x28, 0x3e, 0xe6, 0xc8, 0x89, 0xbd, 
 0xa0, 0xac, 0x8e, 0xbe, 0xc4, 0xc8, 0xa3, 0xbd, 0x74, 0xde, 0xf7, 0x3d, 
 0x73, 0xf6, 0x49, 0xbe, 0x13, 0xfc, 0x7c, 0x3e, 0x1b, 0x7d, 0x86, 0xbe, 
 0x4e, 0x6f, 0x82, 0x3e, 0xb4, 0x30, 0x5d, 0xbe, 0x05, 0x1d, 0x00, 0x3e, 
 0x57, 0xb7, 0x78, 0x3c, 0x78, 0x9b, 0x6f, 0x3d, 0x2f, 0x94, 0x0e, 0xbb, 
 0x68, 0x77, 0xec, 0x3d, 0x33, 0x55, 0x97, 0xbe, 0xf9, 0x38, 0x23, 0x3d, 
 0x0c, 0x43, 0x04, 0xbd, 0x1c, 0xa1, 0x4d, 0x3e, 0xb8, 0x70, 0x84, 0x3e, 
 0xf6, 0xc4, 0x04, 0x3c, 0xe6, 0x8a, 0x41, 0xbe, 0x97, 0x81, 0x0f, 0xbd, 
 0x18, 0x1a, 0x08, 0xbd, 0x6b, 0xe1, 0xaf, 0x3d, 0x76, 0x43, 0x27, 0xbe, 
 0x64, 0xc6, 0x11, 0xbe, 0x18, 0xaf, 0x36, 0x3e, 0x4c, 0x61, 0x46, 0x3e, 
 0x17, 0x2f, 0x08, 0xbd, 0xb0, 0x79, 0x63, 0x3e, 0xa4, 0x8b, 0x4e, 0x3d, 
 0x81, 0xc7, 0xeb, 0x3d, 0x90, 0xb9, 0xbc, 0x3d, 0x3e, 0x27, 0x3f, 0xbc, 
 0xfd, 0x56, 0xd8, 0xbd, 0x87, 0x78, 0x98, 0x3d, 0x81, 0x4d, 0x8c, 0x3e, 
 0x6a, 0x75, 0x00, 0x3e, 0x13, 0x07, 0x84, 0xbe, 0x01, 0x3c, 0x15, 0xbb, 
 0x9f, 0x7a, 0x41, 0xbe, 0xe3, 0xe2, 0x33, 0x3e, 0x41, 0x96, 0x3c, 0x3e, 
 0x82, 0x26, 0x7d, 0x3c, 0x98, 0x75, 0x8a, 0x3e, 0x5b, 0xf5, 0x9d, 0x3c, 
 0x88, 0x60, 0x94, 0xbd, 0x7c, 0x4a, 0xed, 0xbd, 0xeb, 0x8a, 0x27, 0xbd, 
 0x60, 0x81, 0x8c, 0x3e, 0x53, 0x1d, 0x16, 0x3e, 0x4d, 0x7d, 0x4c, 0xbe, 
 0xc9, 0x54, 0x33, 0xbe, 0xd6, 0xb7, 0x85, 0xbe, 0x83, 0x97, 0x82, 0xbd, 
 0xe2, 0xab, 0x44, 0xbd, 0xab, 0xcd, 0xdc, 0xbc, 0x53, 0xab, 0xb8, 0x3c, 
 0x17, 0x84, 0x23, 0x3e, 0x7b, 0x92, 0x3c, 0x3e, 0x9d, 0x1a, 0x5b, 0xbd, 
 0x0c, 0x79, 0x11, 0xbd, 0x53, 0x3d, 0x7d, 0xbc, 0xc3, 0x84, 0x08, 0x3e, 
 0x88, 0x40, 0xe5, 0xbd, 0x45, 0x65, 0x51, 0x3e, 0x6a, 0xdd, 0xf1, 0xbd, 
 0x0c, 0x06, 0xa4, 0xbd, 0x67, 0x99, 0x92, 0x3e, 0x21, 0x90, 0x91, 0x3e, 
 0x0a, 0x46, 0x07, 0x3e, 0x14, 0xdf, 0xe1, 0x3d, 0x4c, 0xb2, 0x88, 0xbe, 
 0x52, 0x17, 0xa9, 0x3d, 0x19, 0x4e, 0xbf, 0xbc, 0x71, 0x18, 0x6c, 0xbd, 
 0x41, 0x30, 0x83, 0x3d, 0xef, 0x11, 0x90, 0xbd, 0x69, 0x2f, 0x1e, 0xbe, 
 0x82, 0xbe, 0x9a, 0x3d, 0x0f, 0x1a, 0x67, 0xbe, 0xbe, 0x94, 0x07, 0x3e, 
 0x0c, 0xa1, 0x14, 0x3e, 0x5e, 0xf8, 0x4b, 0x3d, 0x73, 0x78, 0x65, 0xbe, 
 0x17, 0x5f, 0xd7, 0x3d, 0x24, 0xbf, 0x7b, 0xbe, 0xc5, 0x70, 0x88, 0xbe, 
 0x03, 0x50, 0x03, 0x3e, 0x52, 0x94, 0x05, 0x3e, 0xdb, 0x08, 0x36, 0x3d, 
 0x9e, 0x0e, 0x7f, 0x3e, 0xe3, 0x01, 0x5a, 0x3c, 0xe0, 0xa7, 0x4b, 0x3b, 
 0x74, 0xb2, 0x89, 0x3e, 0x9f, 0x44, 0x36, 0x3e, 0xec, 0xb9, 0x5b, 0xbe, 
 0x6f, 0x7f, 0x2c, 0x3e, 0xd3, 0x04, 0xab, 0xbe, 0x83, 0x57, 0x86, 0x3e, 
 0x42, 0x65, 0x67, 0x3d, 0xb1, 0x53, 0xfd, 0xbd, 0x35, 0xef, 0x91, 0xbe, 
 0xae, 0xa9, 0xa5, 0x3e, 0x41, 0x9d, 0xda, 0x3c, 0x7b, 0xc3, 0x54, 0xbd, 
 0x9e, 0xd9, 0xce, 0x3d, 0x93, 0x61, 0xb3, 0xbd, 0xb9, 0x37, 0x1a, 0xbe, 
 0x1d, 0xcf, 0x92, 0xbd, 0xf0, 0x35, 0x81, 0x3e, 0xe5, 0x9f, 0xe3, 0x3d, 
 0xc0, 0xfd, 0x34, 0xbe, 0xa3, 0x19, 0x80, 0xbe, 0x69, 0xdc, 0xff, 0x3c, 
 0x9b, 0xb0, 0x2d, 0x3e, 0x71, 0xdc, 0x23, 0xbe, 0x66, 0x4a, 0x5f, 0xbe, 
 0x97, 0x25, 0x7f, 0xbe, 0x64, 0xc0, 0x54, 0xbe, 0x62, 0x2b, 0x94, 0xbd, 
 0xd1, 0x9a, 0x92, 0x3d, 0x4f, 0xb1, 0x53, 0xbe, 0x09, 0x9c, 0x13, 0x3e, 
 0x69, 0xa3, 0x91, 0x3e, 0x37, 0x09, 0xf9, 0x3d, 0xa7, 0x61, 0xaf, 0x3d, 
 0xa0, 0x06, 0xa4, 0x3e, 0x62, 0x0f, 0xe7, 0xbb, 0xa0, 0x83, 0x41, 0x3e, 
 0x25, 0xbc, 0x52, 0x3e, 0x4c, 0x33, 0x84, 0xbe, 0x2a, 0xf2, 0x46, 0x3e, 
 0x45, 0x1b, 0xbb, 0x3d, 0xbc, 0x72, 0xa2, 0x3d, 0x5b, 0xcd, 0x95, 0x3e, 
 0x70, 0x94, 0xbc, 0x3b, 0xde, 0x2d, 0xd2, 0x3c, 0xb6, 0x55, 0x32, 0x3e, 
 0x0d, 0x1d, 0x57, 0x3e, 0x6c, 0x08, 0xd9, 0x3d, 0x86, 0xe8, 0xd2, 0xbd, 
 0xe5, 0x4f, 0x0a, 0x3e, 0x58, 0xbc, 0x43, 0x3e, 0xcb, 0x8e, 0x13, 0xbe, 
 0x8b, 0xdf, 0x75, 0xbe, 0xe6, 0x6e, 0x25, 0xbe, 0xb8, 0x02, 0x88, 0x3e, 
 0x3e, 0x23, 0x73, 0xbd, 0x15, 0x88, 0xaf, 0x3d, 0x7f, 0x6f, 0x9f, 0x3e, 
 0xbb, 0xdd, 0x8b, 0xbe, 0xc6, 0xdf, 0x77, 0x3d, 0x85, 0x4f, 0x8b, 0xbe, 
 0x82, 0x04, 0x22, 0xbe, 0x94, 0x56, 0x4a, 0x3d, 0xe6, 0xcc, 0x80, 0x3e, 
 0x8c, 0x74, 0x32, 0xbe, 0xf4, 0x40, 0x02, 0x3d, 0xdc, 0x01, 0x09, 0xbe, 
 0xba, 0xba, 0x39, 0x3e, 0xf4, 0xde, 0x1d, 0xbe, 0x71, 0x9c, 0x8f, 0x3e, 
 0xe5, 0x7d, 0xe3, 0xbb, 0x71, 0xd3, 0x2a, 0xbe, 0x94, 0xbe, 0x57, 0x3e, 
 0x83, 0xb8, 0x94, 0xbe, 0x89, 0x51, 0x20, 0x3e, 0xa5, 0x6d, 0x0e, 0x3e, 
 0xbd, 0x6c, 0x23, 0xbe, 0xb7, 0x78, 0x2d, 0x3e, 0xa1, 0xee, 0x7e, 0x3e, 
 0x66, 0xe7, 0x97, 0xbe, 0x99, 0x23, 0xcf, 0x3d, 0xf3, 0x1d, 0x83, 0x3c, 
 0x5c, 0x50, 0xb7, 0xbc, 0x53, 0xbb, 0x88, 0xbe, 0x40, 0xfa, 0x91, 0xbe, 
 0x5f, 0xda, 0x0b, 0x3d, 0x27, 0x45, 0x8f, 0x3e, 0xe0, 0x88, 0xdb, 0xbd, 
 0x28, 0xce, 0x15, 0xbe, 0x82, 0xe5, 0x92, 0x3e, 0x07, 0x55, 0x21, 0x3c, 
 0x22, 0x55, 0x96, 0x3e, 0x8f, 0x97, 0x31, 0x3e, 0x5c, 0x29, 0xb3, 0xbd, 
 0x81, 0x77, 0xa7, 0x3d, 0x43, 0x56, 0x14, 0xbe, 0x5e, 0x06, 0x95, 0x3e, 
 0x10, 0x61, 0x32, 0x3e, 0xbd, 0x21, 0x64, 0x3e, 0xf2, 0x82, 0x97, 0x3d, 
 0x0a, 0xa7, 0x41, 0xbd, 0x6b, 0x42, 0x49, 0xbe, 0x06, 0xec, 0x00, 0x3e, 
 0x4e, 0x08, 0x54, 0xbe, 0x7a, 0xff, 0x50, 0xbe, 0x94, 0xe7, 0x49, 0xbe, 
 0x51, 0xfc, 0xa0, 0x3e, 0xc7, 0x2c, 0x99, 0x3e, 0xe5, 0xfb, 0xe4, 0xbd, 
 0xd2, 0x21, 0x15, 0xbe, 0x53, 0x25, 0x85, 0x3e, 0xd4, 0x86, 0x4a, 0xbc, 
 0x2d, 0x20, 0x0b, 0xbe, 0xa8, 0xee, 0x7f, 0x3d, 0x01, 0xe6, 0x51, 0x3e, 
 0x34, 0xef, 0xf5, 0xbd, 0xfa, 0x0b, 0x3b, 0xbd, 0x6d, 0x00, 0x44, 0x3c, 
 0xd8, 0xb1, 0x29, 0xbe, 0xe0, 0xc6, 0xcf, 0xbc, 0x94, 0xea, 0x20, 0xbc, 
 0x45, 0xc7, 0x92, 0xbe, 0xcd, 0x32, 0x28, 0xbd, 0x06, 0xb8, 0x59, 0x3d, 
 0x1a, 0xb9, 0x27, 0x3e, 0x64, 0xe2, 0x8d, 0x3e, 0x1d, 0xe5, 0x37, 0x3e, 
 0x08, 0xce, 0xa1, 0x3d, 0x3b, 0xd4, 0x58, 0x3e, 0xc8, 0xec, 0x85, 0xbe, 
 0xb8, 0xd8, 0xb1, 0x3e, 0x95, 0x6e, 0xa3, 0x3c, 0x7f, 0x46, 0x8b, 0x3e, 
 0x3a, 0xd9, 0x79, 0xbe, 0xd7, 0x2c, 0x36, 0xbe, 0x9a, 0x14, 0x10, 0xbe, 
 0x11, 0x83, 0x91, 0x3e, 0xf5, 0xcd, 0x0c, 0x3e, 0x75, 0x3c, 0x2b, 0xbd, 
 0x9f, 0x84, 0xb7, 0xbd, 0x3d, 0x3f, 0x5a, 0x3e, 0xb0, 0xbd, 0xa4, 0x3e, 
 0xc2, 0x8a, 0x9d, 0x3e, 0x8f, 0xaf, 0x14, 0xbc, 0x24, 0x77, 0x2e, 0x3e, 
 0x45, 0x26, 0x48, 0xbe, 0x50, 0x87, 0x36, 0xbc, 0xc7, 0xb8, 0x9f, 0xbd, 
 0x93, 0xc3, 0x74, 0xbc, 0xe7, 0x0d, 0xf1, 0x3d, 0x57, 0x6d, 0xd4, 0x3c, 
 0x7a, 0xb9, 0x82, 0x3e, 0x94, 0x27, 0x81, 0xbe, 0x19, 0x7d, 0x2d, 0x3e, 
 0xfb, 0xd2, 0xe4, 0xbc, 0xba, 0x13, 0x86, 0x3e, 0xfc, 0x50, 0x9e, 0xbe, 
 0x79, 0xee, 0x9a, 0xbe, 0x6b, 0x01, 0xc2, 0xbd, 0x0a, 0x01, 0xf0, 0x3d, 
 0x7c, 0x18, 0x81, 0xbd, 0x0e, 0x0d, 0x0a, 0x3d, 0x46, 0x02, 0x3b, 0xbe, 
 0x4c, 0xbe, 0x1c, 0x3d, 0x75, 0x17, 0x37, 0x3e, 0x2c, 0x2c, 0x07, 0x3c, 
 0xa5, 0x22, 0x01, 0xbd, 0x6c, 0x13, 0x87, 0xbe, 0xd7, 0x14, 0x03, 0xbe, 
 0xe1, 0xf1, 0x6f, 0x3e, 0x4e, 0x6f, 0xb1, 0xbc, 0x46, 0x0d, 0x58, 0xbe, 
 0x8d, 0x9a, 0x92, 0xbe, 0x06, 0x68, 0x00, 0xbe, 0x87, 0x97, 0xee, 0x3c, 
 0x3c, 0x93, 0x82, 0xbe, 0x5a, 0x97, 0x9a, 0xbd, 0x7b, 0xfe, 0x73, 0xbe, 
 0x6a, 0xfc, 0x66, 0xbe, 0x05, 0x77, 0x80, 0x3e, 0x93, 0x97, 0x57, 0x3e, 
 0x95, 0x49, 0x91, 0x3e, 0xcf, 0xdb, 0x5a, 0xbc, 0x97, 0x46, 0x0b, 0xbe, 
 0x06, 0xac, 0x79, 0x3e, 0x76, 0xad, 0xf3, 0xbd, 0x5a, 0x40, 0x21, 0x3e, 
 0x2b, 0xf4, 0x38, 0x3e, 0xdc, 0x42, 0x4b, 0x3e, 0x23, 0xe4, 0x6c, 0x3d, 
 0xea, 0xa4, 0xa8, 0xbd, 0x56, 0xc8, 0x80, 0xbe, 0x88, 0xff, 0x2c, 0xbd, 
 0xec, 0x1b, 0x3d, 0xbe, 0xf9, 0x13, 0x0f, 0x3e, 0x46, 0x40, 0x43, 0x3e, 
 0xd2, 0x88, 0x34, 0xbe, 0x80, 0x72, 0xb5, 0x3e, 0xa5, 0xbb, 0x47, 0xbd, 
 0x28, 0x96, 0xd3, 0xbc, 0xbd, 0xbd, 0xaa, 0x3e, 0x96, 0x22, 0x6e, 0x3d, 
 0x28, 0xf2, 0x9a, 0xbe, 0x2a, 0x58, 0x1b, 0xbe, 0x54, 0x50, 0xb4, 0x3e, 
 0x86, 0xeb, 0x21, 0x3e, 0xc9, 0x72, 0x2b, 0x3e, 0x82, 0x7b, 0x15, 0x3d, 
 0xb2, 0x6a, 0x98, 0xbd, 0xcd, 0xac, 0x70, 0x3c, 0x26, 0x5a, 0xbb, 0xbd, 
 0x10, 0x80, 0x69, 0x3d, 0x51, 0x1a, 0x21, 0x3e, 0x7d, 0x26, 0x83, 0x3e, 
 0xdb, 0x2f, 0x32, 0x3e, 0x73, 0x30, 0xb9, 0x3c, 0xea, 0x98, 0x30, 0x3d, 
 0x6a, 0xcd, 0xaa, 0x3d, 0xd8, 0xe5, 0x27, 0xbd, 0xf5, 0x5c, 0x25, 0xbe, 
 0xa2, 0x04, 0x49, 0x3e, 0xbe, 0x84, 0xa7, 0x3e, 0x91, 0x33, 0x43, 0x3e, 
 0xdb, 0x58, 0xae, 0x3e, 0x8a, 0x77, 0xde, 0x3d, 0x80, 0x5a, 0x53, 0x3e, 
 0x3e, 0x2e, 0x43, 0x3e, 0x73, 0x8d, 0x5a, 0xbe, 0x76, 0xdf, 0x8f, 0x3e, 
 0xcb, 0x52, 0x5c, 0x3d, 0x79, 0x34, 0x37, 0xbe, 0x1e, 0xbc, 0x2e, 0x3e, 
 0xd3, 0xfc, 0x36, 0x3e, 0x73, 0x49, 0xf9, 0x3d, 0x88, 0x4e, 0x25, 0xbd, 
 0xb5, 0x1c, 0x7e, 0xbe, 0x3f, 0x95, 0xcc, 0x3d, 0xcd, 0x26, 0xa8, 0xbc, 
 0x9a, 0x7f, 0x0e, 0x3d, 0x3d, 0xd2, 0x21, 0x3e, 0xfd, 0xfe, 0x41, 0x3d, 
 0x95, 0x6f, 0x8d, 0x3e, 0x0a, 0x9a, 0x9d, 0xbd, 0xa2, 0x46, 0x21, 0xbd, 
 0x7b, 0xa8, 0x8a, 0xbe, 0xe8, 0xb0, 0x99, 0x3e, 0xd8, 0x92, 0x0e, 0x3e, 
 0x40, 0x39, 0x70, 0xbe, 0x77, 0xf1, 0x87, 0xbe, 0x54, 0x05, 0x46, 0xbe, 
 0x62, 0xb3, 0x85, 0xbe, 0x03, 0x37, 0x5f, 0x3d, 0xa6, 0x65, 0xd6, 0xbc, 
 0xfa, 0xf7, 0x42, 0x3e, 0xa2, 0x03, 0x8e, 0x3e, 0x6f, 0x1c, 0x81, 0x3d, 
 0xeb, 0x37, 0xf7, 0xbd, 0x80, 0x4e, 0x82, 0x3a, 0x14, 0xda, 0xa9, 0x3e, 
 0xee, 0x2c, 0xe9, 0xbd, 0xef, 0xb6, 0x99, 0x3e, 0xdb, 0xd6, 0xce, 0x3d, 
 0x46, 0xfa, 0xed, 0x3c, 0x56, 0x42, 0x30, 0xbc, 0x75, 0x32, 0x77, 0x3e, 
 0x77, 0x97, 0x1f, 0xbe, 0xf4, 0x81, 0x55, 0xbe, 0x20, 0x02, 0xc3, 0x3d, 
 0xc8, 0x13, 0xe8, 0xbc, 0x5a, 0x5f, 0x68, 0xbd, 0x21, 0x13, 0xb3, 0x3e, 
 0x35, 0xb1, 0x79, 0x3e, 0x20, 0xf8, 0x19, 0x3e, 0x13, 0x47, 0xb0, 0xbd, 
 0x03, 0xe9, 0x8a, 0x3e, 0x83, 0xa8, 0xe3, 0xbd, 0x0a, 0xdc, 0x39, 0x3e, 
 0x83, 0xa1, 0x19, 0x3e, 0x26, 0x9a, 0x1d, 0xbe, 0x00, 0xd4, 0x1e, 0xbd, 
 0x1d, 0xb2, 0x4d, 0x3e, 0x85, 0xcc, 0x01, 0x3e, 0x57, 0x00, 0xb0, 0x3d, 
 0x18, 0xdf, 0x8c, 0x3e, 0x46, 0xbf, 0xb7, 0x3e, 0x18, 0x49, 0x8a, 0xbd, 
 0xf2, 0x98, 0xab, 0x3e, 0xd1, 0xb4, 0x24, 0x3e, 0xd8, 0xbb, 0x9c, 0xbd, 
 0x48, 0xf3, 0x1e, 0xbd, 0x81, 0xb7, 0x29, 0x3d, 0x68, 0xc6, 0x51, 0xbe, 
 0x8a, 0x3b, 0xd5, 0xbc, 0x37, 0x88, 0x27, 0xbe, 0xd9, 0x05, 0x8d, 0xbe, 
 0xc5, 0x8d, 0x13, 0x3e, 0x2c, 0x09, 0xf8, 0x3c, 0x9d, 0x12, 0xe1, 0xbb, 
 0xd5, 0xeb, 0x98, 0xbe, 0xb6, 0xea, 0x4e, 0xbe, 0xaa, 0x5b, 0xa1, 0x3d, 
 0xba, 0xa3, 0x42, 0xbe, 0xa7, 0x72, 0x01, 0xbe, 0x3f, 0xe8, 0x23, 0x3e, 
 0xa2, 0x01, 0xfd, 0x3c, 0xbb, 0xae, 0x46, 0xbe, 0x56, 0x6b, 0x4c, 0xbd, 
 0xdd, 0x68, 0xc2, 0x3e, 0x1a, 0x4a, 0x0a, 0x3e, 0xd7, 0x21, 0x10, 0xbe, 
 0x9d, 0x74, 0xa7, 0x3d, 0x40, 0x02, 0xc2, 0xbd, 0x5d, 0xfd, 0x59, 0xbe, 
 0x0b, 0xa1, 0x51, 0x3c, 0xdd, 0x98, 0x23, 0xbe, 0xf5, 0x89, 0x69, 0xbe, 
 0x0a, 0xf9, 0x1a, 0x3e, 0x58, 0xfd, 0x6c, 0xbe, 0x35, 0x07, 0x02, 0x3e, 
 0x6c, 0x8c, 0x8e, 0xbd, 0xbd, 0x38, 0x87, 0xbe, 0x04, 0xd6, 0x6e, 0xbe, 
 0x33, 0x28, 0x0d, 0xbe, 0x82, 0xd7, 0x0a, 0x3e, 0x6e, 0xe4, 0x3e, 0x3e, 
 0xe2, 0x48, 0x83, 0xbe, 0xe4, 0xe6, 0xd1, 0x3d, 0x2d, 0xfd, 0x8a, 0x3e, 
 0x90, 0xb5, 0xd3, 0x3d, 0x96, 0xe3, 0xae, 0xbd, 0xa1, 0x65, 0xb1, 0xbd, 
 0x5d, 0xdb, 0x66, 0xbe, 0x19, 0x7f, 0xb8, 0xbd, 0x97, 0x8e, 0x2f, 0xbe, 
 0x86, 0x2e, 0x46, 0x3e, 0x5b, 0x3c, 0x37, 0x3e, 0xa6, 0xef, 0x07, 0x3e, 
 0xcc, 0xfc, 0x85, 0xbe, 0xfc, 0xbb, 0x65, 0xbe, 0x77, 0x82, 0x7b, 0x3d, 
 0xa2, 0x25, 0x8b, 0x3e, 0x36, 0xe1, 0x01, 0x3d, 0x75, 0xb5, 0x5a, 0x3d, 
 0x57, 0x9a, 0xec, 0x3c, 0x8e, 0xd2, 0xff, 0xff, 0x04, 0x00, 0x00, 0x00, 
 0x00, 0x01, 0x00, 0x00, 0x25, 0x41, 0x77, 0xbe, 0x7d, 0x27, 0xcc, 0x3e, 
 0xc2, 0xe5, 0x4c, 0xbe, 0x52, 0x09, 0x97, 0x3b, 0x3a, 0x92, 0x13, 0x3e, 
 0x59, 0xe5, 0xb3, 0xbe, 0x99, 0x55, 0x9b, 0x3e, 0x29, 0x75, 0x0e, 0x3c, 
 0xbd, 0x39, 0xe9, 0x3e, 0xb2, 0xbc, 0xe3, 0xbd, 0x60, 0xb0, 0x3d, 0xbd, 
 0x78, 0x44, 0x14, 0xbe, 0x89, 0xc1, 0x49, 0x3e, 0x2f, 0x8f, 0x8c, 0xbe, 
 0x84, 0xc4, 0x3b, 0xbe, 0x67, 0x36, 0x0b, 0x3e, 0x1a, 0x48, 0x12, 0x3d, 
 0xa0, 0x0e, 0x9d, 0xbd, 0xda, 0x74, 0x0e, 0xbe, 0x98, 0x94, 0x8d, 0xbe, 
 0x62, 0xfe, 0x83, 0x3e, 0xec, 0xd8, 0x52, 0xbd, 0x8e, 0x13, 0x90, 0xbd, 
 0x8e, 0x73, 0xbf, 0xbe, 0x25, 0x61, 0x1e, 0xbe, 0x1a, 0x5c, 0x9a, 0x3e, 
 0xa7, 0xde, 0xbc, 0xbe, 0x9d, 0x8b, 0x3a, 0x3e, 0x5a, 0x09, 0xdf, 0x3e, 
 0x4a, 0x8c, 0xf7, 0x3e, 0x18, 0xd5, 0xa3, 0x3d, 0x5d, 0x60, 0x83, 0xbe, 
 0xa8, 0x66, 0xc1, 0x3d, 0x0a, 0x79, 0x75, 0x3d, 0x51, 0x60, 0xc0, 0xbe, 
 0x6e, 0xb4, 0x0c, 0x3e, 0x0e, 0x62, 0x35, 0xbe, 0xe4, 0x01, 0xe4, 0xbe, 
 0xe7, 0xfc, 0xbe, 0x3e, 0xca, 0xdb, 0x55, 0xbe, 0xbd, 0xe8, 0x17, 0xbe, 
 0x09, 0x5f, 0x9c, 0xbe, 0xf4, 0xf5, 0x38, 0x3e, 0x1d, 0x05, 0xaa, 0xbe, 
 0x56, 0x10, 0xc4, 0x3d, 0x25, 0x9d, 0x57, 0xbe, 0x9d, 0xef, 0xb9, 0x3e, 
 0x5b, 0x45, 0xaa, 0x3e, 0x5d, 0x78, 0xe5, 0x3d, 0x00, 0x31, 0x84, 0xbe, 
 0x43, 0x7e, 0x32, 0xbd, 0x96, 0x46, 0xb7, 0x3d, 0xcf, 0x32, 0x75, 0xbe, 
 0x45, 0xb0, 0x55, 0x3e, 0x69, 0xe3, 0xe2, 0xbe, 0xf8, 0xbc, 0x90, 0x3e, 
 0x32, 0xd3, 0x21, 0x3e, 0xf6, 0xbf, 0xa6, 0xbe, 0x4f, 0xf7, 0xbc, 0x3e, 
 0x24, 0x18, 0xad, 0xbc, 0xcc, 0xf8, 0xad, 0x3c, 0x53, 0x98, 0x1b, 0x3c, 
 0x4f, 0x24, 0x81, 0xbe, 0x6a, 0x80, 0xce, 0x3e, 0x9a, 0xd3, 0xff, 0xff, 
 0x04, 0x00, 0x00, 0x00, 0x0c, 0x00, 0x00, 0x00, 0xff, 0xff, 0xff, 0xff, 
 0x00, 0x02, 0x00, 0x00, 0x10, 0x00, 0x00, 0x00, 0xb2, 0xd3, 0xff, 0xff, 
 0x04, 0x00, 0x00, 0x00, 0x0c, 0x00, 0x00, 0x00, 0xff, 0xff, 0xff, 0xff, 
 0x00, 0x01, 0x00, 0x00, 0x10, 0x00, 0x00, 0x00, 0xca, 0xd3, 0xff, 0xff, 
 0x04, 0x00, 0x00, 0x00, 0x0c, 0x00, 0x00, 0x00, 0xff, 0xff, 0xff, 0xff, 
 0x00, 0x01, 0x00, 0x00, 0x20, 0x00, 0x00, 0x00, 0xe2, 0xd3, 0xff, 0xff, 
 0x04, 0x00, 0x00, 0x00, 0x0c, 0x00, 0x00, 0x00, 0xff, 0xff, 0xff, 0xff, 
 0x80, 0x00, 0x00, 0x00, 0x20, 0x00, 0x00, 0x00, 0xfa, 0xd3, 0xff, 0xff, 
 0x04, 0x00, 0x00, 0x00, 0x08, 0x00, 0x00, 0x00, 0x7d, 0x44, 0x01, 0x3d, 
 0x7d, 0x44, 0x01, 0xbd, 0x0e, 0xd4, 0xff, 0xff, 0x04, 0x00, 0x00, 0x00, 
 0xc0, 0x01, 0x00, 0x00, 0xa3, 0x5d, 0xf3, 0x3e, 0xf1, 0xea, 0x49, 0x3f, 
 0xe6, 0x51, 0x03, 0x3d, 0x25, 0xb8, 0x0f, 0x3f, 0x99, 0x39, 0x85, 0xbd, 
 0x21, 0x3d, 0x35, 0xbf, 0xb3, 0xf2, 0x18, 0xbf, 0x10, 0xb7, 0x7c, 0xbe, 
 0xb0, 0xa4, 0xb0, 0x3b, 0xce, 0x84, 0xd7, 0xbe, 0xbd, 0x00, 0xa5, 0xbe, 
 0xba, 0x8c, 0xd3, 0x3d, 0x61, 0x45, 0x8b, 0xbe, 0xb5, 0xdf, 0x02, 0x3e, 
 0xe2, 0x9d, 0x83, 0x3f, 0xcd, 0xd7, 0x5b, 0xbf, 0xa1, 0x7d, 0x26, 0xbf, 
 0x47, 0xef, 0xb9, 0x3e, 0x2c, 0x3a, 0x46, 0xbf, 0x0e, 0x1a, 0x99, 0xbd, 
 0x09, 0x8a, 0x03, 0x3d, 0xf8, 0xd6, 0xa0, 0x3e, 0xed, 0xa9, 0xbf, 0x3e, 
 0x5e, 0x0a, 0x63, 0x3e, 0x13, 0xd5, 0x9d, 0xbd, 0xad, 0xe2, 0x8f, 0xbe, 
 0xad, 0x31, 0x89, 0x3e, 0x92, 0xbb, 0x69, 0x3e, 0xab, 0x10, 0x59, 0x3f, 
 0x1a, 0x04, 0x00, 0x3f, 0xd6, 0x4f, 0x50, 0xbe, 0xba, 0x40, 0x91, 0xbf, 
 0x22, 0xc1, 0x7f, 0xbf, 0x36, 0xd6, 0x7d, 0x3f, 0x65, 0x75, 0x89, 0x3f, 
 0x6d, 0x68, 0x99, 0x3e, 0x04, 0xc4, 0xd1, 0xbe, 0x9d, 0xac, 0x21, 0xbf, 
 0xf5, 0xae, 0xd5, 0xbe, 0x0f, 0xdd, 0xa4, 0x3e, 0xc9, 0x14, 0x15, 0xbf, 
 0x39, 0x67, 0xf5, 0x3e, 0x64, 0x0d, 0xaf, 0xbf, 0x20, 0x9f, 0x7b, 0xbe, 
 0xe2, 0x46, 0x8a, 0xbf, 0x05, 0xb9, 0xa9, 0x3f, 0x31, 0x3b, 0xd6, 0x3e, 
 0x1a, 0x8d, 0x84, 0x3f, 0xc1, 0xdb, 0xc0, 0xbe, 0x26, 0x3e, 0x2e, 0xbf, 
 0x68, 0x47, 0xe4, 0xbe, 0x21, 0x13, 0x40, 0xbc, 0x7e, 0xf3, 0xc0, 0xbd, 
 0xbf, 0xb4, 0x73, 0x3e, 0xc7, 0xcf, 0xc6, 0xbd, 0x32, 0xcb, 0x28, 0x3e, 
 0xee, 0x34, 0x74, 0x3f, 0xed, 0xe8, 0xcd, 0xbe, 0x6e, 0xdc, 0x48, 0x3f, 
 0x34, 0x34, 0x53, 0xbf, 0x3b, 0x21, 0x52, 0x3e, 0xe9, 0x2e, 0xd1, 0x3d, 
 0x18, 0x04, 0x75, 0x3e, 0x47, 0x82, 0x7a, 0xbf, 0x5e, 0x5f, 0x88, 0xbc, 
 0xa4, 0xf5, 0x85, 0xbe, 0xe1, 0xe5, 0x4d, 0x3e, 0x7e, 0x77, 0x56, 0xbf, 
 0x1d, 0xdc, 0xe9, 0x3e, 0xea, 0x8d, 0x9c, 0x3f, 0x7a, 0x9b, 0xb7, 0x3d, 
 0xb5, 0x9d, 0x6e, 0xbf, 0x1e, 0xaa, 0xe7, 0x3e, 0x05, 0x29, 0x1b, 0x3d, 
 0xce, 0x75, 0x0e, 0xbf, 0x5a, 0x43, 0x42, 0xbe, 0xf6, 0x30, 0x8d, 0x3d, 
 0x26, 0x44, 0x8a, 0x3e, 0x3a, 0x4f, 0xa9, 0x3e, 0xa1, 0xe7, 0x87, 0x3e, 
 0xb2, 0x11, 0xa0, 0x3e, 0xd1, 0xe1, 0x74, 0x3e, 0xb7, 0x98, 0x63, 0xbe, 
 0xc0, 0x79, 0xba, 0xbe, 0xc9, 0xe5, 0xaa, 0x3f, 0x82, 0xac, 0x08, 0x3f, 
 0x97, 0x30, 0xa7, 0x3f, 0x1c, 0x63, 0xed, 0xbf, 0x25, 0x6c, 0xc1, 0xbf, 
 0xec, 0x4c, 0x58, 0x3e, 0x35, 0x05, 0xd8, 0x3e, 0x7f, 0x0d, 0x5e, 0x3e, 
 0x2d, 0x35, 0x1a, 0xc0, 0xcd, 0x22, 0xb9, 0xbf, 0xef, 0x0e, 0x32, 0x40, 
 0x60, 0x85, 0x22, 0x40, 0x91, 0x50, 0x0f, 0xc0, 0x99, 0xe8, 0x0c, 0x3f, 
 0xce, 0xad, 0xa2, 0x3e, 0x26, 0x82, 0x44, 0x3c, 0x06, 0x8b, 0xa1, 0x3d, 
 0x93, 0xc1, 0x44, 0x3e, 0x13, 0x94, 0x19, 0x3d, 0x77, 0xf4, 0x92, 0x3e, 
 0x41, 0xb0, 0xc8, 0x3d, 0xce, 0x63, 0xcc, 0xbe, 0xb8, 0xfa, 0xc0, 0xbe, 
 0x7c, 0xa8, 0x2b, 0xbe, 0x10, 0x13, 0x64, 0x3c, 0x1e, 0xc5, 0xb0, 0x3e, 
 0x00, 0x98, 0x95, 0xbe, 0x86, 0x20, 0x35, 0xbe, 0xda, 0xd5, 0xff, 0xff, 
 0x04, 0x00, 0x00, 0x00, 0x00, 0x28, 0x00, 0x00, 0x07, 0x50, 0xd9, 0x3b, 
 0xfd, 0x3c, 0x64, 0x3e, 0xc9, 0x00, 0x8e, 0xbd, 0x5f, 0x0c, 0x83, 0x3e, 
 0x1c, 0x8b, 0xda, 0x3d, 0x4a, 0xfd, 0xfa, 0xbd, 0x56, 0x97, 0x7b, 0x3d, 
 0xd9, 0x77, 0x09, 0x3e, 0x81, 0x38, 0x1b, 0x3e, 0xcb, 0x8e, 0x2c, 0xbe, 
 0x58, 0x05, 0x9f, 0x3d, 0x32, 0x24, 0x88, 0xbb, 0x87, 0x8a, 0x21, 0xbd, 
 0x71, 0xab, 0xa5, 0xbb, 0xb3, 0xd5, 0x11, 0xbe, 0xf6, 0xe6, 0x53, 0xbd, 
 0x90, 0x6a, 0x82, 0xbd, 0x51, 0x76, 0xe9, 0xbb, 0x74, 0x78, 0xf3, 0x3d, 
 0x45, 0x88, 0x03, 0x3e, 0x29, 0xf5, 0x7c, 0xbd, 0x83, 0x6b, 0xdd, 0xbd, 
 0x84, 0x13, 0xd4, 0x3d, 0x5a, 0x65, 0x44, 0xbd, 0xf9, 0xc0, 0x07, 0xbe, 
 0xc2, 0x60, 0x85, 0x3d, 0x51, 0x45, 0x69, 0x3d, 0x56, 0x85, 0x24, 0xbd, 
 0x19, 0xbb, 0xb0, 0x3d, 0x10, 0xfa, 0x1b, 0x3e, 0x6a, 0xe3, 0x40, 0x3e, 
 0x8c, 0xc6, 0xe5, 0x3d, 0x53, 0x03, 0x79, 0xbd, 0x55, 0x9f, 0x04, 0xbc, 
 0xe5, 0x0a, 0x9e, 0x3c, 0xfb, 0x99, 0x9a, 0xbd, 0x25, 0x3b, 0xd0, 0x3d, 
 0x89, 0x7c, 0x83, 0x3d, 0x3a, 0x49, 0x28, 0x3c, 0xea, 0x32, 0xff, 0x3d, 
 0xa8, 0x88, 0x13, 0xbe, 0x5a, 0xf4, 0xf9, 0xbd, 0xee, 0x88, 0xed, 0xbd, 
 0xfe, 0x84, 0x5d, 0xb9, 0x75, 0x32, 0x58, 0x3e, 0x6f, 0xb5, 0x3a, 0x3e, 
 0x9b, 0xea, 0xca, 0x3d, 0x31, 0xaa, 0x76, 0x3d, 0xdc, 0x3f, 0x79, 0x3e, 
 0x59, 0x70, 0x2c, 0xbe, 0x74, 0x0a, 0x45, 0x3e, 0x27, 0x88, 0x25, 0x3e, 
 0x6d, 0xda, 0x5b, 0x3e, 0xb5, 0x60, 0x9a, 0x3d, 0x75, 0x8a, 0xea, 0xbd, 
 0x6a, 0x30, 0x43, 0x3e, 0x60, 0xe3, 0xf1, 0x3d, 0x6b, 0x78, 0x70, 0x3d, 
 0x0f, 0x5a, 0x41, 0x3e, 0x26, 0x03, 0x5d, 0xbc, 0x6d, 0x57, 0x60, 0x3d, 
 0x48, 0x89, 0xd9, 0xbd, 0x6e, 0x5e, 0x7c, 0xbd, 0x14, 0x7f, 0xa3, 0x3d, 
 0xf7, 0x6f, 0xa2, 0x3d, 0x65, 0x19, 0x02, 0x3d, 0xac, 0xaa, 0x93, 0xbb, 
 0x1a, 0x4a, 0x49, 0xbe, 0x50, 0x00, 0x58, 0x3d, 0xd9, 0xef, 0x6d, 0x3e, 
 0xef, 0xfc, 0x0d, 0xbe, 0x10, 0x62, 0x6c, 0x3e, 0x4e, 0x29, 0x0e, 0x3d, 
 0x92, 0x71, 0x96, 0x3d, 0x69, 0xe9, 0x81, 0xbd, 0xf4, 0xb1, 0x0f, 0x3e, 
 0x6b, 0x04, 0xe8, 0x3b, 0x56, 0x6f, 0xd5, 0xbd, 0x98, 0x36, 0xf8, 0xbd, 
 0xf2, 0x46, 0xca, 0xbd, 0xee, 0xd3, 0x92, 0xbd, 0x0e, 0x9c, 0xb4, 0x3d, 
 0x8e, 0x3d, 0xdf, 0x3d, 0x02, 0xb3, 0x15, 0x3e, 0x44, 0x67, 0xa1, 0xbe, 
 0x19, 0x49, 0xc4, 0x3d, 0xa0, 0x1a, 0x89, 0xbb, 0x1e, 0x13, 0xc5, 0xbd, 
 0x2c, 0x52, 0x33, 0xbe, 0x76, 0x5f, 0xa4, 0x3e, 0x23, 0xb9, 0xc5, 0xbd, 
 0x7a, 0x3a, 0xac, 0x3e, 0x3b, 0xc2, 0xc6, 0xbd, 0x39, 0x29, 0x73, 0x3e, 
 0xa7, 0xbb, 0x85, 0xbe, 0xce, 0x92, 0x90, 0xbe, 0xb7, 0x79, 0xa4, 0x3e, 
 0xba, 0xcf, 0xa6, 0x3d, 0x75, 0x45, 0x79, 0xbe, 0x3d, 0x3e, 0x61, 0x3e, 
 0x54, 0xf0, 0x53, 0x3e, 0x09, 0x6e, 0x9f, 0xbe, 0x03, 0x86, 0x32, 0x3e, 
 0x63, 0x91, 0x33, 0x3e, 0x3c, 0xbc, 0xb9, 0xbe, 0xc2, 0x3f, 0x87, 0xbd, 
 0x82, 0x05, 0xf3, 0xbd, 0x7b, 0xf7, 0xf6, 0xbd, 0xd3, 0x65, 0x50, 0x3e, 
 0xc0, 0x17, 0xb1, 0xbe, 0x76, 0xf8, 0xa6, 0x3e, 0xdd, 0xef, 0xbd, 0xbd, 
 0xa9, 0x5b, 0xcd, 0x3e, 0x56, 0x80, 0x27, 0xbe, 0xdc, 0xbe, 0x8a, 0x3e, 
 0x4a, 0xfb, 0x95, 0xbe, 0xdc, 0x4e, 0xe7, 0x3d, 0xda, 0x67, 0xc0, 0xbd, 
 0x0f, 0x9b, 0x95, 0x3c, 0x9b, 0x7f, 0xdb, 0x3d, 0x64, 0xc7, 0x8f, 0x3e, 
 0x4e, 0x53, 0x69, 0x3e, 0xde, 0x8c, 0x52, 0x3d, 0x5e, 0xa7, 0x05, 0x3e, 
 0x19, 0x26, 0x46, 0x3e, 0xe7, 0x09, 0x8b, 0xbc, 0x14, 0xb3, 0x1f, 0xbc, 
 0x32, 0xaa, 0x79, 0x3e, 0x06, 0xc3, 0x92, 0xbd, 0x1a, 0xdc, 0x0b, 0x3e, 
 0x3d, 0x6e, 0xa2, 0x3e, 0x86, 0xf6, 0x07, 0xbe, 0x3b, 0xb3, 0x74, 0x3e, 
 0x8d, 0x1c, 0x33, 0x3e, 0xd4, 0x08, 0x12, 0xbe, 0x66, 0x0c, 0x68, 0x3d, 
 0x75, 0x83, 0xb4, 0xbe, 0x81, 0x26, 0x85, 0x3e, 0x6b, 0x79, 0xf9, 0xbd, 
 0xac, 0xd3, 0x73, 0x3d, 0xab, 0x50, 0x98, 0x3e, 0x08, 0xe1, 0xb2, 0x3d, 
 0xc7, 0x9b, 0x54, 0xbd, 0xd8, 0x16, 0xbe, 0x3e, 0xa1, 0xf4, 0xa3, 0xbe, 
 0x72, 0x58, 0xbf, 0x3d, 0xcb, 0x2d, 0x80, 0x3e, 0x01, 0x6c, 0x8d, 0xbd, 
 0xde, 0x37, 0x14, 0x3e, 0x40, 0x2f, 0xec, 0xbd, 0xb2, 0x4b, 0x8b, 0xbe, 
 0x4f, 0xd9, 0xeb, 0xbc, 0xc5, 0xbd, 0x1e, 0xbe, 0x66, 0xd8, 0x89, 0xbe, 
 0x52, 0xeb, 0x56, 0xbe, 0xf3, 0xc1, 0x6a, 0x3e, 0x71, 0xa8, 0x43, 0x3d, 
 0xf7, 0xa8, 0xc6, 0x3e, 0x5f, 0xc5, 0x4d, 0xbe, 0x49, 0x65, 0xe7, 0x3d, 
 0x9d, 0xe9, 0xe4, 0xbd, 0x2a, 0x21, 0x4e, 0x3c, 0xd7, 0x31, 0x26, 0x3e, 
 0x7e, 0xd3, 0xfa, 0xbd, 0xad, 0x75, 0x12, 0xbe, 0x94, 0xd4, 0xb4, 0xbc, 
 0xc0, 0xa3, 0x51, 0x3d, 0x49, 0xf8, 0x5f, 0x3d, 0x13, 0x66, 0xb6, 0xbd, 
 0x35, 0x57, 0x08, 0xbe, 0x42, 0x11, 0x8b, 0x3d, 0xe1, 0x37, 0xd1, 0xbd, 
 0x76, 0x17, 0x8a, 0x3d, 0x7e, 0xc4, 0x53, 0x3d, 0x4e, 0x4d, 0x02, 0x3d, 
 0x43, 0x53, 0x11, 0x3e, 0xdb, 0x4b, 0x85, 0x3d, 0x06, 0x35, 0x32, 0xbd, 
 0xa8, 0xf5, 0x92, 0xbd, 0x1b, 0x9b, 0x12, 0xbe, 0x09, 0xfe, 0x1c, 0x3d, 
 0xb8, 0x17, 0xe7, 0x3d, 0xef, 0x66, 0xb2, 0x3d, 0x12, 0xf8, 0xef, 0x3d, 
 0x3d, 0x6c, 0x91, 0x3d, 0xaa, 0x5b, 0x07, 0x3e, 0x73, 0x1b, 0xff, 0x3d, 
 0x26, 0xcb, 0x9f, 0x3c, 0x46, 0x2b, 0x6a, 0x3d, 0x3f, 0xe0, 0xc1, 0x3d, 
 0x51, 0xca, 0xf1, 0xbc, 0x4c, 0xe0, 0x1d, 0x3d, 0x03, 0xe9, 0x0a, 0xbe, 
 0x6c, 0xa4, 0x38, 0x3d, 0x23, 0x97, 0x80, 0x3d, 0x32, 0xec, 0x73, 0x3d, 
 0x27, 0x3f, 0x1f, 0x3d, 0xd6, 0x1b, 0x4e, 0xbd, 0x9a, 0xf6, 0xed, 0x3d, 
 0x31, 0x5e, 0xc1, 0xbd, 0x05, 0x1d, 0xab, 0x3c, 0x94, 0x9c, 0xee, 0xbd, 
 0xdc, 0x93, 0x69, 0xbd, 0x10, 0x93, 0x80, 0x3d, 0xc3, 0xc9, 0x77, 0xbd, 
 0x55, 0x1f, 0x1d, 0x3d, 0x22, 0x7e, 0xcc, 0x3d, 0x4d, 0x18, 0xbf, 0xbd, 
 0xae, 0xe2, 0x1b, 0xbe, 0xe7, 0xa3, 0x0a, 0x3d, 0x87, 0xe2, 0x91, 0xbb, 
 0x88, 0x2d, 0x88, 0xbd, 0x26, 0x0e, 0x63, 0x3c, 0x7f, 0x25, 0x38, 0x3c, 
 0x32, 0x6a, 0xf5, 0x3c, 0x52, 0x01, 0x80, 0xbd, 0xeb, 0x05, 0x83, 0xbd, 
 0xec, 0xdc, 0xa6, 0x3d, 0xae, 0x5f, 0xb8, 0xbd, 0x2d, 0x37, 0x37, 0x3d, 
 0x38, 0x37, 0x2c, 0x3d, 0xa8, 0x84, 0x87, 0x3c, 0x90, 0xe7, 0x5a, 0xbd, 
 0x5d, 0xdf, 0xf5, 0x3b, 0x42, 0x88, 0xc9, 0x3d, 0x27, 0x2a, 0x19, 0x3e, 
 0xfc, 0x22, 0x2c, 0x3d, 0x6d, 0xec, 0xf5, 0xbd, 0xfb, 0x13, 0x09, 0xbe, 
 0x2e, 0x1e, 0x67, 0xbc, 0xc1, 0x0d, 0x0c, 0x3e, 0xe1, 0x0e, 0xac, 0x3d, 
 0x6b, 0x73, 0x32, 0xbe, 0x62, 0x25, 0xdc, 0xbc, 0xb0, 0xf7, 0x08, 0x3e, 
 0x9f, 0xa7, 0xb6, 0xbd, 0xba, 0x2d, 0x04, 0x3d, 0xda, 0xa3, 0xc0, 0x3d, 
 0x88, 0x39, 0xa3, 0x3d, 0xa5, 0x8a, 0xd1, 0x3d, 0x8b, 0xae, 0x9d, 0x3e, 
 0xd3, 0xaf, 0xb0, 0xbb, 0xb1, 0x94, 0x2b, 0x3e, 0x9b, 0x9b, 0x79, 0xbe, 
 0xb1, 0x90, 0x9e, 0x3d, 0x6a, 0x2e, 0x89, 0x3e, 0xbf, 0x37, 0xa7, 0xbe, 
 0xa7, 0x49, 0x1a, 0x3c, 0xb6, 0x57, 0x2e, 0xbd, 0x89, 0x07, 0xa1, 0xbe, 
 0x20, 0xc9, 0x53, 0xbe, 0xe0, 0xe6, 0xf9, 0x3d, 0xd7, 0xf4, 0x82, 0xbe, 
 0xe4, 0x1f, 0x7f, 0xbe, 0x28, 0x92, 0x88, 0x3e, 0x9e, 0xe2, 0x99, 0xbe, 
 0x10, 0x2e, 0x91, 0xbe, 0x5a, 0x0f, 0x93, 0xbe, 0x5e, 0x6c, 0x65, 0x3e, 
 0x18, 0x45, 0x8d, 0x3e, 0x15, 0xc7, 0x6f, 0x3e, 0x9f, 0x97, 0x91, 0xbe, 
 0x35, 0x12, 0x9a, 0x3e, 0x49, 0x23, 0x00, 0xbe, 0x1d, 0x20, 0x9a, 0xbd, 
 0x65, 0x19, 0x58, 0xbe, 0x08, 0xd9, 0xba, 0x3e, 0x16, 0xcc, 0xb9, 0x3d, 
 0xfb, 0xc1, 0x33, 0xbe, 0xee, 0xf7, 0x8c, 0x3e, 0x13, 0xe4, 0xdd, 0xbd, 
 0x94, 0xfa, 0x42, 0x3e, 0x8a, 0xef, 0x97, 0xbe, 0xa2, 0x5b, 0x2f, 0x3d, 
 0x9d, 0xfc, 0xeb, 0xbb, 0x1d, 0x61, 0x3c, 0x3d, 0xef, 0x1c, 0xb0, 0x3d, 
 0x4c, 0x19, 0x81, 0xbe, 0x0e, 0x1a, 0xf6, 0x3d, 0x87, 0xf6, 0x63, 0x3e, 
 0xbe, 0xfe, 0xab, 0xbd, 0x8a, 0x9e, 0xbf, 0xbd, 0xbf, 0x29, 0x88, 0x3d, 
 0x71, 0x56, 0x3e, 0xbe, 0xfe, 0x33, 0x94, 0xbd, 0xb9, 0x23, 0x9c, 0x3d, 
 0xb1, 0x64, 0x75, 0xbe, 0xc8, 0x35, 0xcd, 0x3a, 0x0f, 0xec, 0x5e, 0xbe, 
 0x52, 0x8b, 0x86, 0x3e, 0x32, 0xfb, 0xfc, 0x3d, 0xf4, 0x67, 0xb3, 0x3d, 
 0xfe, 0x4d, 0xb4, 0xbc, 0xe7, 0x9d, 0x3f, 0x3e, 0x6b, 0x9e, 0x81, 0x3e, 
 0xd0, 0x16, 0xde, 0xbc, 0x3d, 0x15, 0x6a, 0x3e, 0xcf, 0x44, 0x94, 0x3e, 
 0xbb, 0xe8, 0x82, 0x3e, 0xb8, 0x67, 0x0e, 0xbe, 0xf7, 0xbe, 0x0a, 0x3e, 
 0x78, 0x1a, 0xe0, 0xbb, 0x8e, 0x30, 0xf2, 0x3c, 0xd0, 0x98, 0x7f, 0xbe, 
 0x1c, 0xef, 0x60, 0xbe, 0xb2, 0x24, 0x0e, 0x3e, 0x65, 0xb0, 0x49, 0x3e, 
 0x93, 0x84, 0x83, 0xbd, 0xeb, 0xe0, 0x46, 0xbd, 0x64, 0x83, 0xb4, 0xbd, 
 0x3a, 0x03, 0x52, 0x3e, 0x70, 0x2d, 0xaf, 0x3e, 0xd6, 0x3e, 0xa7, 0x3d, 
 0x30, 0xf7, 0x78, 0xbe, 0xf9, 0x1b, 0x97, 0x3c, 0xaf, 0x33, 0x32, 0x3e, 
 0x10, 0x24, 0x94, 0xbd, 0x69, 0xec, 0xf3, 0xbc, 0xd3, 0xee, 0x68, 0xbe, 
 0xa4, 0x2b, 0x93, 0xbe, 0xd9, 0x50, 0x5b, 0xbd, 0x60, 0x02, 0x5f, 0x3e, 
 0x04, 0x88, 0x83, 0xbe, 0x7d, 0x8f, 0x43, 0xbd, 0x82, 0x4e, 0xfa, 0xbd, 
 0xfd, 0x45, 0x90, 0xbe, 0xbe, 0x40, 0x98, 0x3d, 0xbb, 0x2f, 0x7c, 0x3e, 
 0x42, 0xc8, 0x3b, 0xbe, 0xc8, 0x99, 0xa6, 0xbd, 0xff, 0x4f, 0x35, 0xbe, 
 0x3c, 0x73, 0x0f, 0x3e, 0x29, 0x1b, 0xbe, 0xbe, 0x9d, 0x46, 0x9f, 0xbe, 
 0x7d, 0xfc, 0x48, 0x3e, 0xeb, 0xde, 0xa1, 0x3e, 0x0b, 0xa7, 0x68, 0x3e, 
 0x3e, 0x1b, 0x8f, 0x3e, 0x8a, 0x03, 0x8b, 0x3e, 0x85, 0xff, 0x88, 0x3e, 
 0xdb, 0x26, 0x9c, 0x3e, 0xb4, 0x86, 0x92, 0x3e, 0x9a, 0x70, 0x5b, 0xbc, 
 0xcd, 0x58, 0x96, 0xbe, 0x35, 0x60, 0x7d, 0x3e, 0x1f, 0x92, 0xab, 0xbe, 
 0x4f, 0x30, 0xb3, 0x3d, 0xb1, 0xc9, 0x1d, 0xbe, 0x1a, 0x70, 0x1d, 0xbe, 
 0xfd, 0x0a, 0x8b, 0x3d, 0xb9, 0x52, 0x8f, 0xbd, 0x4f, 0x70, 0x1f, 0xbe, 
 0x62, 0xdb, 0xb5, 0xbd, 0x3e, 0xd6, 0x8e, 0xbe, 0x03, 0xcf, 0xfe, 0xbc, 
 0x74, 0xf5, 0x98, 0xbe, 0x98, 0x10, 0xb6, 0x3e, 0xfb, 0x9a, 0x48, 0x3e, 
 0x10, 0x0d, 0x27, 0xbe, 0x7b, 0x6a, 0xd0, 0xbd, 0xfa, 0x25, 0x57, 0xbc, 
 0x0f, 0x3b, 0xc2, 0xbe, 0x90, 0x1f, 0xa1, 0x3e, 0x50, 0x15, 0x47, 0x3e, 
 0xc8, 0x09, 0x80, 0x3a, 0x89, 0x62, 0xc6, 0x3c, 0x53, 0xaa, 0x87, 0x3d, 
 0xff, 0x81, 0xa0, 0x3e, 0x01, 0xce, 0x07, 0xbe, 0xbc, 0x34, 0x98, 0x3e, 
 0x44, 0xbe, 0x05, 0x3e, 0xf7, 0x09, 0x87, 0xbd, 0x38, 0x99, 0x83, 0xbe, 
 0x47, 0xdf, 0x26, 0xbe, 0x5e, 0x3b, 0xbf, 0xbe, 0x5f, 0x06, 0x83, 0x3e, 
 0xdf, 0xde, 0x26, 0xbb, 0xdd, 0x69, 0x36, 0x3d, 0x3d, 0xb6, 0x19, 0x3e, 
 0x40, 0xb2, 0xaa, 0x3d, 0x2b, 0x67, 0x97, 0xbd, 0x64, 0x99, 0x96, 0xbe, 
 0xb9, 0x23, 0xad, 0x3e, 0x4c, 0x63, 0xff, 0xbc, 0xbb, 0x94, 0x81, 0xbe, 
 0xb7, 0x9d, 0x28, 0xbe, 0x40, 0x86, 0x21, 0xbe, 0xe6, 0x68, 0xb1, 0x3d, 
 0xba, 0x8d, 0xd8, 0xbd, 0x6c, 0x03, 0xab, 0xbe, 0xd1, 0x2c, 0x10, 0xbd, 
 0xe3, 0x24, 0xbb, 0xbc, 0x22, 0xec, 0x4f, 0xbe, 0xe8, 0x0c, 0x1a, 0xbe, 
 0xd4, 0x1f, 0xb7, 0x3c, 0xa1, 0xe5, 0x64, 0xbe, 0x6a, 0xd8, 0x4a, 0x3e, 
 0x17, 0x1e, 0x11, 0xbe, 0xab, 0x9c, 0x34, 0xbd, 0x9f, 0x6f, 0xb9, 0xbc, 
 0x06, 0x1c, 0x9f, 0x3d, 0xe3, 0xfd, 0x1b, 0xbe, 0x21, 0xab, 0x1c, 0x3d, 
 0x9a, 0xd4, 0x11, 0x3d, 0xb7, 0xb0, 0x07, 0x3e, 0x69, 0xa2, 0xf9, 0xbd, 
 0x78, 0x62, 0x16, 0xbd, 0x1e, 0xd6, 0xcb, 0xbd, 0x81, 0xc7, 0x99, 0xbd, 
 0xc3, 0x35, 0x61, 0xbe, 0x13, 0xce, 0xae, 0xbb, 0x40, 0x0e, 0xfd, 0x3c, 
 0xc0, 0x23, 0x0c, 0x3d, 0xde, 0xd0, 0x74, 0xbe, 0x90, 0xb0, 0x35, 0x3e, 
 0x21, 0x42, 0x88, 0x3c, 0x01, 0xc2, 0xc3, 0x3d, 0x98, 0xd7, 0x14, 0x3e, 
 0xe9, 0x9c, 0x07, 0xbe, 0x79, 0x5d, 0x2e, 0x3d, 0xf2, 0xa9, 0x8e, 0x3d, 
 0x36, 0x21, 0x47, 0xbe, 0x44, 0xdd, 0x7d, 0x3b, 0xb8, 0xad, 0x34, 0x3e, 
 0x84, 0x06, 0x5d, 0xbe, 0xd2, 0x38, 0x33, 0xbe, 0x25, 0xbd, 0x3b, 0x3e, 
 0x39, 0x8b, 0x21, 0xbe, 0xf3, 0xaf, 0x48, 0xbe, 0x66, 0xbb, 0xa2, 0xbe, 
 0xe5, 0x52, 0x1e, 0x3e, 0x26, 0x6f, 0x1b, 0xbd, 0x70, 0xb5, 0x6e, 0xbc, 
 0xfc, 0xbf, 0x0a, 0x3e, 0x3f, 0x12, 0x43, 0xbd, 0xb6, 0xb4, 0x15, 0x3d, 
 0xf9, 0x28, 0x1b, 0x3e, 0x28, 0x4f, 0x66, 0x3e, 0x15, 0xaa, 0x01, 0xbe, 
 0x01, 0xe3, 0x87, 0x3c, 0xa0, 0x19, 0x21, 0x3e, 0xe3, 0x9e, 0x26, 0xbe, 
 0x35, 0x30, 0xf5, 0x3d, 0xf1, 0x2d, 0x55, 0x3d, 0xef, 0x30, 0xa0, 0x3d, 
 0xea, 0x27, 0x2d, 0x3d, 0x3a, 0x63, 0x47, 0x3d, 0x6d, 0xa4, 0x01, 0xbd, 
 0xbb, 0xd5, 0xe3, 0xbd, 0x02, 0xf1, 0x3e, 0xbe, 0x9c, 0xeb, 0x3f, 0x3d, 
 0x26, 0x33, 0xe8, 0xbb, 0xe0, 0x73, 0xef, 0x3d, 0x80, 0x62, 0x75, 0xbe, 
 0x58, 0x93, 0x13, 0x3e, 0x16, 0x70, 0xe9, 0x3d, 0xc8, 0xd7, 0xe9, 0x3d, 
 0x53, 0x7e, 0x26, 0xbe, 0xec, 0x33, 0x37, 0x3e, 0xd8, 0xf2, 0xec, 0x3d, 
 0x7d, 0x93, 0x84, 0x3d, 0x06, 0xe3, 0x1d, 0x3d, 0x65, 0xd7, 0x9b, 0xbd, 
 0x50, 0xf6, 0x36, 0x3e, 0x76, 0x59, 0x2b, 0xbe, 0x6c, 0x47, 0x20, 0xbe, 
 0x47, 0xdb, 0x30, 0x3e, 0xaf, 0x34, 0x06, 0x3e, 0xc1, 0xc3, 0x4b, 0xbe, 
 0x85, 0xc7, 0x59, 0xbe, 0x7e, 0x24, 0x24, 0xbe, 0xd0, 0x1e, 0x49, 0x3d, 
 0xe7, 0x86, 0x11, 0x3e, 0x9a, 0x3b, 0x47, 0xbe, 0xaa, 0xe9, 0x39, 0x3e, 
 0x9c, 0x06, 0x5c, 0xbe, 0x5a, 0x0a, 0x7f, 0xbe, 0x02, 0xcd, 0x8c, 0xbe, 
 0x71, 0xa7, 0x88, 0x3c, 0x6d, 0xd5, 0x30, 0x3e, 0x7e, 0x04, 0xc3, 0xbe, 
 0x93, 0x87, 0x0f, 0xbe, 0x1f, 0x1c, 0xa4, 0xbe, 0xf8, 0xe7, 0xf8, 0x3d, 
 0xd8, 0x9a, 0x81, 0xbe, 0xae, 0xc4, 0x26, 0xbe, 0x9f, 0xbb, 0xf9, 0xbe, 
 0xb7, 0xd1, 0xce, 0xbe, 0xd8, 0x71, 0x9e, 0xbd, 0xa8, 0xd3, 0x92, 0xbd, 
 0x5e, 0x35, 0x4a, 0x3e, 0xfd, 0x84, 0xac, 0x3e, 0x88, 0xf2, 0xa8, 0xbe, 
 0xfa, 0xb3, 0x83, 0x3e, 0xf6, 0x22, 0x12, 0xbe, 0xbf, 0xb4, 0xb5, 0x3d, 
 0xbb, 0x9b, 0xa5, 0xbd, 0xab, 0x68, 0x60, 0x3e, 0xdb, 0x32, 0xa6, 0x3e, 
 0x14, 0x91, 0xa9, 0xbe, 0x77, 0x79, 0x27, 0xbe, 0x8a, 0x6a, 0xd6, 0x3e, 
 0x23, 0x05, 0xd8, 0x3d, 0xd4, 0x1a, 0x1a, 0x3e, 0x41, 0x8b, 0x77, 0x3e, 
 0x68, 0x13, 0x4f, 0x3e, 0x96, 0x2e, 0x5c, 0xbd, 0xbc, 0xb4, 0x34, 0x3e, 
 0x39, 0x43, 0xb2, 0xbe, 0xbf, 0x96, 0x28, 0xbe, 0xff, 0x3c, 0x8f, 0xbe, 
 0xcd, 0x42, 0x9d, 0xbe, 0x0e, 0x5f, 0x8c, 0x3e, 0x34, 0xe1, 0x03, 0x3f, 
 0x6b, 0x27, 0x04, 0x3c, 0x1c, 0x01, 0xc2, 0x3e, 0x2e, 0x38, 0xa8, 0x3d, 
 0xf0, 0xf9, 0xc3, 0xbe, 0x8b, 0x72, 0xe2, 0xbd, 0x8e, 0xb8, 0x99, 0x3e, 
 0x30, 0xf8, 0xe6, 0xbd, 0x14, 0x0d, 0x1f, 0xbe, 0x96, 0x96, 0x7b, 0xbe, 
 0x8e, 0x0a, 0x51, 0xbe, 0x23, 0x57, 0xb1, 0x3d, 0xa3, 0x94, 0x42, 0x3e, 
 0xa4, 0x41, 0x1f, 0x3e, 0x01, 0x6e, 0x8d, 0xbd, 0x91, 0xc5, 0x18, 0xbf, 
 0x54, 0xdb, 0x30, 0xbe, 0x75, 0xdd, 0x83, 0xbe, 0xc5, 0x04, 0x8c, 0xbe, 
 0x06, 0x95, 0x8e, 0xbe, 0x9b, 0x32, 0x3b, 0x3e, 0xb8, 0x50, 0x9e, 0xbe, 
 0x67, 0xe3, 0x3c, 0xbe, 0x84, 0x3e, 0xa8, 0x3c, 0x39, 0xc0, 0x82, 0xbe, 
 0xdd, 0xfe, 0xb0, 0x3d, 0x60, 0x8d, 0x50, 0x3e, 0x0e, 0x10, 0x57, 0x3e, 
 0xbe, 0xed, 0xde, 0xbe, 0x15, 0x55, 0xbd, 0xbd, 0x16, 0xb6, 0xe9, 0x3e, 
 0xce, 0xea, 0x96, 0x3e, 0xe7, 0xe0, 0x26, 0x3e, 0x17, 0x77, 0x2f, 0x3c, 
 0x0e, 0x9a, 0xf8, 0x3e, 0xa3, 0x22, 0x59, 0xbc, 0x25, 0xf9, 0x22, 0x3e, 
 0x29, 0x34, 0xcf, 0xbd, 0x38, 0xeb, 0x9b, 0xbe, 0x56, 0x42, 0x0f, 0xbe, 
 0x22, 0x86, 0x3f, 0x3e, 0xe9, 0x53, 0xbc, 0x3e, 0x88, 0xfc, 0x1c, 0x3c, 
 0xd4, 0xd0, 0x18, 0x3e, 0x44, 0xb1, 0xcf, 0xbe, 0x11, 0xd6, 0x04, 0x3f, 
 0x99, 0x55, 0xec, 0x3e, 0xb0, 0xb3, 0xfb, 0xbd, 0x3b, 0x80, 0xda, 0xbd, 
 0xa9, 0x14, 0xa2, 0xbd, 0xc6, 0x51, 0x03, 0xbe, 0xad, 0xbe, 0x1d, 0xbe, 
 0x7f, 0x82, 0x5f, 0xbe, 0xef, 0x17, 0x8c, 0xbe, 0x35, 0x19, 0x1d, 0x3e, 
 0x1e, 0x42, 0xad, 0x3e, 0xbe, 0x0a, 0x7f, 0xbe, 0x2e, 0x13, 0xff, 0xbc, 
 0x83, 0x5d, 0x79, 0xbe, 0xe0, 0xd3, 0xb8, 0x3a, 0x6a, 0xa7, 0x4c, 0xbe, 
 0xcf, 0x7c, 0x09, 0xbe, 0x56, 0x0f, 0xd0, 0x3e, 0x63, 0xf8, 0x85, 0x3e, 
 0x01, 0x3a, 0x79, 0xbe, 0x10, 0xdc, 0x07, 0xbe, 0x7f, 0x5b, 0x47, 0xbe, 
 0xc2, 0x13, 0xc9, 0x3e, 0x85, 0x1c, 0xe2, 0x3b, 0xdc, 0xf4, 0x15, 0x3e, 
 0x86, 0xd8, 0x95, 0xbd, 0x4e, 0x4b, 0x98, 0xbe, 0xfb, 0x37, 0xdd, 0xbd, 
 0x2f, 0xdd, 0xb8, 0x3e, 0xa8, 0x18, 0xa8, 0x3e, 0x42, 0x08, 0xf6, 0x3d, 
 0xb4, 0x64, 0x15, 0xbd, 0x2a, 0xde, 0xcd, 0x3d, 0x09, 0xad, 0x0f, 0x3f, 
 0xe9, 0xe8, 0xdd, 0xbe, 0x47, 0x70, 0x33, 0x3d, 0xc4, 0xa4, 0xc1, 0xbd, 
 0xb2, 0xbd, 0x55, 0x3e, 0x8e, 0x7b, 0x59, 0xbe, 0x59, 0x7b, 0x07, 0xbe, 
 0x93, 0xbf, 0x1d, 0x3e, 0xe4, 0xb4, 0x17, 0xbe, 0x73, 0x2b, 0x94, 0x3e, 
 0x4a, 0xba, 0x92, 0xbd, 0x02, 0xb8, 0x83, 0x3e, 0x8e, 0xab, 0x0d, 0x3d, 
 0xbb, 0x8f, 0xb3, 0x3d, 0x38, 0x6e, 0x9d, 0xbe, 0x40, 0x8b, 0xaf, 0xbc, 
 0x3e, 0x4e, 0x22, 0xbd, 0x68, 0xa5, 0xa8, 0xbe, 0x75, 0x51, 0x9a, 0xbe, 
 0xa6, 0x8d, 0xb4, 0x3e, 0x71, 0x2b, 0x8b, 0x3d, 0x5d, 0x65, 0x99, 0x3d, 
 0xa3, 0xc7, 0xda, 0xbd, 0x23, 0xa1, 0xad, 0xbe, 0xcf, 0xc1, 0x94, 0xbd, 
 0x2a, 0x9f, 0x2f, 0x3e, 0x09, 0x1b, 0xb1, 0x3e, 0x8f, 0x75, 0x23, 0xbe, 
 0x34, 0x03, 0xbc, 0x3e, 0x4d, 0x21, 0xa4, 0xbe, 0xb0, 0x2b, 0xfa, 0xbe, 
 0x5f, 0xf1, 0x72, 0xbe, 0x01, 0x30, 0x68, 0x3d, 0xad, 0x7b, 0xd4, 0xbc, 
 0xb0, 0x9e, 0xe6, 0x3d, 0xe5, 0x03, 0xb2, 0x3e, 0x43, 0x8c, 0x2b, 0xbe, 
 0xb7, 0xb3, 0xab, 0x3d, 0xb4, 0x99, 0x19, 0xbe, 0x43, 0x50, 0x4e, 0xbe, 
 0xb2, 0x37, 0x3d, 0xbe, 0x74, 0x84, 0x14, 0xbe, 0x2f, 0x1f, 0x94, 0x3e, 
 0x33, 0x56, 0xbb, 0x3c, 0x6e, 0x23, 0x6e, 0x3d, 0xd7, 0xe5, 0xd4, 0xbd, 
 0x06, 0x1e, 0x07, 0xbf, 0x2c, 0x5e, 0xa0, 0x3e, 0x30, 0x09, 0x2b, 0x3e, 
 0xd2, 0xfa, 0x23, 0xbe, 0xee, 0x02, 0xff, 0xbc, 0xd1, 0x46, 0x0b, 0x3e, 
 0x4f, 0x68, 0x21, 0x3e, 0xd9, 0x6b, 0x00, 0x3e, 0x10, 0x2d, 0x8e, 0xbe, 
 0xaf, 0x77, 0x39, 0xbe, 0x49, 0x6c, 0x96, 0x3d, 0xbd, 0xbb, 0x59, 0xbe, 
 0x8b, 0x56, 0xc9, 0xbd, 0xdf, 0x47, 0x51, 0xbc, 0x74, 0xcd, 0x32, 0xbe, 
 0x86, 0x8a, 0x53, 0x3d, 0xfa, 0x9b, 0x7e, 0x3d, 0xbd, 0x8e, 0xe1, 0x3d, 
 0xf2, 0xbc, 0x4d, 0xbe, 0xc3, 0xd6, 0x16, 0xbe, 0x5d, 0xdb, 0x35, 0xbd, 
 0x5f, 0x36, 0x5d, 0x3e, 0x50, 0x3c, 0x93, 0x3e, 0x77, 0x4b, 0xd0, 0xbd, 
 0x9e, 0x08, 0x71, 0x3e, 0x20, 0x3a, 0x70, 0xbe, 0x60, 0x17, 0xe6, 0x3d, 
 0x8b, 0x9e, 0x15, 0x3e, 0x66, 0xeb, 0x5a, 0xbe, 0x91, 0x04, 0x61, 0x3d, 
 0xe4, 0x78, 0x48, 0x3d, 0xbb, 0x24, 0x25, 0x3e, 0xb5, 0x16, 0x84, 0x3e, 
 0x6a, 0xaf, 0x87, 0xbd, 0x7d, 0x9f, 0x82, 0x3d, 0xe1, 0x1e, 0x82, 0x3e, 
 0xef, 0x8b, 0x1f, 0xbd, 0xc8, 0x99, 0xca, 0xbd, 0xa8, 0x23, 0x58, 0xbe, 
 0x87, 0x30, 0x38, 0x3e, 0x1b, 0x44, 0x27, 0xbe, 0x22, 0x68, 0x2d, 0xbe, 
 0x27, 0x05, 0x05, 0xbe, 0xda, 0x24, 0x41, 0xbe, 0x54, 0x6a, 0x0c, 0xbd, 
 0x92, 0x64, 0x2e, 0x3e, 0x86, 0x41, 0x11, 0x3e, 0x12, 0xf4, 0xfd, 0x3d, 
 0x0f, 0xf3, 0x8f, 0x3e, 0x62, 0xc6, 0x75, 0xbe, 0x9f, 0xc8, 0x56, 0xbe, 
 0x66, 0xde, 0x5b, 0xbd, 0x03, 0xb3, 0xd8, 0x3d, 0x5a, 0x85, 0x72, 0xbe, 
 0xe3, 0x2f, 0x6c, 0x3e, 0x52, 0xab, 0x42, 0xbe, 0xd0, 0x5e, 0x5b, 0x3e, 
 0x23, 0x5e, 0x2f, 0x3e, 0xea, 0xe2, 0x88, 0xbd, 0xe8, 0xd1, 0xd2, 0xbd, 
 0xeb, 0xef, 0x80, 0x3d, 0x1f, 0x2a, 0x2d, 0xbe, 0xa8, 0xd2, 0x47, 0x3e, 
 0x10, 0xb1, 0xf2, 0xbd, 0x1f, 0xde, 0x84, 0xbe, 0x8f, 0xac, 0x67, 0x3e, 
 0x11, 0x0d, 0x1a, 0x3e, 0xdd, 0xac, 0x20, 0x3e, 0xef, 0x1d, 0xe7, 0x3d, 
 0xde, 0x40, 0x73, 0xbe, 0x90, 0x34, 0x8e, 0x3e, 0x6d, 0x15, 0x33, 0x3e, 
 0xa8, 0xad, 0x02, 0xbe, 0x69, 0x20, 0xae, 0xbd, 0x7f, 0x81, 0x65, 0xbe, 
 0x11, 0x9f, 0x24, 0x3d, 0x38, 0x74, 0x5a, 0x3e, 0xb1, 0xfa, 0x15, 0xbe, 
 0x9d, 0x7f, 0x3b, 0x3c, 0x5b, 0xf0, 0x49, 0xbd, 0xbe, 0xd4, 0x80, 0x3e, 
 0x0e, 0x51, 0x98, 0x3e, 0x96, 0x3a, 0x24, 0xbe, 0xe9, 0x1f, 0xa3, 0xbd, 
 0x48, 0xed, 0x1f, 0xbf, 0xe4, 0x97, 0x6b, 0xbe, 0x38, 0x06, 0x9d, 0xbe, 
 0x56, 0x80, 0x17, 0x3f, 0x58, 0xf3, 0xe5, 0xbd, 0xca, 0xf2, 0x2d, 0x3a, 
 0x02, 0x58, 0xa7, 0xbd, 0x14, 0xdb, 0x4c, 0x3e, 0x2d, 0x96, 0x10, 0xbf, 
 0xec, 0x59, 0x9b, 0x3e, 0xb8, 0xed, 0xb3, 0xbe, 0x67, 0x96, 0x8f, 0x3e, 
 0xd5, 0x16, 0x1c, 0x3f, 0x24, 0xe7, 0xe8, 0xbe, 0xa4, 0x50, 0xc5, 0xbe, 
 0x23, 0x0b, 0x83, 0xbe, 0xb4, 0xb9, 0xd2, 0xbc, 0xe0, 0x03, 0x0f, 0xbf, 
 0x5c, 0x13, 0xd0, 0x3e, 0xa6, 0x40, 0x8e, 0x3d, 0x80, 0x93, 0x46, 0xbe, 
 0x22, 0x7c, 0x39, 0x3e, 0x3e, 0x40, 0x28, 0xbe, 0x96, 0x2d, 0x83, 0xbe, 
 0x58, 0x37, 0x04, 0x3f, 0x0a, 0x35, 0x05, 0x3f, 0xfd, 0x35, 0xca, 0xbe, 
 0x2f, 0x79, 0x14, 0x3f, 0x80, 0xd8, 0x07, 0xbf, 0x7f, 0x08, 0xe2, 0xbe, 
 0x23, 0xff, 0x01, 0xbf, 0xe0, 0x23, 0x60, 0x3d, 0xe4, 0xe7, 0xef, 0xbe, 
 0x4f, 0x95, 0xa6, 0xbe, 0x28, 0x34, 0x69, 0x3e, 0x0a, 0x23, 0xa1, 0x3e, 
 0x69, 0x0d, 0xd3, 0x3e, 0x2f, 0x0b, 0x25, 0x3d, 0xb7, 0x0e, 0xf0, 0x3e, 
 0x72, 0x0d, 0x24, 0x3f, 0xce, 0x0f, 0x46, 0x3e, 0x9e, 0xd8, 0x67, 0xbe, 
 0xf2, 0xce, 0x0a, 0xbf, 0x7b, 0xb4, 0x01, 0x3f, 0xec, 0x86, 0xbb, 0xbe, 
 0xed, 0xf5, 0x05, 0xbf, 0xea, 0xdc, 0x01, 0x3f, 0xfa, 0xf5, 0x19, 0x3d, 
 0x56, 0xaf, 0xb6, 0x3e, 0xa7, 0x17, 0x20, 0x3f, 0xe2, 0xfc, 0x18, 0x3e, 
 0x38, 0x1e, 0x22, 0xbf, 0x77, 0x9d, 0xcf, 0xbe, 0x65, 0x17, 0x23, 0x3e, 
 0xcf, 0x90, 0x5e, 0x3e, 0x6d, 0x49, 0x54, 0xbd, 0x78, 0xb2, 0x61, 0x3d, 
 0x8f, 0xf9, 0x03, 0xbf, 0xac, 0x38, 0x94, 0x3e, 0x3d, 0xcd, 0x6a, 0x3e, 
 0x3a, 0xfd, 0x21, 0x3f, 0xbe, 0x94, 0xef, 0xbe, 0x49, 0xea, 0x4e, 0x3e, 
 0xe6, 0x52, 0xbb, 0x3e, 0x87, 0x1d, 0x06, 0xbf, 0x5b, 0x10, 0xc5, 0x3e, 
 0xc0, 0x22, 0xdf, 0x3e, 0x79, 0x80, 0x5b, 0x3c, 0xa1, 0x67, 0x0c, 0x3f, 
 0x40, 0xc3, 0x0a, 0x3e, 0x74, 0xb5, 0x53, 0x3e, 0x90, 0x46, 0x11, 0x3f, 
 0xdf, 0x26, 0xe9, 0xbd, 0x01, 0x88, 0x12, 0x3e, 0x7a, 0x08, 0x97, 0xbe, 
 0x2b, 0x88, 0xe8, 0xbd, 0x39, 0x16, 0xae, 0xbe, 0x54, 0x72, 0x12, 0x3f, 
 0x31, 0xd1, 0xd9, 0x3e, 0x9d, 0x0e, 0x6a, 0x3e, 0xa3, 0x5e, 0xed, 0xbe, 
 0x58, 0x1c, 0xc7, 0x3e, 0xb8, 0x7f, 0xa3, 0xbe, 0x55, 0x93, 0x39, 0xbe, 
 0x0e, 0xd1, 0x81, 0x3d, 0xb0, 0xe0, 0xc3, 0x3e, 0x6d, 0xd8, 0xc9, 0x3d, 
 0xd8, 0x4a, 0xe5, 0x3c, 0xb4, 0x53, 0xad, 0x3e, 0xcd, 0xd6, 0xf4, 0xbe, 
 0x48, 0x6a, 0xa7, 0x3d, 0xb4, 0x51, 0x7c, 0xbe, 0x36, 0xa0, 0xd0, 0x3e, 
 0x61, 0x24, 0x92, 0xbe, 0xb3, 0xb2, 0xaf, 0x3e, 0x9c, 0xb5, 0xa1, 0x3e, 
 0x4b, 0x5d, 0xe1, 0xbe, 0x2c, 0x05, 0x83, 0x3e, 0x8f, 0x9e, 0xa3, 0xbd, 
 0xe6, 0x9d, 0x51, 0xbd, 0x22, 0x16, 0x24, 0xbd, 0xc7, 0x65, 0x06, 0xbf, 
 0x87, 0xfb, 0x19, 0xbe, 0x50, 0x23, 0xbb, 0x3d, 0x54, 0x4e, 0xbc, 0x3c, 
 0xf0, 0x18, 0xe9, 0x3e, 0x14, 0x3a, 0x90, 0xbd, 0x2c, 0x22, 0xdc, 0xbe, 
 0xa5, 0xd4, 0x51, 0xbe, 0x8f, 0x39, 0xe8, 0xbe, 0x98, 0x73, 0xc3, 0xbd, 
 0xcc, 0xbb, 0x29, 0xbe, 0x04, 0x33, 0x61, 0x3e, 0xc9, 0x58, 0xe4, 0x3e, 
 0xc6, 0x40, 0x65, 0xbe, 0x4f, 0xde, 0x2f, 0x3d, 0xb2, 0xd0, 0xe3, 0x3e, 
 0x39, 0xfd, 0x6a, 0x3d, 0x50, 0x16, 0x05, 0xbf, 0xc9, 0x50, 0xac, 0x3e, 
 0x2b, 0xd4, 0xd8, 0xbd, 0x8c, 0x0d, 0xcd, 0x3e, 0xb5, 0x27, 0x94, 0xbe, 
 0x60, 0xbf, 0x87, 0x3e, 0x83, 0x02, 0xbe, 0x3e, 0x9a, 0x8c, 0x86, 0xbe, 
 0xd1, 0x71, 0xde, 0x3e, 0x10, 0xc8, 0xe9, 0x3e, 0x47, 0x79, 0xda, 0xbe, 
 0x71, 0xf7, 0x01, 0xbf, 0x4c, 0xb2, 0xd1, 0x3e, 0xc5, 0xa1, 0xd9, 0xbe, 
 0x86, 0xc0, 0x03, 0xbd, 0x4f, 0x79, 0x06, 0xbf, 0x49, 0x9e, 0xba, 0x3e, 
 0xdb, 0x72, 0x57, 0x3e, 0xc6, 0x18, 0xcf, 0xbe, 0x79, 0x76, 0xb2, 0x3e, 
 0x2b, 0xfe, 0x5e, 0x3e, 0x0a, 0x1d, 0xb8, 0xbe, 0x90, 0x4f, 0x56, 0xbd, 
 0x68, 0xbd, 0x41, 0xbe, 0x4c, 0x94, 0x81, 0x3d, 0x5e, 0x04, 0x7f, 0x3e, 
 0x21, 0x9f, 0x85, 0xbe, 0xea, 0x0f, 0x87, 0xbe, 0xb6, 0x03, 0xa6, 0x3e, 
 0x91, 0x75, 0xd5, 0x3e, 0xd5, 0x74, 0xc5, 0x3e, 0x76, 0x81, 0x0e, 0xbf, 
 0xeb, 0x56, 0x66, 0x3d, 0xe7, 0x9a, 0xb4, 0x3e, 0xc0, 0x32, 0x78, 0x3c, 
 0x26, 0x1c, 0xf9, 0x3d, 0x23, 0xb0, 0x26, 0xbe, 0xd3, 0x75, 0x1a, 0xbe, 
 0xbd, 0x99, 0x6a, 0xbe, 0x9f, 0x23, 0xcd, 0xbc, 0x03, 0x5d, 0x05, 0x3b, 
 0x9c, 0x8f, 0x36, 0xbe, 0x85, 0x55, 0x80, 0xbd, 0xba, 0xa1, 0x8e, 0xbd, 
 0x1e, 0xd3, 0x14, 0x3c, 0x49, 0x39, 0x97, 0x3d, 0x68, 0x4c, 0x2f, 0xbe, 
 0x18, 0xca, 0x81, 0xbe, 0x3b, 0x68, 0x80, 0xbe, 0x92, 0xbe, 0xba, 0xbd, 
 0xed, 0x1d, 0x2b, 0xbe, 0xbf, 0xd5, 0x8d, 0xbd, 0x5a, 0x46, 0x84, 0x3c, 
 0x11, 0xdf, 0x7f, 0x3d, 0x2d, 0xcb, 0x83, 0x3e, 0x55, 0x22, 0x25, 0x3d, 
 0xfa, 0x87, 0x59, 0xbe, 0x70, 0x3f, 0x0e, 0xbe, 0xb4, 0x8c, 0x1f, 0xbd, 
 0x3e, 0x89, 0xcf, 0xbd, 0x61, 0x9a, 0x17, 0xbe, 0x9d, 0x6b, 0x07, 0x3d, 
 0x15, 0x16, 0xa6, 0xbd, 0x52, 0x7a, 0x83, 0x3d, 0xc8, 0x86, 0x73, 0xbe, 
 0x4f, 0x51, 0xd3, 0xbd, 0x3d, 0xf6, 0x0e, 0xbe, 0xde, 0x05, 0x74, 0xbe, 
 0xe2, 0xdc, 0xc8, 0x3b, 0xc9, 0x9a, 0x1d, 0xbe, 0x4d, 0xbc, 0x82, 0x3e, 
 0x25, 0x3f, 0x86, 0xbb, 0x92, 0x4c, 0x88, 0xbd, 0x83, 0x30, 0x9d, 0xba, 
 0xfd, 0x7c, 0x4f, 0x3e, 0x6b, 0x93, 0xe3, 0x3c, 0xce, 0xa7, 0x22, 0xbd, 
 0x3f, 0x63, 0x5f, 0xbd, 0x2d, 0x90, 0xdb, 0xbd, 0xfc, 0x76, 0xf8, 0x3c, 
 0x2b, 0x35, 0xb7, 0x3d, 0x15, 0xb6, 0x3d, 0xbe, 0xe2, 0xb4, 0x4f, 0x3e, 
 0xb7, 0xd7, 0x71, 0x3e, 0x8c, 0xd6, 0xb3, 0xbd, 0x29, 0x7f, 0x1d, 0xbe, 
 0xbc, 0xda, 0x38, 0xbe, 0x88, 0x26, 0x12, 0x3e, 0x0d, 0x6e, 0x24, 0xbe, 
 0x60, 0xbc, 0xf1, 0xbd, 0x3b, 0x53, 0xd2, 0x3d, 0x4c, 0xfe, 0x10, 0xbe, 
 0x1e, 0xae, 0xbb, 0xbc, 0x18, 0xad, 0xac, 0x3e, 0x60, 0xdb, 0x2f, 0xbe, 
 0xd3, 0x1e, 0x79, 0x3e, 0xed, 0x36, 0x83, 0xbe, 0xc0, 0x36, 0xf9, 0x3d, 
 0x78, 0xa4, 0xa5, 0x3d, 0xd0, 0xbd, 0x24, 0x3e, 0x23, 0xed, 0xe0, 0x3c, 
 0x6c, 0xb0, 0x47, 0xbe, 0x9e, 0xfe, 0x0e, 0x3e, 0xa8, 0x31, 0x5a, 0x3e, 
 0x48, 0x93, 0xf1, 0xbd, 0x23, 0x49, 0x82, 0xbc, 0x63, 0x23, 0x2f, 0xbe, 
 0x3b, 0xdd, 0x07, 0x3e, 0x3b, 0x30, 0xce, 0x3d, 0x93, 0x1a, 0x8b, 0xbd, 
 0x81, 0xcc, 0x2b, 0x3e, 0x4f, 0x02, 0x2c, 0xbd, 0x42, 0x13, 0x7c, 0xbd, 
 0xff, 0x7c, 0x38, 0xbe, 0xf1, 0x14, 0x82, 0x3e, 0x21, 0xfa, 0x3a, 0xbd, 
 0x33, 0x80, 0x55, 0x3d, 0x87, 0xbe, 0x1e, 0xbe, 0x95, 0x4a, 0xa1, 0x3d, 
 0x8a, 0x13, 0x00, 0xbe, 0x2d, 0x92, 0x83, 0x3d, 0x44, 0x3f, 0xf0, 0x3d, 
 0xef, 0xef, 0x9f, 0x3d, 0x1c, 0xa0, 0x21, 0xbe, 0x95, 0x2f, 0x24, 0x3e, 
 0x31, 0xcb, 0xf0, 0xbc, 0x65, 0x3b, 0x80, 0xbe, 0x8d, 0x93, 0x98, 0xbd, 
 0x0d, 0x77, 0x85, 0x3d, 0x6c, 0x7b, 0xf4, 0xbc, 0x13, 0x80, 0x86, 0xbd, 
 0x4e, 0x57, 0x83, 0x3c, 0xf8, 0x4b, 0x72, 0x3c, 0x31, 0x8b, 0x50, 0x3d, 
 0x8b, 0x46, 0x05, 0x3e, 0xc9, 0xc1, 0xca, 0xbc, 0x3e, 0xd1, 0xbb, 0xbd, 
 0x26, 0x88, 0xb1, 0xbe, 0x93, 0x33, 0x25, 0x3e, 0x9e, 0x35, 0x23, 0x3e, 
 0x48, 0x5b, 0x0c, 0x3e, 0x4f, 0xb0, 0x57, 0x3e, 0x0b, 0x5a, 0x0e, 0xbd, 
 0x6e, 0xdc, 0xbf, 0xbe, 0x2e, 0xd6, 0x52, 0xbd, 0x3a, 0x8e, 0x60, 0xbe, 
 0x05, 0xe6, 0x34, 0x3d, 0x1c, 0x27, 0x6a, 0xbd, 0x05, 0x7a, 0x4c, 0xbe, 
 0xd2, 0xde, 0x6e, 0xbe, 0x62, 0xd6, 0xed, 0x3d, 0x56, 0x0a, 0x6a, 0xbe, 
 0x35, 0xf5, 0x22, 0x3e, 0xfa, 0xc1, 0x2f, 0x3e, 0x07, 0xe8, 0xaf, 0x3c, 
 0x87, 0xdf, 0xdd, 0xbd, 0x4a, 0xae, 0x25, 0xbe, 0x0a, 0x6a, 0x0b, 0xbe, 
 0x19, 0xb1, 0x20, 0x3e, 0x53, 0x62, 0x01, 0xbe, 0xf2, 0x0f, 0xf7, 0xbc, 
 0x34, 0xb0, 0x27, 0x3e, 0x0f, 0xca, 0xea, 0xbc, 0x2f, 0xc7, 0x63, 0x3e, 
 0xac, 0x33, 0x6d, 0x3e, 0xde, 0x0e, 0x20, 0xbe, 0xac, 0xbc, 0x2f, 0x3d, 
 0x7a, 0xf3, 0xb5, 0xbd, 0x20, 0x5b, 0x36, 0x3e, 0x1a, 0x1e, 0x16, 0x3e, 
 0xb8, 0x3b, 0xf7, 0x3d, 0xda, 0x0c, 0xf5, 0x3d, 0x9a, 0x4a, 0x28, 0x3e, 
 0x8d, 0x60, 0x35, 0xbe, 0x93, 0xc2, 0xcd, 0xbd, 0x53, 0x38, 0x99, 0xbe, 
 0xd1, 0x38, 0x7f, 0x3e, 0x5e, 0xfc, 0x93, 0xbd, 0x71, 0x69, 0x9a, 0xbc, 
 0xd5, 0xfe, 0x02, 0x3e, 0xdd, 0xa3, 0x71, 0xbe, 0xb6, 0x06, 0x4e, 0x3c, 
 0x75, 0x59, 0x05, 0x3d, 0xca, 0x27, 0xff, 0x3d, 0x8c, 0xca, 0x25, 0x3e, 
 0x90, 0x71, 0x5c, 0x3e, 0x1c, 0xb6, 0x42, 0xbe, 0xfc, 0x56, 0x97, 0x3e, 
 0x5b, 0x1c, 0x8c, 0xbc, 0x4b, 0x01, 0xf3, 0x3a, 0x60, 0x53, 0x3a, 0x3e, 
 0xb9, 0x06, 0xf7, 0x3d, 0x84, 0x68, 0x1d, 0xbe, 0xb1, 0x9b, 0xb6, 0xbd, 
 0xd8, 0xc2, 0xc7, 0xbd, 0xbc, 0xb9, 0x1b, 0x3e, 0x23, 0xce, 0x4f, 0xbe, 
 0xec, 0x2d, 0x8a, 0xbe, 0xef, 0x65, 0x37, 0xbe, 0xf3, 0x3c, 0x13, 0x3d, 
 0xc9, 0xdf, 0xf4, 0xbd, 0x57, 0x0c, 0xcb, 0xbe, 0x38, 0x3d, 0x21, 0xbe, 
 0xa3, 0x73, 0x60, 0xbe, 0xd1, 0xb1, 0x0c, 0x3e, 0x0e, 0xe3, 0x8d, 0x3e, 
 0x81, 0x6a, 0xb9, 0xbe, 0x54, 0xec, 0x2a, 0xbf, 0xc4, 0xa5, 0xbd, 0x3e, 
 0x39, 0x23, 0xc9, 0x3d, 0xdf, 0xa9, 0xf1, 0x3d, 0xa5, 0x8c, 0x09, 0xbf, 
 0xe5, 0x97, 0x24, 0x3e, 0x9d, 0x4e, 0x5c, 0xbe, 0xd8, 0xe2, 0x28, 0xbf, 
 0xa5, 0xb0, 0x63, 0x3e, 0xa8, 0xe0, 0x16, 0xbd, 0x4f, 0xaf, 0x9c, 0x3e, 
 0x17, 0x89, 0xaf, 0x3e, 0xe9, 0x0e, 0x35, 0x3d, 0x5f, 0xfc, 0x1a, 0xbe, 
 0x08, 0xdf, 0xfa, 0xbe, 0x05, 0xc0, 0xd3, 0xbe, 0x3b, 0x80, 0xcb, 0xbe, 
 0x41, 0x78, 0x15, 0x3f, 0xd9, 0xdd, 0x9f, 0xbe, 0xb0, 0x55, 0x51, 0x3e, 
 0x13, 0x08, 0xba, 0x3e, 0x76, 0x18, 0xc0, 0xbc, 0xa4, 0xb1, 0x9a, 0xbe, 
 0x62, 0xee, 0xb1, 0x3e, 0xca, 0x1b, 0x06, 0x3f, 0x9f, 0xaa, 0xd1, 0x3e, 
 0x25, 0xd4, 0xdd, 0x3e, 0xad, 0x1b, 0x06, 0xbf, 0x18, 0xa0, 0xeb, 0x3e, 
 0xac, 0xaa, 0xa2, 0x3e, 0xa2, 0xd2, 0xc4, 0x3e, 0x75, 0x9d, 0x6e, 0x3e, 
 0xb9, 0xd8, 0xca, 0xbe, 0x4e, 0x5c, 0x86, 0x3e, 0x35, 0x16, 0xb0, 0xbe, 
 0x25, 0xc9, 0xcf, 0xbd, 0x2f, 0x61, 0x18, 0x3f, 0x22, 0xce, 0xaf, 0x3e, 
 0xf0, 0xfc, 0x0d, 0xbf, 0x3f, 0x80, 0xf9, 0xbe, 0xf7, 0x45, 0x07, 0x3e, 
 0x51, 0xc2, 0xd6, 0xbe, 0xb3, 0x99, 0x6c, 0x3b, 0x2a, 0x86, 0xc7, 0xbd, 
 0x73, 0xaf, 0x0f, 0x3f, 0xd0, 0xdb, 0xa5, 0x3e, 0x9b, 0x60, 0xb6, 0x3e, 
 0xc8, 0xed, 0xfc, 0xbe, 0xaf, 0x27, 0x83, 0x3e, 0xf9, 0x29, 0x34, 0x3e, 
 0x72, 0x3f, 0x0d, 0xbf, 0xbc, 0xc1, 0x49, 0x3e, 0x28, 0x83, 0x1a, 0xbf, 
 0x60, 0xaf, 0xac, 0xbe, 0x4a, 0xdc, 0xce, 0x3d, 0x9a, 0xcc, 0x90, 0x3e, 
 0x18, 0x82, 0x23, 0x3f, 0x7f, 0x52, 0x06, 0x3f, 0x8f, 0x34, 0xb0, 0xbe, 
 0x2d, 0xc3, 0x5f, 0xbe, 0x09, 0x42, 0xbd, 0x3e, 0x86, 0xf1, 0xec, 0xbe, 
 0x53, 0xdf, 0x43, 0x3e, 0x5c, 0x97, 0xe3, 0xbe, 0x3c, 0x8d, 0xc5, 0xbe, 
 0x2f, 0x3f, 0x2d, 0xbe, 0x0f, 0x22, 0xd2, 0xbe, 0x1f, 0x53, 0x20, 0xbe, 
 0xe8, 0xb4, 0x5c, 0x3e, 0xfb, 0xed, 0x4f, 0x3e, 0x23, 0xe8, 0x4f, 0xbe, 
 0xea, 0x87, 0xc2, 0x3e, 0x88, 0xbb, 0x06, 0xbf, 0x68, 0xb7, 0x33, 0x3e, 
 0x33, 0x07, 0xbc, 0x3d, 0x5b, 0xf9, 0x9e, 0x3c, 0xc6, 0x0a, 0x75, 0x3e, 
 0x3d, 0xda, 0xab, 0x3e, 0x44, 0x57, 0x01, 0x3f, 0x80, 0x05, 0x2f, 0x3e, 
 0xb3, 0x2d, 0x04, 0xbe, 0xaa, 0x63, 0xd6, 0xbe, 0x44, 0x38, 0xf7, 0xbd, 
 0x6e, 0xcc, 0xaf, 0xbe, 0xed, 0x99, 0x2f, 0xbd, 0xd6, 0x90, 0xac, 0xbe, 
 0xec, 0xba, 0xb7, 0xbc, 0x18, 0x65, 0x34, 0xbe, 0x63, 0x09, 0x8b, 0xbe, 
 0x78, 0xd3, 0x27, 0xbe, 0x3b, 0x4f, 0x56, 0xbe, 0x82, 0x58, 0x6f, 0x3e, 
 0xd9, 0xb8, 0x8e, 0xbd, 0xd5, 0xfc, 0x79, 0xbb, 0x14, 0x42, 0xba, 0xbe, 
 0x2e, 0xf4, 0xc3, 0xbe, 0x62, 0x92, 0xb1, 0xbd, 0x80, 0xb0, 0x92, 0x3e, 
 0xe2, 0xb2, 0xd1, 0xbe, 0x57, 0x5e, 0xe8, 0x3e, 0x52, 0x9f, 0xcc, 0xbd, 
 0x63, 0x5e, 0xc7, 0x3e, 0xa7, 0x57, 0x87, 0x3e, 0xaa, 0x70, 0x2e, 0x3e, 
 0xa7, 0x0d, 0x7e, 0x3e, 0x05, 0x9a, 0xb6, 0x3d, 0xad, 0x7a, 0xad, 0xbe, 
 0x92, 0x9b, 0x61, 0x3d, 0x12, 0xa0, 0xe5, 0xbe, 0x69, 0x41, 0x4f, 0xbd, 
 0x8e, 0x9f, 0xd7, 0x3e, 0x3c, 0x93, 0xa9, 0xbe, 0x07, 0xb9, 0x1d, 0x3e, 
 0x3c, 0x6c, 0xcb, 0xbe, 0xe1, 0x05, 0xa9, 0xbe, 0xd3, 0xe6, 0x8a, 0xbe, 
 0x26, 0x01, 0xc8, 0x3e, 0xd6, 0x9d, 0x4d, 0x3e, 0x4b, 0xa7, 0x71, 0x3e, 
 0xb0, 0x43, 0x1d, 0x3e, 0x7f, 0xda, 0xbb, 0x3d, 0x1a, 0xa6, 0x98, 0x3e, 
 0x67, 0x19, 0xd3, 0x3e, 0x7a, 0x42, 0x93, 0x3e, 0x0f, 0x50, 0xd8, 0x3d, 
 0xb7, 0x83, 0xa5, 0xbe, 0xae, 0x4b, 0xc4, 0xbe, 0x74, 0x86, 0xa3, 0x3e, 
 0x87, 0x9c, 0x81, 0x3e, 0x97, 0x50, 0xfe, 0xbd, 0x03, 0x20, 0x0a, 0x3d, 
 0x6f, 0xa5, 0x6b, 0xbd, 0xb0, 0x7c, 0xbf, 0xbe, 0xe1, 0xb8, 0x5b, 0xbe, 
 0x2c, 0xe8, 0xc4, 0x3e, 0x54, 0xe5, 0xcf, 0x3e, 0x86, 0x7a, 0x8e, 0xbe, 
 0x42, 0xc1, 0xfd, 0x3d, 0xae, 0x2d, 0xa2, 0x3e, 0x37, 0x44, 0xf0, 0x3e, 
 0x76, 0xf5, 0x43, 0xbe, 0xc6, 0x62, 0xfd, 0x3d, 0xd6, 0x86, 0x75, 0xbe, 
 0x15, 0x64, 0x2e, 0x3e, 0x5b, 0xb2, 0x3b, 0x3e, 0x76, 0xbd, 0xd6, 0x3e, 
 0x65, 0x5d, 0xfe, 0x3e, 0xea, 0x93, 0xbf, 0xbe, 0x24, 0x26, 0x85, 0x3d, 
 0xe6, 0x3d, 0xee, 0x3e, 0xad, 0xb8, 0xdb, 0x3e, 0x97, 0x28, 0x8c, 0xbe, 
 0xea, 0x60, 0x11, 0xbe, 0x95, 0x04, 0x64, 0xbe, 0xd6, 0x82, 0x41, 0xbe, 
 0x33, 0xef, 0x22, 0x3e, 0xd1, 0x96, 0x9f, 0x3e, 0x2b, 0xc9, 0x36, 0x3c, 
 0xe0, 0xeb, 0x8d, 0x3e, 0xd2, 0x89, 0x0e, 0xbe, 0x5f, 0x2c, 0x6f, 0x3e, 
 0xc6, 0x2b, 0x0a, 0x3e, 0xa1, 0x06, 0xab, 0x3e, 0x20, 0xf0, 0x4a, 0xbe, 
 0xbb, 0xce, 0x8f, 0xbe, 0x88, 0xc1, 0x03, 0xbc, 0x62, 0x77, 0x70, 0xbe, 
 0x31, 0xea, 0x1c, 0xbe, 0xba, 0xd2, 0xd8, 0x3c, 0x71, 0xd5, 0xfd, 0xbb, 
 0xfb, 0xaa, 0x31, 0x3d, 0x16, 0xe3, 0x77, 0x3e, 0x40, 0x6c, 0xc5, 0xbd, 
 0x03, 0x57, 0x8d, 0x3e, 0xe7, 0xfc, 0x4d, 0xbe, 0x82, 0x0f, 0x64, 0xbe, 
 0x0c, 0xa9, 0x0d, 0x3e, 0xc1, 0xc7, 0xe1, 0x3c, 0x43, 0xac, 0xcb, 0xbe, 
 0x1c, 0xf8, 0x80, 0x3e, 0x46, 0xed, 0xb0, 0xbe, 0xd2, 0x00, 0xc5, 0x3e, 
 0x06, 0xc2, 0xe6, 0x3b, 0x76, 0xf3, 0x9e, 0x3d, 0x96, 0xf2, 0x5d, 0x3e, 
 0x8f, 0x1f, 0xaf, 0x3d, 0x29, 0xcb, 0x03, 0xbe, 0x49, 0x11, 0x08, 0x3b, 
 0xa0, 0x2d, 0x0c, 0x3d, 0xe6, 0x93, 0x14, 0x3e, 0x19, 0xd6, 0x48, 0xbe, 
 0xee, 0x09, 0x6a, 0xbe, 0x25, 0xf0, 0xa2, 0x3e, 0x5f, 0xbc, 0xc9, 0xbd, 
 0x23, 0x20, 0x63, 0xbd, 0xf6, 0x20, 0xda, 0x3d, 0xc7, 0xc5, 0x0f, 0xbd, 
 0x77, 0x83, 0x2f, 0xbe, 0x9c, 0x5c, 0x6d, 0xbe, 0x41, 0xfa, 0xad, 0xbd, 
 0x22, 0x08, 0x3b, 0x3e, 0x99, 0x4a, 0x97, 0x3d, 0x34, 0x1a, 0xd5, 0xbd, 
 0xcd, 0xae, 0x9a, 0xbe, 0x71, 0x97, 0x5e, 0x3e, 0x5c, 0x04, 0x57, 0xbe, 
 0x9f, 0x45, 0x9e, 0xbe, 0x4e, 0xc0, 0x76, 0xbe, 0xab, 0xac, 0xd3, 0x3e, 
 0x00, 0x55, 0x32, 0xbe, 0x07, 0x4e, 0x63, 0xbe, 0x7d, 0x96, 0x8f, 0x3e, 
 0x35, 0xb1, 0xc4, 0x3c, 0x3b, 0xdf, 0x88, 0xbd, 0x3c, 0x75, 0xab, 0x3e, 
 0x91, 0x98, 0x63, 0x3e, 0x8b, 0x2e, 0xba, 0x3d, 0x97, 0x5b, 0x9f, 0x3e, 
 0xac, 0x83, 0xf8, 0x3c, 0x4b, 0x15, 0x66, 0x3e, 0xcf, 0xea, 0x88, 0x3d, 
 0x79, 0x07, 0x85, 0x3e, 0xd4, 0xcf, 0x90, 0x3e, 0x72, 0x43, 0x19, 0x3e, 
 0x8c, 0xd6, 0x8d, 0x3e, 0x05, 0x41, 0x87, 0x3d, 0xba, 0x23, 0x21, 0x3e, 
 0x0e, 0x58, 0x86, 0xbe, 0x55, 0xeb, 0x85, 0xbe, 0x4e, 0xff, 0x49, 0xbe, 
 0xad, 0xee, 0xaa, 0xbe, 0x3a, 0xd9, 0x03, 0xbd, 0x46, 0xe7, 0xb1, 0xbe, 
 0x46, 0xf2, 0xcf, 0xbe, 0x05, 0x20, 0xad, 0xbe, 0x38, 0x38, 0x0a, 0xbe, 
 0xb2, 0xc7, 0xa0, 0xbd, 0xd6, 0x83, 0x3c, 0x3e, 0xaa, 0xdf, 0x7f, 0x3d, 
 0xa8, 0x4d, 0x2b, 0xbe, 0xae, 0x02, 0x57, 0x3b, 0xaa, 0xf5, 0x8c, 0xbc, 
 0x56, 0x25, 0x89, 0x3d, 0xe6, 0xa9, 0x73, 0xbe, 0x6e, 0xcb, 0x12, 0x3d, 
 0x35, 0x74, 0x02, 0x3e, 0x86, 0xcb, 0xa5, 0xbd, 0x61, 0x8e, 0x11, 0xbd, 
 0x02, 0xd6, 0xfe, 0xbd, 0xe2, 0xb4, 0x00, 0xbe, 0xc7, 0x50, 0x86, 0xbe, 
 0xe7, 0x39, 0xc0, 0x3d, 0xf0, 0xde, 0x0a, 0x3e, 0x67, 0x91, 0x27, 0x3e, 
 0xe8, 0x0c, 0xa6, 0x3e, 0x8a, 0x95, 0xf5, 0x3d, 0xb8, 0x11, 0x93, 0xbe, 
 0xee, 0xd5, 0x63, 0xbd, 0x6a, 0xcf, 0x49, 0xbc, 0x51, 0x64, 0x40, 0xbe, 
 0xff, 0x3e, 0x3c, 0x3e, 0xe2, 0x19, 0xf8, 0xbd, 0xab, 0x66, 0xc2, 0x3d, 
 0xc2, 0x69, 0xf4, 0x3d, 0xcf, 0x3f, 0xf2, 0xbd, 0xce, 0x26, 0xa7, 0xbd, 
 0xb1, 0x5a, 0x14, 0x3d, 0x9f, 0xf3, 0xef, 0x3c, 0xda, 0xcd, 0x04, 0x3e, 
 0x97, 0x29, 0xb5, 0xbd, 0x69, 0xcc, 0x67, 0x3e, 0x82, 0x2b, 0x90, 0x3e, 
 0x50, 0x99, 0xf6, 0x3d, 0xdb, 0x0e, 0x6a, 0x3e, 0x79, 0xd2, 0x4c, 0x3e, 
 0x7c, 0x69, 0xef, 0xbb, 0x14, 0x11, 0x17, 0xbe, 0xf8, 0xc5, 0x54, 0xbd, 
 0x1d, 0x11, 0x03, 0x3e, 0x1e, 0x62, 0x89, 0xbe, 0x84, 0x8b, 0xd3, 0xbd, 
 0xd5, 0xc9, 0x32, 0xbe, 0x34, 0x29, 0x5f, 0xbb, 0x04, 0x78, 0x95, 0x3d, 
 0xa5, 0xf5, 0x00, 0xbe, 0xcd, 0x4c, 0x9b, 0x3e, 0xf4, 0x0f, 0x69, 0x3e, 
 0xac, 0x80, 0x3d, 0x3e, 0x2a, 0xfb, 0x4e, 0xbe, 0xae, 0xf7, 0x0e, 0xbe, 
 0x41, 0x7b, 0x92, 0x3d, 0xd7, 0x60, 0x28, 0x3e, 0x86, 0xd0, 0x68, 0xbe, 
 0x2a, 0xe0, 0x40, 0xbe, 0xa8, 0x49, 0x47, 0x3d, 0x66, 0x42, 0xa7, 0xbe, 
 0xf6, 0x5c, 0x0c, 0xbe, 0xc7, 0xb6, 0x7b, 0x3d, 0xc5, 0xa2, 0xd7, 0xbd, 
 0xae, 0xaa, 0x36, 0xbe, 0xfb, 0x08, 0x88, 0x3e, 0x09, 0xb6, 0x87, 0xbc, 
 0x09, 0x14, 0x54, 0xbe, 0xb6, 0xb7, 0x98, 0xbd, 0xaf, 0x3f, 0x96, 0xbc, 
 0x82, 0x41, 0x0a, 0x3e, 0xd3, 0xae, 0x6f, 0xbd, 0x24, 0x1b, 0xc8, 0xbd, 
 0xe2, 0xd4, 0x17, 0xbd, 0x68, 0x9b, 0x0f, 0xbe, 0x96, 0x77, 0x68, 0xbe, 
 0xe7, 0x92, 0x5c, 0xbe, 0x30, 0x77, 0x49, 0xbe, 0xbe, 0xce, 0x4c, 0x3e, 
 0x70, 0x63, 0xc8, 0x3e, 0x4d, 0x25, 0xa6, 0xbe, 0x3d, 0x33, 0x59, 0xbd, 
 0x31, 0x42, 0x99, 0x3e, 0xe7, 0xae, 0x02, 0xbe, 0x24, 0x83, 0xb3, 0x3c, 
 0x16, 0x29, 0x34, 0x3e, 0x98, 0x7a, 0x44, 0x3e, 0x4e, 0xd7, 0xd7, 0xbe, 
 0x94, 0x44, 0xa4, 0xbe, 0xad, 0xc9, 0x08, 0xbc, 0x81, 0xfa, 0xd8, 0xbe, 
 0x63, 0x81, 0x24, 0x3e, 0x3a, 0x39, 0xb1, 0x3c, 0x83, 0xc0, 0x6a, 0xbe, 
 0xf4, 0xaa, 0xb3, 0x3e, 0xec, 0xf2, 0xcd, 0x3e, 0x0d, 0x27, 0x37, 0x3e, 
 0x70, 0x90, 0x98, 0xbd, 0x40, 0x1a, 0x3c, 0xbe, 0x6a, 0xa7, 0x87, 0xbe, 
 0x26, 0x6f, 0xfe, 0xbe, 0xf8, 0xb0, 0x72, 0xbe, 0x70, 0x16, 0x01, 0x3f, 
 0x6a, 0xed, 0x91, 0xbe, 0x27, 0x83, 0x23, 0xbe, 0xca, 0xfe, 0x86, 0x3e, 
 0x36, 0x35, 0x27, 0xbe, 0xa8, 0xee, 0xb4, 0xbe, 0xdd, 0x6a, 0x9e, 0xbe, 
 0x15, 0x90, 0x9a, 0x3e, 0xff, 0xfe, 0x65, 0x3e, 0xe9, 0x3e, 0x19, 0xbe, 
 0xf5, 0x87, 0x47, 0x3e, 0x8d, 0x8d, 0x8a, 0x3e, 0x52, 0xf5, 0x86, 0x3e, 
 0x39, 0x67, 0xc0, 0x3e, 0xe8, 0x19, 0x1f, 0x3e, 0xce, 0xda, 0xf1, 0x3d, 
 0x66, 0x8e, 0x9b, 0x3b, 0x73, 0x96, 0xa6, 0x3e, 0x58, 0x9f, 0x32, 0xbe, 
 0x80, 0x7a, 0x0b, 0x3e, 0x1b, 0x08, 0xde, 0xbe, 0x72, 0x7d, 0x9c, 0x3e, 
 0x35, 0xce, 0xcd, 0xbe, 0xd5, 0x5f, 0xc1, 0xbe, 0x30, 0xdf, 0xe4, 0xbb, 
 0x1c, 0xcc, 0x43, 0x3e, 0x30, 0x15, 0xd4, 0xbe, 0x48, 0xc4, 0x08, 0xbf, 
 0xa8, 0x93, 0xaf, 0x3c, 0x2e, 0x68, 0x24, 0x3c, 0x5a, 0xfc, 0xe4, 0xbe, 
 0xff, 0xab, 0xd5, 0x3e, 0x1f, 0xa8, 0x3e, 0x3d, 0x3b, 0x05, 0xba, 0x3e, 
 0xa3, 0x39, 0xd2, 0xbe, 0xb4, 0x32, 0x89, 0xbe, 0x63, 0xa9, 0xdd, 0xbd, 
 0x0c, 0x5e, 0xe2, 0x3e, 0x64, 0xd4, 0xd6, 0x3e, 0x39, 0xb7, 0x8f, 0xbe, 
 0xfa, 0x25, 0x79, 0x3e, 0x9f, 0xe1, 0xff, 0x3d, 0x59, 0x76, 0x85, 0xbe, 
 0xba, 0xb6, 0x7f, 0xbe, 0x64, 0x45, 0xa0, 0xbc, 0x6f, 0xc9, 0x90, 0x3e, 
 0xc4, 0x87, 0xd5, 0xbe, 0x27, 0x7c, 0xa9, 0x3e, 0xa6, 0xac, 0x96, 0x3d, 
 0x24, 0x31, 0xa2, 0x3e, 0xd2, 0x0e, 0xfd, 0xbd, 0x0c, 0xc6, 0xc2, 0xbd, 
 0x70, 0x9d, 0x16, 0x3e, 0x09, 0xa2, 0xd1, 0x3e, 0xba, 0x02, 0xc5, 0xbe, 
 0x3c, 0x34, 0x48, 0xbe, 0x23, 0x9a, 0x7b, 0xbe, 0x79, 0x60, 0x9e, 0x3e, 
 0x2c, 0x0d, 0x09, 0x3f, 0x90, 0xb7, 0xc6, 0x3d, 0x0b, 0x48, 0xfc, 0xbd, 
 0x4f, 0x99, 0x0a, 0x3f, 0xef, 0x3b, 0x85, 0x3e, 0x8b, 0x3e, 0xa3, 0x3e, 
 0xad, 0x1a, 0xfa, 0xbd, 0xef, 0x13, 0x16, 0xbe, 0x56, 0x2f, 0xed, 0x3d, 
 0xce, 0xad, 0x01, 0xbf, 0x2d, 0x80, 0xa3, 0xbe, 0x72, 0x9d, 0xe7, 0x3c, 
 0x8d, 0xe4, 0x16, 0x3f, 0xcf, 0xb6, 0xbe, 0x3d, 0x63, 0x69, 0xe8, 0xbd, 
 0x8e, 0x62, 0x0e, 0xbe, 0xd3, 0x84, 0xad, 0xbd, 0x44, 0x9e, 0x0d, 0x3f, 
 0x00, 0xb8, 0xd1, 0x3d, 0xa0, 0x2f, 0x03, 0x3f, 0x14, 0x39, 0x6f, 0x3d, 
 0xcc, 0x09, 0xed, 0xbe, 0x2f, 0xe7, 0xb8, 0x3e, 0x0a, 0xa6, 0x8e, 0x3d, 
 0xbc, 0xc3, 0x16, 0x3f, 0x96, 0x25, 0x42, 0xbe, 0x7f, 0xe9, 0x03, 0xbf, 
 0x30, 0xb9, 0x3b, 0x3f, 0xac, 0x75, 0x25, 0xbd, 0x66, 0x0e, 0x41, 0xbe, 
 0xa0, 0x97, 0xd6, 0xbc, 0x5a, 0x96, 0x21, 0x3f, 0xab, 0xe5, 0xd7, 0xbd, 
 0x94, 0xcd, 0x28, 0x3c, 0x8d, 0x04, 0xa8, 0x3c, 0x1a, 0xc8, 0x0b, 0xbf, 
 0x5f, 0xd6, 0xc5, 0xbe, 0x9e, 0x44, 0x0a, 0xbf, 0x19, 0xf1, 0xee, 0xbe, 
 0x09, 0x85, 0xdf, 0x3e, 0xba, 0xd9, 0x49, 0xbd, 0xd1, 0x43, 0x0c, 0x3e, 
 0xd8, 0x2c, 0x84, 0xbd, 0xbb, 0xfc, 0x5a, 0x3d, 0x32, 0x2b, 0xaf, 0xbe, 
 0x4b, 0x49, 0xa5, 0xbe, 0xe7, 0xab, 0xc3, 0x3e, 0x29, 0x57, 0x92, 0xbd, 
 0x4b, 0xdf, 0xab, 0x3e, 0xa7, 0x6d, 0x77, 0x3e, 0x0b, 0x7d, 0x8a, 0xbe, 
 0x81, 0x80, 0x5f, 0x3e, 0x93, 0x6f, 0x00, 0xbf, 0x46, 0x5c, 0xe6, 0x3e, 
 0x30, 0xa1, 0x0f, 0xbf, 0x9b, 0x01, 0x15, 0xbe, 0xb2, 0xd1, 0x02, 0x3f, 
 0xea, 0xee, 0xd9, 0xbd, 0x66, 0xc1, 0x01, 0xbf, 0x64, 0x3e, 0xae, 0x3e, 
 0xf4, 0xa9, 0x04, 0xbe, 0x9f, 0x5d, 0x11, 0x3f, 0xee, 0xaa, 0x9c, 0xbe, 
 0xff, 0x50, 0xaf, 0xbe, 0x1e, 0xb0, 0x28, 0xbe, 0x38, 0x12, 0x15, 0xbe, 
 0x3f, 0x60, 0x8a, 0x3e, 0x5e, 0xb0, 0xf7, 0xbc, 0x01, 0x34, 0x9c, 0x3e, 
 0x79, 0xe6, 0x92, 0x3e, 0x99, 0x80, 0x21, 0x3f, 0xcb, 0x4f, 0xda, 0xbe, 
 0xa0, 0xf1, 0x7e, 0xbe, 0x66, 0xa0, 0xda, 0x3e, 0x3e, 0xc6, 0x20, 0xbb, 
 0x0a, 0xa0, 0x36, 0x3e, 0xca, 0x75, 0x23, 0xbe, 0xb7, 0x03, 0x29, 0xbe, 
 0x02, 0xe8, 0x38, 0xbe, 0xfd, 0xca, 0x84, 0x3c, 0xc6, 0xda, 0xb5, 0x3e, 
 0x6b, 0x02, 0xda, 0x3c, 0x97, 0xa4, 0xab, 0xbe, 0xba, 0x45, 0x43, 0x3e, 
 0xf0, 0xa7, 0x62, 0xbe, 0xdf, 0x17, 0xdb, 0xbe, 0x9b, 0x3e, 0xc2, 0xbe, 
 0x4f, 0xde, 0x49, 0xbe, 0x06, 0xb8, 0x57, 0xbe, 0x94, 0x5e, 0x89, 0x3e, 
 0x3c, 0x5a, 0x9d, 0x3e, 0x3f, 0xd4, 0x30, 0xbe, 0x2b, 0xf7, 0x81, 0x3e, 
 0xc1, 0xa5, 0xbf, 0x3d, 0x0a, 0xc5, 0xa6, 0xbe, 0xaa, 0xcf, 0xa4, 0x3e, 
 0x1d, 0x0a, 0xbc, 0x3e, 0x6f, 0xc6, 0x88, 0x3e, 0x2e, 0xe7, 0x6f, 0x3e, 
 0x01, 0x02, 0x00, 0x3e, 0x1b, 0x0c, 0x96, 0xbe, 0x89, 0x1a, 0xf9, 0x3e, 
 0x95, 0x87, 0xc1, 0x3c, 0xd3, 0xb3, 0x2e, 0xbe, 0x38, 0xf5, 0x53, 0x3e, 
 0x57, 0x5e, 0xf5, 0xbe, 0xe0, 0xec, 0xab, 0xbe, 0x70, 0xff, 0x12, 0xbe, 
 0xba, 0xb7, 0x36, 0x3e, 0x86, 0x12, 0x79, 0x3e, 0x68, 0xf5, 0x54, 0x3e, 
 0x61, 0x7f, 0xa7, 0xbd, 0x9e, 0x37, 0x97, 0xbe, 0x77, 0x3d, 0xed, 0x3e, 
 0xfc, 0xc1, 0xc8, 0x3c, 0x87, 0x4c, 0xc1, 0xbe, 0x90, 0xdc, 0x62, 0x3e, 
 0x5b, 0x3c, 0xb2, 0x3e, 0x36, 0x21, 0x91, 0x3c, 0x0b, 0xdf, 0x0d, 0x3c, 
 0xe4, 0xc2, 0xbb, 0xbd, 0x13, 0xb0, 0x27, 0x3e, 0x4a, 0x6e, 0xd6, 0xbd, 
 0x93, 0xbf, 0x1c, 0x3f, 0x66, 0x44, 0xa5, 0xbe, 0xba, 0x10, 0x6f, 0x3e, 
 0xf3, 0x15, 0x0c, 0x3e, 0x02, 0x36, 0x58, 0x3d, 0xaa, 0x4f, 0xec, 0xbe, 
 0x70, 0x62, 0x8b, 0xbe, 0x32, 0x59, 0x81, 0x3e, 0x3f, 0x30, 0x1d, 0x3e, 
 0x42, 0x53, 0x57, 0x3e, 0x26, 0x05, 0xe5, 0x3d, 0xd9, 0x34, 0xa1, 0xbe, 
 0x05, 0xe7, 0x98, 0xbe, 0xb6, 0xc9, 0xce, 0x3e, 0xfe, 0x61, 0xfd, 0x3e, 
 0xe4, 0xe2, 0xfc, 0x3e, 0x4a, 0x33, 0x9e, 0x3e, 0xca, 0x9c, 0x60, 0xbd, 
 0x58, 0x90, 0x89, 0xbe, 0x8a, 0x3c, 0x97, 0xbe, 0x61, 0x3c, 0x6d, 0xbc, 
 0x4e, 0xc6, 0x0e, 0xbe, 0xff, 0x79, 0xff, 0x3e, 0x4a, 0x08, 0xd7, 0xbd, 
 0x84, 0xdc, 0x45, 0xbe, 0x3c, 0xeb, 0xb2, 0x3d, 0xd6, 0xa4, 0x10, 0xbe, 
 0x0b, 0xce, 0xbf, 0xbe, 0x85, 0x04, 0x2b, 0xbe, 0x41, 0x59, 0x13, 0x3e, 
 0x98, 0xf0, 0xb6, 0x39, 0x05, 0x65, 0x0b, 0xbe, 0xfc, 0x29, 0xb4, 0x3e, 
 0x7d, 0x6f, 0x92, 0xbe, 0xbd, 0x69, 0x57, 0x3e, 0xb5, 0x3b, 0xd4, 0x3e, 
 0x8f, 0xe3, 0x07, 0x3e, 0xa2, 0x12, 0x3c, 0x38, 0x5c, 0x8e, 0x37, 0x3e, 
 0xe7, 0x00, 0x0a, 0x3f, 0x72, 0x6a, 0xe6, 0x3e, 0xa3, 0x77, 0xd0, 0xbe, 
 0x01, 0xb7, 0xb7, 0x3c, 0x15, 0x94, 0x39, 0xbd, 0x97, 0x04, 0x1a, 0x3f, 
 0x6d, 0x8d, 0x9f, 0xbe, 0xdc, 0xe8, 0x30, 0x3b, 0x0d, 0x8c, 0xb0, 0xbe, 
 0xe0, 0xea, 0x13, 0xbf, 0xa4, 0x8f, 0x18, 0xbf, 0x5e, 0xed, 0xdc, 0xbd, 
 0xd3, 0x61, 0x8c, 0xbe, 0x58, 0xf1, 0x95, 0xbe, 0xa0, 0x45, 0xdb, 0x3d, 
 0x4c, 0xa7, 0x3e, 0xbc, 0x5a, 0x06, 0x8e, 0xbd, 0xe1, 0x00, 0xc6, 0x3e, 
 0xc1, 0xd7, 0x06, 0xbf, 0x10, 0xbb, 0x4e, 0x3e, 0xc7, 0x36, 0x34, 0xbe, 
 0x29, 0x65, 0x9e, 0xbc, 0x26, 0x4a, 0xe1, 0x3e, 0xa6, 0x33, 0x07, 0x3f, 
 0x3a, 0x5e, 0xae, 0x39, 0x6f, 0x06, 0xf8, 0x3e, 0xca, 0x26, 0xa7, 0xbe, 
 0xa1, 0xa5, 0x81, 0xbd, 0x7b, 0x28, 0xbe, 0x3e, 0xb7, 0x69, 0xde, 0xbd, 
 0x0a, 0x5f, 0x0d, 0x3f, 0x97, 0x79, 0xe1, 0xbe, 0xb3, 0xd8, 0xec, 0x3c, 
 0xe3, 0x4b, 0x7c, 0x3e, 0xf4, 0xce, 0xe1, 0xbd, 0xcf, 0xcd, 0xac, 0xbe, 
 0x78, 0x3c, 0xe7, 0x3d, 0x12, 0x1f, 0x06, 0xbf, 0x5f, 0x66, 0x2f, 0xbe, 
 0x85, 0x81, 0xf3, 0x3e, 0x59, 0xdf, 0x0d, 0xbe, 0xb3, 0x5a, 0x05, 0xbf, 
 0xc4, 0xc0, 0xa7, 0x3e, 0x6b, 0x20, 0x94, 0xbe, 0x8b, 0x80, 0xc3, 0x3a, 
 0x26, 0xde, 0x44, 0x3e, 0x63, 0xb0, 0x1d, 0xbf, 0xac, 0x3d, 0xa4, 0xbe, 
 0x60, 0x21, 0xfd, 0x3e, 0x4b, 0x9b, 0xc9, 0xbe, 0x80, 0x6f, 0xeb, 0x3d, 
 0xbe, 0xee, 0x86, 0x3e, 0x76, 0x20, 0x35, 0xbe, 0xd8, 0x6e, 0xc3, 0xbd, 
 0xb2, 0xc0, 0xa3, 0x3e, 0x21, 0x0e, 0xe3, 0xbe, 0x07, 0x3a, 0x8c, 0x3d, 
 0xe9, 0xa4, 0xf2, 0x3e, 0xc4, 0x2e, 0x0f, 0xbf, 0xbf, 0xc6, 0x16, 0xbd, 
 0xb1, 0xf4, 0x06, 0x3f, 0xf1, 0xf6, 0xdf, 0xbe, 0xf3, 0x46, 0x8b, 0xbe, 
 0xc3, 0xa0, 0xde, 0x3e, 0xf5, 0x3e, 0x86, 0x3d, 0x30, 0xa0, 0xe9, 0x3e, 
 0xd9, 0x79, 0x0d, 0x3f, 0xdf, 0xde, 0x87, 0xbe, 0x0a, 0xd9, 0xb2, 0xbe, 
 0xf1, 0xf5, 0xdb, 0xbc, 0x34, 0xec, 0x25, 0xbf, 0x6a, 0xc9, 0xb4, 0x3e, 
 0xad, 0xf4, 0x91, 0x3e, 0x06, 0x73, 0x12, 0xbf, 0x00, 0xb8, 0x62, 0x3d, 
 0xb4, 0x2c, 0x0c, 0xbf, 0xba, 0x95, 0x00, 0x3f, 0xca, 0xcd, 0xaf, 0x3d, 
 0x79, 0x8a, 0x63, 0xbe, 0xea, 0xdf, 0xe3, 0xbe, 0x7a, 0xac, 0xc0, 0xbe, 
 0xbd, 0xe0, 0xbb, 0xbe, 0x12, 0x52, 0x0c, 0xbd, 0xb3, 0xe6, 0x4a, 0xbe, 
 0xf7, 0xab, 0x36, 0x3f, 0xca, 0x2d, 0x23, 0x3e, 0xab, 0xad, 0xc0, 0xbd, 
 0xa6, 0x67, 0xd9, 0x3e, 0x61, 0x20, 0x7f, 0x3e, 0x56, 0xea, 0x05, 0xbf, 
 0xa6, 0x3e, 0x30, 0xbe, 0x79, 0x4a, 0x71, 0xbe, 0x57, 0xe3, 0xed, 0xbe, 
 0x75, 0x40, 0x8a, 0x3e, 0x0c, 0x71, 0x88, 0xbd, 0x78, 0x81, 0x22, 0x3f, 
 0x78, 0x82, 0xc2, 0x3e, 0xa5, 0x18, 0xc0, 0xbe, 0xaf, 0xb6, 0x9c, 0xbc, 
 0x52, 0x13, 0x14, 0xbf, 0xd2, 0x63, 0x2d, 0x3f, 0x3c, 0x53, 0xaf, 0x3e, 
 0xd1, 0x91, 0x97, 0x3e, 0x31, 0x71, 0xea, 0x3c, 0xe2, 0x70, 0x95, 0x3e, 
 0x1b, 0xd2, 0xd7, 0x3c, 0xe8, 0x94, 0xd9, 0x3e, 0x12, 0x97, 0xfd, 0x3e, 
 0xbb, 0x84, 0x08, 0xbf, 0xc1, 0xaa, 0x02, 0xbf, 0x40, 0x37, 0xbe, 0xbe, 
 0xba, 0xe1, 0x67, 0xbe, 0xa5, 0x77, 0x1c, 0xbf, 0x6c, 0xf1, 0xe6, 0xbd, 
 0xbe, 0x55, 0xa1, 0xbe, 0xa1, 0x71, 0xe9, 0xbd, 0xa2, 0xaa, 0x23, 0x3f, 
 0xf0, 0x75, 0xb3, 0x3e, 0x33, 0x93, 0x01, 0xbf, 0xcb, 0x70, 0x1a, 0x3e, 
 0xc0, 0x32, 0x3b, 0x3d, 0xbc, 0xab, 0x1e, 0xbf, 0xdc, 0x95, 0x46, 0xbe, 
 0x45, 0x54, 0xc8, 0xbe, 0xae, 0x52, 0x27, 0xbf, 0xb7, 0xbe, 0x9a, 0x3c, 
 0x84, 0x27, 0x71, 0x3e, 0x74, 0xb7, 0x1a, 0x3e, 0x33, 0x2d, 0x01, 0x3f, 
 0x87, 0x27, 0xbf, 0x3e, 0x51, 0xf3, 0x1c, 0x3e, 0xea, 0x03, 0x81, 0xbe, 
 0x87, 0xd7, 0x41, 0x3e, 0xf8, 0xd2, 0x5a, 0xbe, 0x17, 0xd4, 0x52, 0xbe, 
 0xde, 0xa2, 0xfb, 0x3e, 0xe0, 0x94, 0xab, 0xbe, 0xa1, 0xb6, 0xcc, 0xbd, 
 0xb0, 0x9b, 0x21, 0xbf, 0xc4, 0x17, 0xd4, 0x3d, 0x76, 0xa5, 0x7e, 0x3d, 
 0x89, 0xf1, 0x33, 0x3e, 0x62, 0xe0, 0xeb, 0xbe, 0x5d, 0x58, 0xce, 0x3d, 
 0xf7, 0xb1, 0xb0, 0x3e, 0xed, 0x44, 0x07, 0xbe, 0x6c, 0x4e, 0x94, 0xbe, 
 0x1d, 0xf3, 0x44, 0x3e, 0x78, 0x20, 0x19, 0x3f, 0xc6, 0x70, 0xef, 0xbd, 
 0xf8, 0xe6, 0xcc, 0x3e, 0x7e, 0x44, 0xb6, 0x3e, 0x2f, 0xdf, 0xe5, 0x3e, 
 0x44, 0x7b, 0x22, 0x3e, 0xd2, 0x45, 0x38, 0xbf, 0xe5, 0xcb, 0x2e, 0x3e, 
 0x06, 0x20, 0x3c, 0xbe, 0x01, 0xa9, 0x52, 0x3d, 0x70, 0x3d, 0x16, 0xbf, 
 0xc4, 0x19, 0xc1, 0x3e, 0x3f, 0xc5, 0xf8, 0x3e, 0x70, 0x94, 0x5b, 0xbf, 
 0x6c, 0xb0, 0xcf, 0x3d, 0x68, 0xa5, 0x95, 0xbc, 0xfa, 0xfc, 0x1a, 0xbe, 
 0x8c, 0x50, 0x2d, 0x3f, 0x4d, 0x0f, 0x22, 0x3f, 0xf3, 0x9c, 0xf4, 0xbd, 
 0xd6, 0xba, 0xe8, 0x3e, 0x14, 0xf5, 0x46, 0xbc, 0x31, 0x71, 0x2d, 0x3f, 
 0x3c, 0xa3, 0x33, 0xbf, 0x6b, 0xa1, 0xf0, 0x3e, 0x94, 0xbb, 0x12, 0xbf, 
 0x9a, 0xf9, 0x63, 0xbf, 0x76, 0xe0, 0x14, 0x3f, 0xae, 0x6f, 0xb6, 0xbe, 
 0xfd, 0x37, 0xda, 0x3e, 0xc8, 0x72, 0x02, 0xbf, 0xa4, 0x11, 0x3c, 0xbf, 
 0x3d, 0xd2, 0x87, 0xbe, 0x6b, 0x00, 0x3a, 0xbf, 0x14, 0xaa, 0x28, 0xbf, 
 0x62, 0xdb, 0xfe, 0x3e, 0xf8, 0x30, 0x12, 0xbe, 0xbc, 0x3e, 0x03, 0x3e, 
 0xea, 0x3c, 0x7a, 0x3c, 0x7f, 0xab, 0xcd, 0x3d, 0x07, 0x4d, 0x1f, 0x3f, 
 0xb7, 0xce, 0x31, 0x3f, 0x77, 0x62, 0xd5, 0x3e, 0x5b, 0x7e, 0x97, 0x3e, 
 0x2f, 0xfa, 0x1f, 0x3f, 0xb0, 0xb7, 0x2d, 0xbe, 0x80, 0x53, 0xd0, 0xbd, 
 0x4f, 0x96, 0x57, 0x3d, 0x7c, 0x2a, 0x27, 0x3f, 0x32, 0x22, 0xeb, 0xbb, 
 0x7c, 0x7f, 0xd8, 0xbd, 0x84, 0x04, 0x1f, 0xbf, 0x61, 0x2d, 0x0c, 0x3f, 
 0xab, 0x04, 0x26, 0xbf, 0x69, 0xb6, 0xeb, 0x3e, 0x31, 0x7f, 0x15, 0xbf, 
 0x49, 0xe1, 0x37, 0x3f, 0xb4, 0xb1, 0x29, 0xbf, 0x1d, 0x31, 0x96, 0x3e, 
 0x39, 0x5e, 0xfe, 0x3e, 0xd0, 0xcd, 0xf1, 0xbe, 0x33, 0xb7, 0x7e, 0xbe, 
 0xd0, 0x66, 0x6e, 0xbe, 0xb9, 0x91, 0xbe, 0x3e, 0xa7, 0xf9, 0x8c, 0x3d, 
 0x6d, 0xa6, 0x97, 0x3e, 0xa5, 0xa7, 0x13, 0xbf, 0xdc, 0xdd, 0xa2, 0xbe, 
 0x03, 0xa7, 0xc5, 0x3d, 0x83, 0xd2, 0xa4, 0xbc, 0xf5, 0x47, 0xef, 0xbe, 
 0x9c, 0x4a, 0xdf, 0x3e, 0x4f, 0x15, 0x33, 0xbf, 0x95, 0xd0, 0x0f, 0xbf, 
 0x12, 0xd2, 0x3f, 0x3d, 0xf7, 0x13, 0x77, 0xbe, 0x4a, 0xed, 0xdd, 0x3c, 
 0x14, 0xa7, 0xa0, 0xbe, 0x48, 0x63, 0xa6, 0x3e, 0x93, 0x2c, 0x55, 0xbf, 
 0xc7, 0x4b, 0xfe, 0xbe, 0x43, 0xda, 0x5e, 0x3e, 0x75, 0x1b, 0x3c, 0x3f, 
 0x51, 0x59, 0x60, 0x3e, 0x4c, 0x77, 0xda, 0x3e, 0x5b, 0xbc, 0xd6, 0x3e, 
 0x68, 0x0c, 0x3e, 0xbf, 0x9b, 0x87, 0x0d, 0x3f, 0x11, 0xbd, 0x39, 0xbe, 
 0x43, 0x82, 0x49, 0x3d, 0xd1, 0x1b, 0x25, 0xbe, 0x32, 0x28, 0x97, 0x3d, 
 0xf3, 0x15, 0x95, 0x3d, 0x78, 0x4e, 0x18, 0xbe, 0x4e, 0x71, 0xe4, 0xbd, 
 0x63, 0x3e, 0x47, 0xbe, 0x89, 0x6e, 0x27, 0xbc, 0x11, 0x6e, 0x56, 0x3c, 
 0x11, 0xad, 0x8d, 0x3d, 0x20, 0x98, 0x09, 0xbe, 0xa5, 0x03, 0xbe, 0xbd, 
 0x41, 0x1e, 0xe5, 0x3d, 0xf9, 0xa6, 0xa2, 0x3c, 0xbc, 0x85, 0xf8, 0xbc, 
 0x5d, 0x3b, 0xc2, 0xbc, 0x5e, 0x0b, 0x97, 0x3d, 0xc5, 0x21, 0x52, 0xbc, 
 0xcf, 0xf6, 0x51, 0x3d, 0xab, 0x37, 0xba, 0xbd, 0xcd, 0x08, 0x75, 0x3c, 
 0x79, 0x53, 0x74, 0xbd, 0xeb, 0x40, 0xdc, 0xbd, 0x8e, 0x59, 0xd7, 0x3d, 
 0xba, 0x96, 0x46, 0xbd, 0xa0, 0xec, 0x2a, 0xbe, 0x68, 0xc6, 0x1d, 0xbe, 
 0xb9, 0xda, 0xfa, 0x3c, 0xcc, 0x83, 0x97, 0x3d, 0x8d, 0xb5, 0xa4, 0x3c, 
 0x3a, 0xb1, 0xf1, 0xbd, 0x92, 0xed, 0xba, 0x3d, 0x00, 0xfd, 0xc5, 0xb9, 
 0x34, 0x46, 0x64, 0xbd, 0x59, 0x05, 0x5d, 0x3d, 0x99, 0xc0, 0x10, 0x3e, 
 0x60, 0x67, 0x0a, 0x3e, 0xfc, 0x05, 0xb9, 0x3d, 0x0b, 0x8e, 0xda, 0xbd, 
 0x0c, 0x23, 0x83, 0xbc, 0x2b, 0x33, 0x0a, 0xbd, 0x2a, 0x5a, 0x27, 0xbe, 
 0xcc, 0x9c, 0x75, 0xbc, 0xc6, 0x55, 0xab, 0xbc, 0xe3, 0xc4, 0xd3, 0x3d, 
 0x30, 0x58, 0xb7, 0xbd, 0x24, 0x0a, 0xf2, 0xbd, 0x1a, 0x67, 0xa7, 0xbd, 
 0x4f, 0x2b, 0x07, 0xbd, 0x1f, 0x7b, 0x3f, 0x3c, 0x58, 0xb7, 0xf1, 0x3c, 
 0x6d, 0x82, 0xae, 0xbd, 0x65, 0xa6, 0x11, 0xbe, 0x01, 0xac, 0x7e, 0x3d, 
 0x85, 0x1f, 0x3c, 0xbd, 0xbe, 0xbd, 0xea, 0xbd, 0x58, 0x4a, 0xf0, 0x3d, 
 0x1d, 0xee, 0x2a, 0xbe, 0xb9, 0xaf, 0x45, 0xbd, 0x59, 0x76, 0xc6, 0xbd, 
 0x43, 0x4d, 0xaf, 0x3d, 0xa2, 0x94, 0xab, 0xbd, 0x6c, 0x00, 0x8e, 0x3c, 
 0xd7, 0x8d, 0xaf, 0x3c, 0xd5, 0x2e, 0xf5, 0xbc, 0xac, 0x57, 0x05, 0xbe, 
 0xaf, 0xe4, 0xc6, 0x3c, 0x48, 0xf0, 0x80, 0x3c, 0x74, 0xa9, 0xec, 0x3d, 
 0xf2, 0xb6, 0x39, 0xbc, 0xa3, 0x0d, 0x32, 0xbe, 0xe5, 0xd0, 0x14, 0x3b, 
 0x37, 0x0d, 0x91, 0xbd, 0x2d, 0xfc, 0x34, 0x3d, 0xd0, 0x14, 0x86, 0xbd, 
 0xec, 0xe8, 0xa8, 0xbd, 0x60, 0x24, 0x11, 0x3d, 0xd6, 0x36, 0x49, 0x3d, 
 0x0a, 0x7e, 0x32, 0x3d, 0x7f, 0xca, 0xe8, 0x3d, 0x5c, 0xa4, 0x6f, 0xbe, 
 0x81, 0x1a, 0x1a, 0x3e, 0xe3, 0xda, 0x88, 0xbd, 0x9a, 0x9d, 0xb9, 0xbd, 
 0x14, 0xa9, 0x60, 0xbe, 0xa4, 0xd0, 0x85, 0xbc, 0x0e, 0x1b, 0x4b, 0x3d, 
 0xcd, 0x28, 0x7e, 0xbe, 0xd4, 0x38, 0x81, 0xbd, 0x81, 0x98, 0x38, 0x3d, 
 0x62, 0x37, 0x6a, 0x3d, 0x4e, 0xd9, 0xa2, 0x3d, 0x66, 0x2b, 0xba, 0x3d, 
 0x70, 0xba, 0x2b, 0xbe, 0x79, 0xd6, 0x1e, 0xbe, 0x59, 0xa5, 0x4c, 0xbe, 
 0xc4, 0x79, 0x60, 0x3d, 0xcc, 0xf1, 0xa0, 0xbd, 0x07, 0x2a, 0x54, 0xbc, 
 0xf1, 0x3a, 0x45, 0x3e, 0xb5, 0x62, 0x3c, 0xbe, 0x65, 0x82, 0xf6, 0x3d, 
 0x98, 0xeb, 0x8a, 0x3d, 0xf3, 0x53, 0x2d, 0x3d, 0x24, 0x8a, 0x67, 0xbd, 
 0xd7, 0xff, 0xfc, 0xbd, 0x77, 0x4c, 0x83, 0x3d, 0xae, 0x6b, 0xa5, 0x3c, 
 0x07, 0x8a, 0x7e, 0x3c, 0x42, 0x85, 0x93, 0xbd, 0x5f, 0xcd, 0x3b, 0xbe, 
 0xe4, 0xba, 0xe3, 0xbd, 0xc4, 0x5f, 0x9e, 0x3d, 0x45, 0x72, 0x36, 0x3d, 
 0xe1, 0x21, 0x21, 0x3e, 0xcd, 0x89, 0x28, 0x3b, 0x9b, 0xa1, 0x0b, 0xbe, 
 0xad, 0xed, 0x3b, 0xbe, 0x21, 0x13, 0x0d, 0x3e, 0x80, 0x1a, 0x3d, 0x3e, 
 0x13, 0xba, 0x59, 0xbe, 0x26, 0x65, 0x0d, 0xbe, 0x14, 0x30, 0xdf, 0xbc, 
 0x00, 0xd2, 0x27, 0x3e, 0xf5, 0x54, 0xc9, 0x3b, 0x28, 0x1a, 0x61, 0x3e, 
 0x3e, 0xc3, 0x59, 0xbe, 0x18, 0xbf, 0xaa, 0xbd, 0x1b, 0x6e, 0x70, 0xbe, 
 0x93, 0x53, 0x32, 0x3e, 0x47, 0xd6, 0x07, 0xbe, 0x93, 0x89, 0x09, 0xbe, 
 0x6c, 0x3b, 0x4c, 0xbe, 0x34, 0xd4, 0x49, 0xbe, 0x74, 0x9d, 0x8b, 0xbc, 
 0x35, 0xc1, 0x04, 0x3d, 0xb1, 0xe1, 0x67, 0xbd, 0x31, 0x20, 0xe2, 0x3d, 
 0xa2, 0xb8, 0x96, 0x3d, 0x89, 0xc5, 0x67, 0x3d, 0xd6, 0x9a, 0x3c, 0x3a, 
 0x53, 0xae, 0xaf, 0x3c, 0x04, 0xd9, 0x17, 0x3e, 0x34, 0x1d, 0xee, 0xbd, 
 0x25, 0xdb, 0x89, 0x3d, 0x01, 0x88, 0xd6, 0x3d, 0xd1, 0xbf, 0xe7, 0x3d, 
 0x11, 0xa6, 0x02, 0x3d, 0x99, 0x5a, 0x02, 0x3e, 0xf8, 0x73, 0x0a, 0xbd, 
 0x68, 0xf2, 0x2d, 0x3e, 0x88, 0x16, 0xea, 0xbd, 0x7c, 0x81, 0x35, 0xbe, 
 0x48, 0xef, 0xbf, 0x3d, 0x9a, 0x94, 0x8e, 0x3c, 0xee, 0xeb, 0xc0, 0xbd, 
 0xbd, 0x14, 0x47, 0x3d, 0x08, 0xda, 0x16, 0x3e, 0x94, 0x0a, 0x43, 0xbe, 
 0x84, 0xba, 0x09, 0x3d, 0xdb, 0x78, 0xb8, 0x3d, 0x82, 0x11, 0x96, 0x3e, 
 0x93, 0x95, 0x9a, 0x3e, 0xb4, 0x0e, 0x32, 0xbd, 0x11, 0xd1, 0x5e, 0xbe, 
 0x00, 0xa5, 0x0a, 0xbe, 0xf0, 0xfb, 0x84, 0xbe, 0xab, 0x37, 0x57, 0xbe, 
 0xfe, 0xc5, 0x73, 0x3c, 0x71, 0x46, 0x40, 0x3e, 0x68, 0x7f, 0x40, 0x3e, 
 0xf1, 0x70, 0x74, 0xbe, 0x99, 0x99, 0x19, 0x3d, 0xe3, 0xe8, 0x29, 0xbe, 
 0x50, 0x40, 0x87, 0xbd, 0xaa, 0x0a, 0x1c, 0xbe, 0x79, 0x96, 0x0d, 0xbe, 
 0x53, 0xd3, 0x34, 0xbe, 0x36, 0x41, 0x8b, 0xbc, 0x0f, 0x92, 0x79, 0x3e, 
 0xfe, 0x10, 0xd0, 0xbc, 0x57, 0x84, 0x38, 0xbe, 0x8c, 0x7d, 0x82, 0xbe, 
 0xbe, 0x33, 0x41, 0x3d, 0xb1, 0x8f, 0x3d, 0xbd, 0x06, 0xac, 0x90, 0xbe, 
 0xdf, 0xf4, 0x84, 0xbd, 0xae, 0x17, 0x26, 0x3d, 0xb5, 0xd1, 0x6b, 0x3e, 
 0x41, 0xd1, 0x33, 0x3e, 0xb9, 0x69, 0x5a, 0x3e, 0x2b, 0x9b, 0xc9, 0xbd, 
 0x24, 0xe3, 0x1a, 0x3e, 0xb4, 0x1c, 0x48, 0xbe, 0x2a, 0x2f, 0x6a, 0x3d, 
 0xbd, 0xe7, 0x57, 0x3e, 0x4c, 0xc7, 0x2c, 0x3e, 0x76, 0xf3, 0xd7, 0xbd, 
 0x52, 0x48, 0x9d, 0xbe, 0x75, 0xbe, 0xc8, 0xbd, 0x31, 0x62, 0x86, 0x3e, 
 0xa8, 0xb2, 0x62, 0xbd, 0xc7, 0x47, 0x56, 0x3e, 0xd3, 0xdb, 0xcb, 0xbd, 
 0x83, 0xe9, 0x8a, 0xbd, 0x38, 0x77, 0x6d, 0x3d, 0xff, 0x8e, 0x9d, 0xbc, 
 0x50, 0x88, 0x48, 0xbe, 0x39, 0xef, 0x30, 0xbd, 0x70, 0xb9, 0x50, 0xbd, 
 0xb6, 0xf6, 0x0a, 0x3e, 0x71, 0x15, 0x5c, 0xbe, 0x98, 0x51, 0x22, 0xbe, 
 0xb2, 0x6f, 0xa9, 0x3d, 0x02, 0x9b, 0xe7, 0x3d, 0x00, 0xab, 0x42, 0x3b, 
 0xff, 0xe6, 0x44, 0x3d, 0x03, 0xb8, 0xd2, 0xbd, 0xb4, 0xd6, 0x1c, 0x3c, 
 0x0a, 0x74, 0x78, 0x3d, 0x07, 0xbd, 0x82, 0xbb, 0x8d, 0x47, 0x80, 0xbe, 
 0x1c, 0x10, 0x1a, 0x3e, 0xf4, 0xbb, 0x5c, 0xbe, 0x9f, 0x06, 0x52, 0x3e, 
 0xc7, 0xf7, 0x58, 0x3e, 0x98, 0x39, 0x33, 0x3d, 0x07, 0x3d, 0x93, 0x3d, 
 0xac, 0x90, 0x38, 0x3e, 0x29, 0x22, 0x75, 0x3e, 0x9f, 0x1b, 0x03, 0x3e, 
 0xbb, 0x93, 0x8f, 0x3e, 0x46, 0xdd, 0xff, 0xbd, 0x37, 0x2e, 0xc6, 0x3d, 
 0x8e, 0x53, 0x0f, 0x3e, 0x0c, 0x7d, 0xc3, 0x3c, 0x9d, 0x2f, 0x72, 0xbe, 
 0x8a, 0x3d, 0xab, 0x3d, 0x9c, 0xcb, 0x2b, 0xbe, 0xf8, 0x68, 0xbc, 0xbd, 
 0xda, 0x58, 0x91, 0x3e, 0xc1, 0x44, 0x8f, 0x3e, 0x59, 0x8d, 0x23, 0x3e, 
 0x2f, 0xe0, 0x87, 0x3e, 0x69, 0x35, 0x8b, 0xbc, 0x1a, 0x65, 0x14, 0x3d, 
 0xde, 0x4a, 0xcc, 0xbe, 0xb9, 0x47, 0x7d, 0x3e, 0xb0, 0x64, 0x12, 0x3e, 
 0x30, 0x58, 0x6b, 0x3e, 0x0f, 0xa0, 0x26, 0xbe, 0xa8, 0xdb, 0x92, 0xbe, 
 0xa0, 0x74, 0xae, 0xbe, 0x18, 0xce, 0xdb, 0xbe, 0xfb, 0x59, 0x81, 0xbe, 
 0x05, 0xc0, 0xaf, 0xbe, 0x5d, 0xcd, 0x9e, 0xbe, 0x9b, 0x05, 0xdb, 0xbe, 
 0x1c, 0x9e, 0x97, 0x3d, 0x5a, 0x64, 0x7d, 0xbb, 0xa5, 0x40, 0xb1, 0xbe, 
 0x91, 0xef, 0xc4, 0x3e, 0xb3, 0xf1, 0x89, 0xbe, 0x73, 0x71, 0x9e, 0x3e, 
 0x66, 0x91, 0x9b, 0xbe, 0x1c, 0x6d, 0xc2, 0xbe, 0x77, 0xe4, 0x01, 0xbe, 
 0x6e, 0x4f, 0xcf, 0x3e, 0x2b, 0xa3, 0xad, 0xbe, 0x51, 0x0e, 0x50, 0xbd, 
 0x7a, 0xc7, 0x94, 0x3e, 0xbf, 0x6f, 0xea, 0x3d, 0xeb, 0x64, 0x70, 0xbe, 
 0x4d, 0xee, 0x1a, 0x3e, 0xcb, 0x1d, 0x7f, 0xbe, 0x6b, 0x71, 0x1c, 0x3c, 
 0x18, 0xf8, 0x98, 0xbd, 0xe0, 0x35, 0x45, 0x3c, 0xb0, 0x8c, 0xac, 0xbe, 
 0x7f, 0x35, 0xcb, 0xbe, 0xad, 0x7d, 0xd9, 0x3d, 0x83, 0x18, 0xe2, 0xbe, 
 0x41, 0x65, 0x5b, 0x3e, 0x9f, 0x2e, 0x9d, 0x3e, 0x25, 0x73, 0x9d, 0xbe, 
 0x00, 0x3f, 0xb1, 0x3e, 0xd4, 0x12, 0x1f, 0xbe, 0x84, 0x35, 0xd8, 0x3e, 
 0x50, 0x52, 0xa0, 0xbe, 0x75, 0xea, 0xf3, 0x3d, 0x01, 0x9c, 0xf8, 0x3e, 
 0xc9, 0x7f, 0x2b, 0x3c, 0x61, 0xac, 0xe8, 0xbc, 0xff, 0x5b, 0xa9, 0x3d, 
 0x40, 0xa7, 0x1a, 0x3e, 0x12, 0x34, 0x9b, 0x3d, 0xb1, 0x17, 0xa5, 0xbe, 
 0x62, 0x54, 0x14, 0x3d, 0xd8, 0x6e, 0x77, 0xbe, 0x3b, 0x26, 0xa5, 0x3e, 
 0x9d, 0xff, 0x07, 0x3e, 0x70, 0x20, 0x84, 0xbe, 0xb8, 0x5a, 0x24, 0x3e, 
 0xd4, 0x32, 0x9e, 0xbe, 0x00, 0x6b, 0xa5, 0x3e, 0x5a, 0x89, 0xab, 0x3e, 
 0x4c, 0x65, 0x72, 0xbe, 0xe8, 0xf5, 0xbd, 0x3e, 0x9a, 0x35, 0x6a, 0x3e, 
 0xf6, 0x78, 0x75, 0xbe, 0xd1, 0x5a, 0x13, 0x3e, 0xe4, 0x72, 0xe6, 0xbd, 
 0x8b, 0x5d, 0xb3, 0x3d, 0x94, 0xe5, 0xab, 0x3e, 0x0d, 0xb4, 0x5f, 0x3e, 
 0x1a, 0x76, 0x6e, 0xbe, 0x46, 0x3c, 0xbd, 0x3e, 0x09, 0x9f, 0x3a, 0x3e, 
 0xa4, 0xf6, 0x9e, 0xbe, 0x8c, 0x57, 0x9a, 0x3e, 0x09, 0xdb, 0x73, 0x3e, 
 0x08, 0x62, 0x91, 0x3e, 0xa0, 0x9c, 0xc7, 0xbe, 0x2c, 0xba, 0x01, 0x3f, 
 0x4d, 0xec, 0xbd, 0x3d, 0x4a, 0x40, 0x86, 0x3c, 0xe8, 0x1e, 0x5f, 0x3d, 
 0x78, 0x82, 0xc7, 0x3e, 0x23, 0x6f, 0xb8, 0xbe, 0x1a, 0x8d, 0xb3, 0xbe, 
 0xf9, 0x22, 0x2b, 0xbe, 0x80, 0xdb, 0xe1, 0x3e, 0x4e, 0x6d, 0x73, 0xbe, 
 0x10, 0x43, 0xd5, 0xbe, 0xf2, 0x75, 0x96, 0x3e, 0x41, 0xd3, 0x56, 0xbe, 
 0x78, 0x3b, 0xc4, 0xbe, 0xf5, 0x64, 0x34, 0xbe, 0xd8, 0xad, 0x5f, 0xbe, 
 0x32, 0xd2, 0x54, 0x3e, 0x5e, 0x82, 0x80, 0xbe, 0x61, 0xd0, 0xaa, 0x3e, 
 0xac, 0xd5, 0x1a, 0xbe, 0x01, 0xb7, 0x87, 0x3e, 0xef, 0x1c, 0x26, 0xbe, 
 0xc1, 0xde, 0xaf, 0xbe, 0x93, 0x4d, 0x4e, 0x3e, 0x52, 0xf8, 0x8b, 0xbe, 
 0x7a, 0xe6, 0xb7, 0xbe, 0x57, 0x7a, 0x9d, 0xbe, 0xdb, 0xdb, 0x9e, 0x3e, 
 0xfc, 0x5a, 0xf8, 0xbe, 0x1c, 0x9c, 0xbc, 0xbe, 0x76, 0x57, 0x67, 0x3e, 
 0x42, 0x2e, 0x95, 0xbe, 0x04, 0x0a, 0xfd, 0xbd, 0x19, 0x82, 0xe3, 0xbd, 
 0x0f, 0x22, 0x2d, 0x3d, 0xda, 0x6d, 0xf9, 0x3d, 0x46, 0xd1, 0x18, 0x3e, 
 0x56, 0x69, 0xc5, 0x3e, 0x4a, 0x0e, 0x96, 0xbd, 0x8f, 0xf9, 0xb9, 0x3e, 
 0x8b, 0x0e, 0x53, 0xbe, 0x67, 0xe1, 0x0a, 0x3e, 0xc0, 0x5b, 0x1e, 0x3d, 
 0x72, 0x24, 0x6e, 0xbe, 0xc9, 0x48, 0x9d, 0xbd, 0x53, 0x43, 0x7a, 0xbe, 
 0xa5, 0x81, 0xe7, 0x3d, 0x68, 0x12, 0x7a, 0x3b, 0x30, 0x88, 0xf2, 0x3e, 
 0x74, 0xa7, 0xb6, 0x3e, 0x08, 0xee, 0x6a, 0xbe, 0x0c, 0x78, 0x69, 0xbd, 
 0x91, 0xba, 0x4d, 0xbd, 0xfd, 0x5b, 0x25, 0xbe, 0x57, 0x13, 0xa2, 0xbd, 
 0x91, 0x8f, 0xd9, 0x3d, 0x63, 0xee, 0x45, 0xbe, 0x7a, 0x32, 0x3a, 0xbd, 
 0xf3, 0x13, 0xdf, 0x3d, 0xb6, 0x79, 0xcc, 0x3e, 0xf8, 0x41, 0xe5, 0x3d, 
 0xa5, 0x34, 0x55, 0x3e, 0x93, 0xc5, 0x85, 0xbe, 0xfc, 0x1a, 0xd9, 0xbb, 
 0x2e, 0xfc, 0x72, 0xbe, 0xc3, 0xb5, 0x64, 0x3d, 0x0d, 0x68, 0x37, 0x3e, 
 0x11, 0x6f, 0xc7, 0xbe, 0x40, 0x35, 0x84, 0x3e, 0x8e, 0xc4, 0x1e, 0xbe, 
 0x5a, 0x54, 0x56, 0xbe, 0x96, 0x89, 0x42, 0x3e, 0x03, 0x51, 0xc7, 0xbe, 
 0x6f, 0x62, 0x12, 0x3e, 0xf5, 0x0c, 0x9e, 0xbe, 0xa1, 0xc3, 0x33, 0xbd, 
 0x99, 0xa3, 0x98, 0x3e, 0xb8, 0xac, 0xe3, 0xbd, 0x86, 0xde, 0x23, 0xbd, 
 0x52, 0x75, 0x59, 0xbe, 0x2a, 0x83, 0x8f, 0x3e, 0xa1, 0xc9, 0x07, 0xbe, 
 0x43, 0x12, 0x85, 0xbe, 0x62, 0x8b, 0x1f, 0xbe, 0x9d, 0xc8, 0x6b, 0xbe, 
 0x30, 0xc2, 0xab, 0x3d, 0x77, 0x08, 0x89, 0xbe, 0x2e, 0xb2, 0x3b, 0x3d, 
 0xab, 0x95, 0xf2, 0xbd, 0xa3, 0x73, 0x21, 0xbe, 0xda, 0xcc, 0xe9, 0xbb, 
 0x0b, 0x21, 0x92, 0xbe, 0xb2, 0x35, 0x7b, 0x3e, 0x84, 0xc8, 0x66, 0xbe, 
 0xaa, 0x58, 0xb4, 0xbd, 0x28, 0x25, 0xdc, 0x3d, 0x4c, 0xd1, 0x23, 0x3e, 
 0x21, 0x68, 0x82, 0xbd, 0xc0, 0x55, 0x9c, 0xbd, 0xdc, 0x49, 0x02, 0x3e, 
 0xab, 0x37, 0x4f, 0xbe, 0x96, 0x38, 0x01, 0x3e, 0xcb, 0x64, 0x66, 0x3d, 
 0x08, 0xdc, 0x39, 0xbe, 0xa3, 0xb0, 0x95, 0xbd, 0x7e, 0x91, 0x3e, 0x3e, 
 0xe9, 0x0d, 0x3e, 0xbe, 0xab, 0x71, 0xd6, 0x3d, 0x8b, 0xdc, 0x21, 0x3e, 
 0x05, 0x79, 0x31, 0xbe, 0x24, 0xa4, 0x55, 0x3e, 0xe7, 0xcf, 0x49, 0xbe, 
 0x85, 0x4b, 0x2b, 0x3e, 0xc4, 0x29, 0x81, 0x3e, 0x26, 0x64, 0x84, 0x3d, 
 0x1c, 0xf7, 0xb1, 0xbd, 0x13, 0x2a, 0x14, 0xbe, 0x77, 0x9a, 0x72, 0xbd, 
 0x86, 0xf2, 0x8d, 0xbc, 0x8d, 0x37, 0x0b, 0x3e, 0xe5, 0x83, 0x85, 0x3e, 
 0x83, 0xbd, 0x8d, 0x3e, 0x4f, 0x6e, 0x2e, 0x3e, 0x2d, 0xa6, 0xe6, 0xbd, 
 0xc2, 0xf4, 0x46, 0x3e, 0xc3, 0x9e, 0x9b, 0xbc, 0x10, 0x5d, 0x86, 0xbe, 
 0x0b, 0x4d, 0x77, 0x3e, 0xd2, 0x01, 0x07, 0x3e, 0x83, 0xd3, 0x28, 0x3e, 
 0xdb, 0x9c, 0xb2, 0xbd, 0x64, 0xab, 0x49, 0xbd, 0x61, 0x35, 0x58, 0xbd, 
 0xeb, 0x32, 0xaa, 0x3d, 0x67, 0x7e, 0xae, 0xbe, 0xaf, 0xb3, 0x47, 0x3e, 
 0x88, 0x84, 0x89, 0xbe, 0xa7, 0x34, 0xef, 0xbd, 0x6a, 0x56, 0x3f, 0xbe, 
 0x6e, 0x84, 0x46, 0xbd, 0x6a, 0xa8, 0xd4, 0x3c, 0x94, 0xbe, 0x55, 0xbe, 
 0x7f, 0x40, 0x1d, 0xbe, 0x4f, 0x98, 0x3c, 0x3e, 0xfa, 0x4a, 0x30, 0x3e, 
 0x63, 0x61, 0x5a, 0x3d, 0xdc, 0x1b, 0x69, 0xbe, 0x7b, 0x1b, 0xb9, 0xbd, 
 0x66, 0xa7, 0x88, 0x3e, 0x00, 0xe3, 0x7f, 0x3d, 0x84, 0xb0, 0xb3, 0xbc, 
 0x39, 0xff, 0xf8, 0x3d, 0xf4, 0x09, 0xb1, 0xbd, 0x56, 0xf2, 0x90, 0xbe, 
 0x13, 0x77, 0x6f, 0xbe, 0xc9, 0x61, 0x09, 0x3e, 0x16, 0x57, 0x42, 0x3d, 
 0x87, 0x16, 0xa9, 0xbe, 0x5f, 0x60, 0xd7, 0x3e, 0x28, 0xfe, 0x6c, 0xbe, 
 0x53, 0xf4, 0xc6, 0xbc, 0x18, 0x8a, 0xaf, 0x3e, 0x26, 0x02, 0xbc, 0xbe, 
 0xe8, 0x71, 0xb9, 0x3c, 0xa3, 0x46, 0xfb, 0x3d, 0x37, 0x9d, 0x1d, 0xbd, 
 0x54, 0x50, 0xcf, 0xbe, 0xab, 0xa7, 0xf6, 0x3d, 0x19, 0xea, 0x7e, 0xbe, 
 0xc3, 0x9d, 0xd9, 0xbd, 0x8f, 0xa6, 0xd5, 0xbd, 0xd7, 0x1e, 0x37, 0xbe, 
 0x80, 0x21, 0xa0, 0x3c, 0x9d, 0xcc, 0xd5, 0x3d, 0xf7, 0x18, 0xb7, 0x3e, 
 0x0f, 0x55, 0xbe, 0xbe, 0xfc, 0xc8, 0xae, 0x3e, 0x5d, 0x48, 0x99, 0xbe, 
 0xa7, 0x42, 0x64, 0x3a, 0xe3, 0xf8, 0xa8, 0xbe, 0x1d, 0xa5, 0xc9, 0xbb, 
 0xcd, 0x0c, 0x8d, 0x3e, 0xaf, 0x44, 0xb2, 0xbe, 0xab, 0x8d, 0xa8, 0x3d, 
 0xcb, 0xb5, 0xea, 0x3e, 0xe2, 0xd9, 0x50, 0x3e, 0xbc, 0xab, 0x6b, 0xbe, 
 0x94, 0x00, 0xcf, 0xbd, 0x11, 0x4f, 0xb2, 0x3e, 0x91, 0x88, 0xd2, 0xbd, 
 0x87, 0x57, 0x8e, 0x3e, 0x3d, 0x08, 0xaf, 0xbe, 0xf4, 0x09, 0x2d, 0x3e, 
 0xbf, 0xeb, 0x5e, 0x3d, 0xbe, 0x8d, 0x80, 0xbe, 0x5c, 0xbf, 0xae, 0xbd, 
 0x2e, 0x80, 0x27, 0xbe, 0x66, 0x62, 0xac, 0x3e, 0x83, 0x85, 0x48, 0xbd, 
 0x5f, 0x38, 0xa5, 0xbe, 0xbf, 0xbf, 0x5f, 0x3d, 0x9a, 0xb9, 0x7c, 0xbe, 
 0xf8, 0xbd, 0x30, 0xbe, 0xdb, 0xd5, 0x1a, 0x3e, 0xd8, 0x4c, 0x15, 0x3c, 
 0x9e, 0xad, 0xa1, 0xbe, 0xc4, 0x9d, 0xc7, 0x3d, 0x1c, 0x04, 0xc7, 0x3e, 
 0xa9, 0x1c, 0x3d, 0x3e, 0x6f, 0xb9, 0x72, 0xbd, 0x45, 0xfa, 0xd8, 0xbc, 
 0x7d, 0x57, 0xf0, 0xbc, 0x37, 0xdf, 0x6c, 0x3e, 0x8a, 0x32, 0xa9, 0xbe, 
 0x35, 0xee, 0xb2, 0x3e, 0xfb, 0xee, 0x3d, 0xbe, 0x82, 0xbe, 0x5f, 0xbe, 
 0x6a, 0x87, 0x89, 0xbe, 0xfc, 0x57, 0x76, 0xbe, 0xf3, 0xd7, 0x81, 0xbd, 
 0x49, 0x9a, 0x0f, 0x3a, 0xd3, 0x3f, 0x86, 0x3d, 0xcd, 0x88, 0xd6, 0x3d, 
 0x46, 0xa7, 0xcd, 0x3d, 0x38, 0x63, 0x3b, 0xbd, 0x3f, 0x75, 0x97, 0xbe, 
 0x5c, 0x86, 0x9c, 0x3d, 0xa0, 0x37, 0x5d, 0x3e, 0x71, 0x0b, 0x00, 0x3e, 
 0xf4, 0x4e, 0x70, 0x3e, 0x92, 0x60, 0x23, 0xbe, 0xf9, 0x20, 0x34, 0x3e, 
 0x2d, 0x80, 0x69, 0xbe, 0xed, 0xd4, 0xda, 0x3d, 0xbb, 0xad, 0x5b, 0x3e, 
 0xbf, 0x64, 0x95, 0x3c, 0x25, 0x19, 0xb6, 0xbe, 0xb3, 0xa0, 0x43, 0xbe, 
 0x01, 0x8f, 0x4a, 0x3e, 0x77, 0xf8, 0x22, 0x3e, 0xf9, 0xfc, 0xa7, 0xbe, 
 0x5c, 0x77, 0xbf, 0xbd, 0xa2, 0x49, 0x0f, 0x3d, 0x18, 0x74, 0xb5, 0x3e, 
 0x74, 0x47, 0xcb, 0xbe, 0x8a, 0xf9, 0xd1, 0xbe, 0xc2, 0xb4, 0x32, 0xbe, 
 0xd8, 0xdd, 0x6f, 0x3c, 0xd5, 0x53, 0xc9, 0xbe, 0x05, 0x0f, 0x98, 0x3e, 
 0xc3, 0xf8, 0xdf, 0x3e, 0x09, 0x5d, 0xb1, 0x3e, 0xfa, 0x99, 0x8d, 0xbd, 
 0x9b, 0x07, 0x0f, 0xbe, 0xc2, 0xad, 0xa8, 0xbe, 0xad, 0x54, 0xe5, 0x3d, 
 0x55, 0x27, 0x93, 0x3e, 0x79, 0x18, 0x06, 0x3d, 0x37, 0x2b, 0x05, 0xbf, 
 0x81, 0x01, 0x73, 0x3e, 0x2c, 0x9f, 0x27, 0x3e, 0x4f, 0x36, 0x09, 0x3c, 
 0xe9, 0x07, 0xcd, 0xbd, 0x48, 0xab, 0xdd, 0xbe, 0x73, 0xaf, 0xbc, 0xbd, 
 0xc9, 0x70, 0xdb, 0xbe, 0xd2, 0x0b, 0x0a, 0x3e, 0x9f, 0xc8, 0xe6, 0xbd, 
 0x20, 0x2e, 0x85, 0xbd, 0xe2, 0x77, 0x32, 0x3e, 0xb4, 0xeb, 0xb3, 0x3e, 
 0xb6, 0x43, 0x8c, 0x3e, 0xd7, 0xb3, 0x6e, 0xbe, 0x39, 0xbc, 0xad, 0xbe, 
 0xd6, 0x02, 0x60, 0xbe, 0xf4, 0x22, 0xc3, 0xbe, 0xa8, 0xed, 0x02, 0xbe, 
 0xfc, 0x5a, 0x9d, 0x3e, 0xc4, 0xb8, 0x9a, 0x3e, 0x97, 0x08, 0xae, 0x3e, 
 0x6f, 0xae, 0xb3, 0x3e, 0xa6, 0x23, 0x89, 0x3e, 0x37, 0x6d, 0xc2, 0x3d, 
 0x19, 0xb5, 0x1b, 0xbd, 0x5c, 0x80, 0x69, 0x3e, 0x8b, 0x1c, 0x06, 0xbe, 
 0x1c, 0xb1, 0x1e, 0x3e, 0x48, 0x02, 0x93, 0xbc, 0xc3, 0x06, 0x01, 0x3f, 
 0xb8, 0x6f, 0x3b, 0x3e, 0xa5, 0x34, 0x33, 0x3e, 0x91, 0x99, 0xb4, 0xbd, 
 0xdb, 0xbe, 0xae, 0x3e, 0x0b, 0x4d, 0x16, 0xbe, 0x6c, 0x8e, 0x9e, 0xbe, 
 0x83, 0xa4, 0x73, 0xbe, 0x49, 0xde, 0x18, 0x3d, 0xee, 0xe4, 0xfc, 0xbe, 
 0x0a, 0x3a, 0x48, 0xbe, 0x43, 0x03, 0x92, 0x3e, 0xdc, 0x2d, 0x03, 0x3e, 
 0x19, 0x74, 0x47, 0xbe, 0x9c, 0x23, 0xa2, 0xbb, 0x9b, 0x5f, 0x64, 0x3d, 
 0xd2, 0xbc, 0x37, 0xbd, 0xe9, 0x24, 0xb2, 0xbe, 0x23, 0x31, 0xc6, 0x3e, 
 0x44, 0xe5, 0x62, 0xbe, 0xce, 0x78, 0xa1, 0xbe, 0x2e, 0xb9, 0x05, 0xbe, 
 0x9c, 0x2f, 0x01, 0x3e, 0xe1, 0xcc, 0x90, 0x3e, 0x99, 0xfb, 0x1f, 0xbe, 
 0x43, 0x95, 0xac, 0x3e, 0xe9, 0x1d, 0xb0, 0xbe, 0x0c, 0xb4, 0x7c, 0x3e, 
 0x05, 0x44, 0xab, 0x3d, 0x5d, 0xc5, 0xfd, 0xbd, 0x5f, 0xf7, 0x2e, 0xbe, 
 0x68, 0x4b, 0x1d, 0x3e, 0x18, 0x26, 0x34, 0xbd, 0x4e, 0xfe, 0x2e, 0x3e, 
 0xa2, 0x8c, 0x39, 0xbe, 0xd3, 0x36, 0x08, 0x3e, 0x85, 0x59, 0x2a, 0x3e, 
 0x8e, 0x00, 0x08, 0x3e, 0x1b, 0x1c, 0x78, 0xbd, 0xfb, 0xa7, 0x4d, 0x3e, 
 0x77, 0xbd, 0xdb, 0xbd, 0xef, 0xfa, 0xe4, 0x3d, 0x63, 0x11, 0x9a, 0xbe, 
 0x3b, 0xc3, 0xa1, 0x3d, 0xd7, 0x9f, 0x25, 0x3e, 0x35, 0x6d, 0xd2, 0x3d, 
 0xfd, 0x64, 0xd0, 0xbc, 0x84, 0xd3, 0x23, 0x3d, 0xd6, 0x6d, 0x0e, 0xbe, 
 0x6d, 0xf4, 0x84, 0xbc, 0x97, 0x76, 0x47, 0x3e, 0x15, 0xbd, 0x8a, 0x3e, 
 0xf8, 0xa2, 0x9d, 0xbe, 0xa0, 0xb1, 0xfc, 0xbd, 0x2b, 0x94, 0x38, 0x3e, 
 0x5f, 0x50, 0x9a, 0xbe, 0xe2, 0x9d, 0x4e, 0x3e, 0xa8, 0xca, 0x31, 0x3d, 
 0xab, 0xdf, 0xeb, 0x3d, 0xbd, 0xfd, 0x98, 0xbd, 0x78, 0xb3, 0x26, 0xbe, 
 0x35, 0xe6, 0x03, 0x3e, 0x08, 0x51, 0x41, 0x3e, 0x3c, 0xb1, 0xa2, 0xbb, 
 0x89, 0x96, 0xdd, 0xbd, 0x17, 0xb2, 0x75, 0x3d, 0x3f, 0x2f, 0x25, 0xbe, 
 0x15, 0x34, 0x6f, 0xbd, 0xca, 0x14, 0xee, 0xb9, 0x0e, 0xe0, 0x8a, 0x3d, 
 0x0e, 0xaf, 0x89, 0xbd, 0x10, 0x43, 0xe2, 0xbd, 0xa6, 0xad, 0x37, 0xbc, 
 0x97, 0x59, 0x0e, 0xbe, 0x9c, 0x73, 0x41, 0x3e, 0xb9, 0xef, 0x1a, 0xbe, 
 0x55, 0x4b, 0xe7, 0xbc, 0x99, 0x32, 0x93, 0xbe, 0xf1, 0x35, 0x0f, 0x3e, 
 0x32, 0x48, 0x7b, 0xbe, 0xfa, 0x25, 0x1e, 0x3e, 0x8d, 0xda, 0x84, 0xbd, 
 0x80, 0xa0, 0xe5, 0xbb, 0xa2, 0x10, 0xdb, 0x3b, 0x83, 0xcb, 0x1c, 0xbd, 
 0x06, 0xf8, 0x96, 0x3d, 0x37, 0x4e, 0x05, 0xbe, 0x53, 0x22, 0x27, 0xbe, 
 0xc0, 0x6a, 0xe2, 0xbc, 0xa6, 0x4d, 0xe7, 0x3d, 0xcb, 0xc2, 0x27, 0x3e, 
 0xfd, 0x69, 0x2d, 0x3b, 0x91, 0x08, 0x31, 0xbe, 0x48, 0xaf, 0x00, 0x3e, 
 0x16, 0xf5, 0x42, 0xbe, 0x58, 0x0a, 0x29, 0xbe, 0xd9, 0x58, 0x84, 0x3e, 
 0x2f, 0xfc, 0x58, 0x3c, 0xae, 0x30, 0x05, 0x3e, 0x41, 0xcc, 0xa7, 0xbe, 
 0x36, 0x3b, 0x17, 0xbe, 0xcb, 0x95, 0x09, 0x3e, 0x7b, 0xe7, 0x1c, 0x3e, 
 0x32, 0xb5, 0x00, 0xbe, 0xc7, 0x73, 0x46, 0xbe, 0x46, 0x84, 0x10, 0xbe, 
 0x67, 0xa9, 0x04, 0x3e, 0x1c, 0x5f, 0x18, 0xbe, 0x83, 0xd8, 0xc5, 0xbd, 
 0xe6, 0xfd, 0xff, 0xff, 0x04, 0x00, 0x00, 0x00, 0x80, 0x00, 0x00, 0x00, 
 0x44, 0x56, 0xcd, 0xbb, 0xf4, 0x45, 0x23, 0x3d, 0x48, 0xda, 0x21, 0x3d, 
 0x70, 0x14, 0xf8, 0x3b, 0x51, 0x75, 0x16, 0x3d, 0xab, 0xdf, 0x68, 0x3d, 
 0x94, 0x2b, 0xdd, 0xbc, 0x1f, 0xeb, 0x0c, 0x3d, 0x93, 0xfc, 0x3d, 0x3d, 
 0x7c, 0x4b, 0x18, 0x3d, 0xac, 0xa3, 0xe5, 0xbc, 0x5a, 0x3c, 0xf4, 0x3c, 
 0x1e, 0xc7, 0x24, 0x3d, 0xb6, 0xd7, 0xf4, 0xbc, 0x7d, 0xf7, 0xc8, 0xbc, 
 0xa8, 0xfd, 0xa5, 0x3c, 0xbd, 0x22, 0xc2, 0xbb, 0xf7, 0x16, 0x3b, 0x3d, 
 0x53, 0x58, 0xe3, 0xbc, 0x61, 0x07, 0xfe, 0xbc, 0x44, 0x0c, 0x74, 0x3d, 
 0xb5, 0x16, 0xe3, 0xbc, 0x2e, 0xe3, 0x1e, 0x3d, 0x79, 0x5f, 0x20, 0xbc, 
 0xb7, 0x65, 0x7c, 0xbc, 0xa0, 0x04, 0x0f, 0x3d, 0x11, 0x72, 0x29, 0xbc, 
 0xc8, 0x0c, 0x20, 0x3d, 0x55, 0x53, 0x0b, 0x3d, 0xad, 0x16, 0x36, 0x3d, 
 0xe3, 0xc4, 0x92, 0x3d, 0x05, 0xc4, 0x8a, 0xbc, 0x72, 0xfe, 0xff, 0xff, 
 0x04, 0x00, 0x00, 0x00, 0x40, 0x00, 0x00, 0x00, 0xcf, 0xfe, 0xe2, 0xbc, 
 0x3e, 0x86, 0x4b, 0x3d, 0x53, 0x82, 0x60, 0x3d, 0xa9, 0xe9, 0x8f, 0xbb, 
 0xbe, 0x87, 0xe6, 0x3c, 0x40, 0x98, 0xc6, 0x3d, 0x06, 0xe9, 0xa7, 0x3d, 
 0x3c, 0xad, 0x56, 0xbc, 0xfc, 0xe2, 0xf7, 0x3c, 0x04, 0x24, 0xd4, 0x3d, 
 0x14, 0xe9, 0x13, 0x3c, 0x53, 0x5c, 0x98, 0xbc, 0x82, 0xcc, 0xea, 0xbc, 
 0x2f, 0xbc, 0xe7, 0x3d, 0xce, 0xbf, 0x9c, 0x3d, 0xf6, 0xb5, 0x7a, 0x3b, 
 0xbe, 0xfe, 0xff, 0xff, 0x04, 0x00, 0x00, 0x00, 0x80, 0x00, 0x00, 0x00, 
 0x2c, 0x63, 0x49, 0xbf, 0x3e, 0xbd, 0x33, 0xbf, 0x6b, 0x26, 0x9f, 0xbe, 
 0x3d, 0xfe, 0x61, 0xbd, 0x15, 0x6c, 0xf5, 0x3e, 0x13, 0x7a, 0xcc, 0x3e, 
 0xbc, 0xb9, 0x9c, 0x3e, 0xff, 0x29, 0x13, 0x3f, 0xdd, 0x6a, 0x07, 0xbe, 
 0x08, 0x34, 0x14, 0xbf, 0x89, 0x50, 0x00, 0x3e, 0xff, 0xe5, 0x01, 0x3f, 
 0xc8, 0x97, 0x4e, 0x3e, 0xaa, 0x9f, 0xec, 0x3e, 0x72, 0x0d, 0x16, 0xbf, 
 0xd7, 0x91, 0x39, 0xbe, 0xaf, 0xb9, 0x02, 0x3f, 0x76, 0x1d, 0x09, 0x3f, 
 0x33, 0xf5, 0x32, 0xbf, 0xf3, 0x37, 0x38, 0xbf, 0xef, 0x6c, 0xee, 0x3e, 
 0x46, 0xc6, 0x01, 0x3f, 0xec, 0x6f, 0xbf, 0x3e, 0x51, 0xd4, 0x12, 0x3f, 
