#ifndef CNN_1D_DISTILL_INT8_H
#define CNN_1D_DISTILL_INT8_H

#include <stdint.h>

const unsigned int cnn_1d_distill_int8_len = 12800;
alignas(16) const unsigned char cnn_1d_distill_int8[] = {
 0x1c, 0x00, 0x00, 0x00, 0x54, 0x46, 0x4c, 0x33, 0x14, 0x00, 0x20, 0x00, 
 0x1c, 0x00, 0x18, 0x00, 0x14, 0x00, 0x10, 0x00, 0x0c, 0x00, 0x00, 0x00, 
 0x08, 0x00, 0x04, 0x00, 0x14, 0x00, 0x00, 0x00, 0x1c, 0x00, 0x00, 0x00, 
 0x80, 0x00, 0x00, 0x00, 0xd8, 0x00, 0x00, 0x00, 0x2c, 0x13, 0x00, 0x00, 
 0x3c, 0x13, 0x00, 0x00, 0x08, 0x31, 0x00, 0x00, 0x03, 0x00, 0x00, 0x00, 
 0x01, 0x00, 0x00, 0x00, 0x04, 0x00, 0x00, 0x00, 0x86, 0xe9, 0xff, 0xff, 
 0x0c, 0x00, 0x00, 0x00, 0x1c, 0x00, 0x00, 0x00, 0x38, 0x00, 0x00, 0x00, 
 0x0f, 0x00, 0x00, 0x00, 0x73, 0x65, 0x72, 0x76, 0x69, 0x6e, 0x67, 0x5f, 
 0x64, 0x65, 0x66, 0x61, 0x75, 0x6c, 0x74, 0x00, 0x01, 0x00, 0x00, 0x00, 
 0x04, 0x00, 0x00, 0x00, 0x9c, 0xff, 0xff, 0xff, 0x21, 0x00, 0x00, 0x00, 
 0x04, 0x00, 0x00, 0x00, 0x04, 0x00, 0x00, 0x00, 0x70, 0x72, 0x65, 0x64, 
 0x00, 0x00, 0x00, 0x00, 0x01, 0x00, 0x00, 0x00, 0x04, 0x00, 0x00, 0x00, 
 0x62, 0xec, 0xff, 0xff, 0x04, 0x00, 0x00, 0x00, 0x04, 0x00, 0x00, 0x00, 
 0x78, 0x5f, 0x69, 0x6e, 0x00, 0x00, 0x00, 0x00, 0x02, 0x00, 0x00, 0x00, 
 0x34, 0x00, 0x00, 0x00, 0x04, 0x00, 0x00, 0x00, 0xdc, 0xff, 0xff, 0xff, 
 0x24, 0x00, 0x00, 0x00, 0x04, 0x00, 0x00, 0x00, 0x13, 0x00, 0x00, 0x00, 
 0x43, 0x4f, 0x4e, 0x56, 0x45, 0x52, 0x53, 0x49, 0x4f, 0x4e, 0x5f, 0x4d, 
 0x45, 0x54, 0x41, 0x44, 0x41, 0x54, 0x41, 0x00, 0x08, 0x00, 0x0c, 0x00, 
 0x08, 0x00, 0x04, 0x00, 0x08, 0x00, 0x00, 0x00, 0x23, 0x00, 0x00, 0x00, 
 0x04, 0x00, 0x00, 0x00, 0x13, 0x00, 0x00, 0x00, 0x6d, 0x69, 0x6e, 0x5f, 
 0x72, 0x75, 0x6e, 0x74, 0x69, 0x6d, 0x65, 0x5f, 0x76, 0x65, 0x72, 0x73, 
 0x69, 0x6f, 0x6e, 0x00, 0x25, 0x00, 0x00, 0x00, 0x50, 0x12, 0x00, 0x00, 
 0x48, 0x12, 0x00, 0x00, 0x34, 0x12, 0x00, 0x00, 0x18, 0x12, 0x00, 0x00, 
 0x04, 0x12, 0x00, 0x00, 0xe8, 0x11, 0x00, 0x00, 0xcc, 0x11, 0x00, 0x00, 
 0xb0, 0x11, 0x00, 0x00, 0x9c, 0x11, 0x00, 0x00, 0x84, 0x11, 0x00, 0x00, 
 0x34, 0x11, 0x00, 0x00, 0xa4, 0x10, 0x00, 0x00, 0x94, 0x0c, 0x00, 0x00, 
 0x04, 0x0c, 0x00, 0x00, 0xf4, 0x01, 0x00, 0x00, 0xa4, 0x01, 0x00, 0x00, 
 0x24, 0x01, 0x00, 0x00, 0x1c, 0x01, 0x00, 0x00, 0x14, 0x01, 0x00, 0x00, 
 0x0c, 0x01, 0x00, 0x00, 0x04, 0x01, 0x00, 0x00, 0xfc, 0x00, 0x00, 0x00, 
 0xf4, 0x00, 0x00, 0x00, 0xec, 0x00, 0x00, 0x00, 0xe4, 0x00, 0x00, 0x00, 
 0xdc, 0x00, 0x00, 0x00, 0xd4, 0x00, 0x00, 0x00, 0xcc, 0x00, 0x00, 0x00, 
 0xc4, 0x00, 0x00, 0x00, 0xbc, 0x00, 0x00, 0x00, 0xb4, 0x00, 0x00, 0x00, 
 0xac, 0x00, 0x00, 0x00, 0xa4, 0x00, 0x00, 0x00, 0x9c, 0x00, 0x00, 0x00, 
 0x94, 0x00, 0x00, 0x00, 0x74, 0x00, 0x00, 0x00, 0x04, 0x00, 0x00, 0x00, 
 0x6a, 0xed, 0xff, 0xff, 0x04, 0x00, 0x00, 0x00, 0x60, 0x00, 0x00, 0x00, 
 0x0c, 0x00, 0x00, 0x00, 0x08, 0x00, 0x0e, 0x00, 0x08, 0x00, 0x04, 0x00, 
 0x08, 0x00, 0x00, 0x00, 0x10, 0x00, 0x00, 0x00, 0x28, 0x00, 0x00, 0x00, 
 0x00, 0x00, 0x06, 0x00, 0x08, 0x00, 0x04, 0x00, 0x06, 0x00, 0x00, 0x00, 
 0x04, 0x00, 0x00, 0x00, 0x01, 0x00, 0x00, 0x00, 0xeb, 0x03, 0x00, 0x00, 
 0x0c, 0x00, 0x18, 0x00, 0x14, 0x00, 0x10, 0x00, 0x0c, 0x00, 0x04, 0x00, 
 0x0c, 0x00, 0x00, 0x00, 0xaf, 0x43, 0x5e, 0xb2, 0xb4, 0x7a, 0x5e, 0xc7, 
 0x02, 0x00, 0x00, 0x00, 0x02, 0x00, 0x00, 0x00, 0x04, 0x00, 0x00, 0x00, 
 0x06, 0x00, 0x00, 0x00, 0x32, 0x2e, 0x32, 0x30, 0x2e, 0x30, 0x00, 0x00, 
 0xd6, 0xed, 0xff, 0xff, 0x04, 0x00, 0x00, 0x00, 0x10, 0x00, 0x00, 0x00, 
 0x31, 0x2e, 0x31, 0x34, 0x2e, 0x30, 0x00, 0x00, 0x00, 0x00, 0x00, 0x00, 
 0x00, 0x00, 0x00, 0x00, 0x18, 0xd1, 0xff, 0xff, 0x1c, 0xd1, 0xff, 0xff, 
 0x20, 0xd1, 0xff, 0xff, 0x24, 0xd1, 0xff, 0xff, 0x28, 0xd1, 0xff, 0xff, 
 0x2c, 0xd1, 0xff, 0xff, 0x30, 0xd1, 0xff, 0xff, 0x34, 0xd1, 0xff, 0xff, 
 0x38, 0xd1, 0xff, 0xff, 0x3c, 0xd1, 0xff, 0xff, 0x40, 0xd1, 0xff, 0xff, 
 0x44, 0xd1, 0xff, 0xff, 0x48, 0xd1, 0xff, 0xff, 0x4c, 0xd1, 0xff, 0xff, 
 0x50, 0xd1, 0xff, 0xff, 0x54, 0xd1, 0xff, 0xff, 0x58, 0xd1, 0xff, 0xff, 
 0x5c, 0xd1, 0xff, 0xff, 0x3a, 0xee, 0xff, 0xff, 0x04, 0x00, 0x00, 0x00, 
 0x70, 0x00, 0x00, 0x00, 0x4d, 0x7f, 0x05, 0x5a, 0xf6, 0x8e, 0xa0, 0xb6, 
 0x02, 0x81, 0x9f, 0x1f, 0xae, 0x27, 0x7f, 0x96, 0xb0, 0x2d, 0xa0, 0xf7, 
 0x04, 0x6b, 0x7f, 0x4b, 0xe6, 0xa1, 0x5b, 0x4d, 0x5f, 0x38, 0xe9, 0x81, 
 0x90, 0x6f, 0x78, 0x3c, 0xae, 0x81, 0xac, 0x41, 0x8b, 0x60, 0x81, 0xe9, 
 0x9c, 0x7b, 0x27, 0x60, 0xdd, 0x81, 0xad, 0xfe, 0xee, 0x2c, 0xee, 0x1f, 
 0x7f, 0xca, 0x68, 0x92, 0x1b, 0x0e, 0x20, 0x9a, 0xfe, 0xe5, 0x15, 0xa9, 
 0x2f, 0x7f, 0x0c, 0x81, 0x3e, 0x05, 0xb4, 0xe6, 0x09, 0x5e, 0x73, 0x5d, 
 0x6d, 0x53, 0xb2, 0x81, 0x5b, 0x25, 0x59, 0x81, 0x99, 0x0e, 0x1d, 0x0a, 
 0x92, 0xbe, 0x7f, 0x74, 0x9a, 0x19, 0x7f, 0x05, 0x20, 0x4d, 0x0f, 0x73, 
 0x27, 0x81, 0x88, 0xcb, 0x04, 0x6e, 0xa3, 0xc8, 0xb6, 0xee, 0xff, 0xff, 
 0x04, 0x00, 0x00, 0x00, 0x40, 0x00, 0x00, 0x00, 0xaa, 0xff, 0xff, 0xff, 
 0x22, 0x01, 0x00, 0x00, 0x83, 0x00, 0x00, 0x00, 0xe3, 0xff, 0xff, 0xff, 
 0x3d, 0x00, 0x00, 0x00, 0x79, 0x01, 0x00, 0x00, 0x93, 0x00, 0x00, 0x00, 
 0xd1, 0xff, 0xff, 0xff, 0x4e, 0x00, 0x00, 0x00, 0xd0, 0x00, 0x00, 0x00, 
 0x18, 0x00, 0x00, 0x00, 0x82, 0xff, 0xff, 0xff, 0xda, 0xff, 0xff, 0xff, 
 0x64, 0x00, 0x00, 0x00, 0x50, 0x02, 0x00, 0x00, 0x18, 0x00, 0x00, 0x00, 
 0x02, 0xef, 0xff, 0xff, 0x04, 0x00, 0x00, 0x00, 0x00, 0x0a, 0x00, 0x00, 
 0x03, 0x6f, 0xde, 0x7f, 0x35, 0xc3, 0x1e, 0x43, 0x4b, 0xac, 0x27, 0xfe, 
 0xec, 0xfd, 0xb9, 0xe6, 0xe0, 0xfc, 0x3b, 0x40, 0xe1, 0xca, 0x33, 0xe8, 
 0xbe, 0x20, 0x1c, 0xec, 0x2b, 0x4c, 0x5d, 0x38, 0xe2, 0xfc, 0x0a, 0xdb, 
 0x32, 0x20, 0x05, 0x3e, 0xb9, 0xc3, 0xc6, 0x00, 0x69, 0x5a, 0x31, 0x1e, 
 0x79, 0xac, 0x5f, 0x50, 0x6b, 0x25, 0xc7, 0x5f, 0x3b, 0x1d, 0x5e, 0xf9, 
 0x1b, 0xcb, 0xe1, 0x28, 0x27, 0x10, 0xfe, 0x9e, 0x1a, 0x73, 0xbb, 0x73, 
 0x11, 0x24, 0xe1, 0x46, 0x04, 0xcc, 0xc4, 0xcf, 0xe9, 0x1c, 0x23, 0x2e, 
 0x9c, 0x1e, 0xff, 0xe2, 0xc9, 0x66, 0xe1, 0x6b, 0xe1, 0x4b, 0xad, 0xa7, 
 0x66, 0x1a, 0xb3, 0x46, 0x42, 0x9d, 0x37, 0x38, 0x8d, 0xeb, 0xda, 0xda, 
 0x40, 0x92, 0x67, 0xe3, 0x7f, 0xcc, 0x56, 0xa3, 0x24, 0xe2, 0x06, 0x22, 
 0x59, 0x48, 0x10, 0x29, 0x3d, 0xfb, 0xfd, 0x4d, 0xe9, 0x2b, 0x64, 0xd6, 
 0x4c, 0x37, 0xd3, 0x12, 0x90, 0x52, 0xd9, 0x13, 0x5e, 0x1c, 0xf0, 0x76, 
 0x9b, 0x1e, 0x4f, 0xea, 0x2e, 0xdb, 0xaa, 0xf7, 0xcf, 0xab, 0xbe, 0x49, 
 0x0f, 0x7b, 0xc0, 0x24, 0xaf, 0x09, 0x76, 0xa7, 0x98, 0xf0, 0x25, 0x28, 
 0xbf, 0x9f, 0x31, 0xb6, 0x31, 0x26, 0x17, 0x67, 0x2f, 0xe0, 0xcc, 0x98, 
 0x1c, 0x52, 0x3f, 0x55, 0x34, 0x60, 0x5b, 0x0e, 0x2a, 0x45, 0xea, 0x1c, 
 0x9d, 0x21, 0x2e, 0x2b, 0x1c, 0xdb, 0x55, 0xbb, 0x0f, 0xab, 0xd6, 0x2e, 
 0xd4, 0x1c, 0x49, 0xbc, 0x91, 0x19, 0xfd, 0xd0, 0x0a, 0x08, 0x16, 0xd2, 
 0xd1, 0x3b, 0xbe, 0x21, 0x1f, 0x0c, 0xd9, 0x05, 0x48, 0x6d, 0x1f, 0xa8, 
 0x9e, 0xf6, 0x64, 0x3d, 0x81, 0xec, 0x61, 0xbf, 0x18, 0x45, 0x3a, 0x4b, 
 0x6b, 0xfe, 0x3a, 0xab, 0x1b, 0x5d, 0x8e, 0x03, 0xf1, 0x93, 0xb8, 0x2a, 
 0xa7, 0xa9, 0x5d, 0x97, 0x9d, 0x9c, 0x4e, 0x60, 0x51, 0x9d, 0x69, 0xd4, 
 0xe6, 0xb7, 0x7f, 0x20, 0xc3, 0x60, 0xda, 0x42, 0x99, 0x0f, 0xfd, 0x10, 
 0x1e, 0xa8, 0x2a, 0x4d, 0xe3, 0xdf, 0x17, 0xbf, 0xe7, 0x1b, 0xad, 0x01, 
 0xb4, 0x5b, 0x2b, 0x1e, 0xf8, 0x41, 0x58, 0xf7, 0x50, 0x65, 0x59, 0xd0, 
 0x2f, 0xfe, 0x0a, 0xa9, 0xb4, 0x30, 0x45, 0xea, 0xef, 0xe1, 0x47, 0x77, 
 0x1c, 0xab, 0x06, 0x3d, 0xe7, 0xf6, 0xb1, 0x9c, 0xee, 0x49, 0xaa, 0xf0, 
 0xd7, 0xa2, 0x19, 0x52, 0xc3, 0xe5, 0xc5, 0x2f, 0x84, 0x98, 0x42, 0x6a, 
 0x4c, 0x5e, 0x5b, 0x5a, 0x66, 0x60, 0xfc, 0x9e, 0x53, 0x90, 0x1d, 0xcc, 
 0xcd, 0x17, 0xe9, 0xcc, 0xe2, 0xa3, 0xf6, 0x9c, 0x77, 0x42, 0xc9, 0xde, 
 0xfc, 0x81, 0x69, 0x41, 0x00, 0x08, 0x16, 0x69, 0xd4, 0x64, 0x2c, 0xea, 
 0xaa, 0xc9, 0x83, 0x56, 0xff, 0x0f, 0x32, 0x1c, 0xe7, 0x9e, 0x71, 0xf6, 
 0xab, 0xc9, 0xcb, 0x1d, 0xdd, 0x90, 0xf4, 0xf8, 0xbc, 0xce, 0x07, 0xb5, 
 0x42, 0xd1, 0xf1, 0xf8, 0x1f, 0xc3, 0x0f, 0x0e, 0x35, 0xcf, 0xf1, 0xd8, 
 0xe2, 0xa8, 0xfe, 0x0c, 0x0e, 0xa0, 0x47, 0x07, 0x26, 0x3a, 0xcb, 0x11, 
 0x1c, 0xb2, 0x02, 0x47, 0xaa, 0xba, 0x49, 0xc1, 0xb2, 0x81, 0x3e, 0xf1, 
 0xfa, 0x36, 0xed, 0x0f, 0x3d, 0x5a, 0xcd, 0x07, 0x3f, 0xbf, 0x30, 0x15, 
 0x1f, 0x11, 0x13, 0xf3, 0xd4, 0xb5, 0x13, 0xfd, 0x2f, 0xa0, 0x3a, 0x2e, 
 0x2e, 0xbf, 0x47, 0x2e, 0x1a, 0x0f, 0xe2, 0x47, 0xbd, 0xc1, 0x45, 0x34, 
 0xb0, 0xab, 0xc0, 0x14, 0x39, 0xb2, 0x49, 0xaa, 0x9c, 0x92, 0x07, 0x45, 
 0xaf, 0xe2, 0xbc, 0x1a, 0xca, 0xdd, 0x98, 0xaa, 0xf0, 0xf1, 0x2a, 0x48, 
 0xba, 0x37, 0xe2, 0x13, 0xef, 0x2f, 0x45, 0xba, 0xdd, 0x59, 0x16, 0x20, 
 0x33, 0x2b, 0xf5, 0x26, 0xb6, 0xdd, 0xc4, 0xbf, 0x3a, 0x6e, 0x02, 0x51, 
 0x11, 0xaf, 0xe8, 0x40, 0xe8, 0xdf, 0xcc, 0xd5, 0x12, 0x28, 0x21, 0xf1, 
 0x81, 0xdb, 0xc9, 0xc6, 0xc5, 0x27, 0xbe, 0xd9, 0x04, 0xca, 0x12, 0x2b, 
 0x2d, 0xa3, 0xec, 0x61, 0x3f, 0x23, 0x02, 0x67, 0xfd, 0x22, 0xea, 0xbf, 
 0xe2, 0x28, 0x4e, 0x02, 0x20, 0xaa, 0x6e, 0x62, 0xe4, 0xe8, 0xee, 0xe3, 
 0xdd, 0xcf, 0xc2, 0x23, 0x4d, 0xc8, 0xf9, 0xc9, 0x00, 0xd3, 0xe2, 0x5c, 
 0x3b, 0xc9, 0xe2, 0xd4, 0x59, 0x02, 0x21, 0xef, 0xbd, 0xe8, 0x52, 0x4a, 
 0x1b, 0xf8, 0x17, 0x7f, 0x9e, 0x0a, 0xeb, 0x2f, 0xd0, 0xe2, 0x23, 0xde, 
 0x41, 0xf0, 0x3a, 0x08, 0x14, 0xba, 0xfb, 0xf7, 0xb5, 0xbc, 0x50, 0x0f, 
 0x11, 0xe8, 0xb3, 0xf0, 0x27, 0x4e, 0xdc, 0x53, 0xb7, 0x91, 0xca, 0x0d, 
 0xfa, 0x19, 0x4f, 0xda, 0x13, 0xde, 0xd2, 0xd6, 0xdf, 0x41, 0x05, 0x0d, 
 0xe8, 0x89, 0x47, 0x26, 0xbc, 0xf3, 0x3a, 0x43, 0x36, 0x89, 0xb3, 0x1f, 
 0xa5, 0xd6, 0xfb, 0xb5, 0x16, 0x1b, 0x2f, 0xaa, 0xc1, 0xed, 0x5c, 0x7b, 
 0xd5, 0x64, 0x9c, 0x30, 0x3e, 0xa5, 0x17, 0x15, 0x45, 0x6e, 0xe4, 0x1b, 
 0x6c, 0xef, 0xd6, 0xa6, 0x4d, 0xba, 0xb8, 0xc9, 0xaf, 0xf1, 0x49, 0x3d, 
 0x35, 0x78, 0x9a, 0xa6, 0xe9, 0x2d, 0x9b, 0x62, 0xaf, 0x5b, 0x49, 0xe3, 
 0xd4, 0x1b, 0xb8, 0x53, 0xcd, 0x91, 0x61, 0x40, 0x43, 0x30, 0x9b, 0x77, 
 0x4b, 0xca, 0xdc, 0xa0, 0x11, 0x5b, 0xc1, 0x05, 0xeb, 0x6b, 0x7f, 0xbc, 
 0xf0, 0x84, 0xd2, 0xc3, 0x75, 0xea, 0x00, 0xf0, 0x28, 0x90, 0x3c, 0xba, 
 0x38, 0x79, 0xa6, 0xb4, 0xcd, 0xfb, 0x91, 0x51, 0x0e, 0xda, 0x24, 0xdf, 
 0xcd, 0x66, 0x67, 0xb2, 0x73, 0x97, 0xa9, 0x9b, 0x0b, 0xa3, 0xc0, 0x2d, 
 0x3e, 0x52, 0x08, 0x5d, 0x7f, 0x26, 0xd3, 0x95, 0x64, 0xb7, 0x98, 0x65, 
 0x07, 0x47, 0x7c, 0x1e, 0x82, 0xb0, 0x20, 0x2b, 0xf6, 0x0b, 0x9a, 0x39, 
 0x2d, 0x7d, 0xa3, 0x28, 0x49, 0x98, 0x4c, 0x56, 0x03, 0x6d, 0x1b, 0x29, 
 0x70, 0xe9, 0x1c, 0xc6, 0xe9, 0xbd, 0x71, 0x54, 0x34, 0x96, 0x59, 0xb7, 
 0xd7, 0x0e, 0x57, 0x16, 0x06, 0x4d, 0x93, 0x13, 0xc8, 0x5d, 0xbf, 0x4e, 
 0x48, 0x9c, 0x3a, 0xee, 0xf4, 0xf7, 0x88, 0xde, 0x15, 0x05, 0x68, 0xf0, 
 0x9e, 0xd1, 0x99, 0xea, 0xda, 0x32, 0x66, 0xcd, 0x0a, 0x66, 0x0d, 0x89, 
 0x4d, 0xe8, 0x5b, 0xbe, 0x3c, 0x55, 0xc4, 0x63, 0x68, 0x9f, 0x8c, 0x5d, 
 0x9f, 0xf9, 0x88, 0x53, 0x30, 0xa4, 0x50, 0x32, 0xae, 0xf4, 0xd5, 0x0e, 
 0x39, 0xc4, 0xc4, 0x4a, 0x5f, 0x58, 0x81, 0x0d, 0x50, 0x03, 0x1c, 0xdb, 
 0xde, 0xcc, 0xfa, 0x00, 0xbd, 0xe8, 0xe6, 0x03, 0x1c, 0xc0, 0xa1, 0xa2, 
 0xde, 0xc1, 0xe6, 0x06, 0x18, 0x61, 0x0f, 0xb0, 0xcc, 0xf1, 0xda, 0xc8, 
 0x0c, 0xe1, 0x18, 0xa6, 0xd9, 0xcb, 0xa6, 0x02, 0xc6, 0x60, 0xfe, 0xe7, 
 0x00, 0x4c, 0x0a, 0xf1, 0xeb, 0xd8, 0x0b, 0x22, 0xba, 0x4c, 0x59, 0xdf, 
 0xc6, 0xbc, 0x36, 0xc4, 0xd4, 0x27, 0xcb, 0xf7, 0x7f, 0xbf, 0x5c, 0x9f, 
 0x2e, 0x1e, 0x3d, 0x0a, 0xb7, 0x35, 0x50, 0xd4, 0xfa, 0xc0, 0x32, 0x26, 
 0xe6, 0x3f, 0xf0, 0xe9, 0xbc, 0x60, 0xef, 0x14, 0xc6, 0x1e, 0xd1, 0x18, 
 0x28, 0x1a, 0xcb, 0x36, 0xf6, 0xab, 0xe7, 0x16, 0xf6, 0xea, 0x05, 0x05, 
 0x11, 0x2c, 0xf8, 0xe1, 0x8a, 0x37, 0x36, 0x2e, 0x47, 0xf4, 0x81, 0xef, 
 0xb6, 0x0f, 0xed, 0xbc, 0xb1, 0x27, 0xb3, 0x36, 0x3a, 0x07, 0xdb, 0xc9, 
 0xd2, 0x35, 0xd5, 0xf6, 0x37, 0xf6, 0x4b, 0x4f, 0xcb, 0x0f, 0xe2, 0x3c, 
 0x32, 0x29, 0x29, 0x38, 0xc4, 0xde, 0x9b, 0x54, 0xe8, 0xfa, 0x2b, 0xb0, 
 0x04, 0x0b, 0x2a, 0x37, 0x49, 0xc0, 0x64, 0xfa, 0x01, 0x3e, 0x29, 0xcc, 
 0xe2, 0xdf, 0x34, 0xbb, 0xa5, 0xc3, 0x0c, 0xd7, 0xb5, 0xe2, 0xd6, 0x1a, 
 0x35, 0xbb, 0x81, 0x46, 0x13, 0x16, 0x9a, 0x1f, 0xd7, 0x83, 0x2a, 0xf9, 
 0x3a, 0x41, 0x08, 0xe3, 0xa3, 0xb1, 0xb4, 0x6f, 0xc5, 0x27, 0x45, 0xfc, 
 0xc7, 0x42, 0x64, 0x4e, 0x52, 0x9c, 0x58, 0x3c, 0x49, 0x2c, 0xb5, 0x32, 
 0xbf, 0xed, 0x71, 0x41, 0x96, 0xa3, 0x19, 0xb0, 0x01, 0xed, 0x6b, 0x3e, 
 0x44, 0xa2, 0x31, 0x21, 0x97, 0x25, 0x8d, 0xc0, 0x13, 0x36, 0x79, 0x64, 
 0xbf, 0xd6, 0x46, 0xa8, 0x24, 0xab, 0xb7, 0xe0, 0xb2, 0xe2, 0x29, 0x27, 
 0xd9, 0x48, 0x9c, 0x21, 0x17, 0x05, 0x3c, 0x54, 0x7f, 0x2b, 0xe0, 0x97, 
 0xe2, 0xaa, 0xf5, 0xab, 0xfa, 0xd4, 0xbc, 0xd7, 0xcb, 0x3b, 0xee, 0xff, 
 0xa5, 0xa0, 0xea, 0x48, 0x99, 0x72, 0xe7, 0x62, 0x42, 0x2b, 0x3e, 0x16, 
 0xab, 0x0e, 0x8f, 0xf3, 0x6a, 0xad, 0x27, 0x9c, 0xad, 0xbc, 0x62, 0x32, 
 0x3b, 0x27, 0x17, 0x4b, 0x68, 0x48, 0x1b, 0xaf, 0xa0, 0x50, 0x40, 0xe1, 
 0x08, 0xf2, 0xa2, 0xca, 0x61, 0x66, 0xba, 0x1f, 0x50, 0x76, 0xd0, 0x1f, 
 0xc4, 0x2b, 0x2e, 0x69, 0x7d, 0xa2, 0x10, 0x75, 0x6c, 0xbb, 0xdc, 0xc8, 
 0xc6, 0x31, 0x60, 0x03, 0x55, 0xd5, 0x48, 0x29, 0x67, 0xc3, 0xaa, 0xfe, 
 0xb8, 0xd1, 0x08, 0xfe, 0x0d, 0x4a, 0xe2, 0x55, 0xc2, 0xbc, 0x2a, 0x08, 
 0x86, 0x4d, 0x96, 0x76, 0x02, 0x18, 0x43, 0x1a, 0xd8, 0x01, 0x0b, 0x2d, 
 0xc4, 0xba, 0x62, 0xe2, 0xef, 0x21, 0xf5, 0xcb, 0xb9, 0xe6, 0x38, 0x17, 
 0xe0, 0xa3, 0x43, 0xbf, 0xa1, 0xb6, 0x7f, 0xcb, 0xbc, 0x56, 0x07, 0xeb, 
 0x67, 0x44, 0x1c, 0x60, 0x09, 0x45, 0x15, 0x50, 0x57, 0x2e, 0x55, 0x14, 
 0x30, 0xaf, 0xb0, 0xc3, 0x99, 0xf6, 0x95, 0x83, 0x81, 0xcd, 0xe3, 0x45, 
 0x17, 0xc1, 0x01, 0xfa, 0x19, 0xa7, 0x0d, 0x30, 0xe2, 0xf3, 0xd1, 0xd1, 
 0x9d, 0x23, 0x33, 0x3d, 0x7a, 0x2d, 0x94, 0xeb, 0xfb, 0xb9, 0x45, 0xd2, 
 0x24, 0x2d, 0xd4, 0xe1, 0x0e, 0x0b, 0x31, 0xdf, 0x55, 0x6a, 0x2d, 0x56, 
 0x4b, 0xfd, 0xc9, 0xec, 0x30, 0x9b, 0xd9, 0xbe, 0xff, 0x1b, 0xd1, 0x72, 
 0x55, 0x46, 0xb4, 0xcc, 0x1b, 0x3e, 0xab, 0xb9, 0x12, 0x85, 0xcd, 0x17, 
 0xd8, 0xbd, 0x64, 0xfa, 0xb2, 0xe4, 0xf9, 0x33, 0xea, 0xdb, 0xf2, 0xcb, 
 0xab, 0xaf, 0xb6, 0x4b, 0x5d, 0xb3, 0xf3, 0x47, 0xe2, 0x05, 0x2a, 0x2e, 
 0x9c, 0xb4, 0xfe, 0x9b, 0x26, 0x05, 0xca, 0x53, 0x60, 0x2b, 0xee, 0xd4, 
 0xc1, 0x8a, 0xc8, 0x78, 0xbc, 0xda, 0x3f, 0xd9, 0xac, 0xb6, 0x48, 0x35, 
 0xdc, 0x2e, 0x40, 0x3f, 0x59, 0x25, 0x1c, 0x01, 0x4d, 0xd7, 0x20, 0x99, 
 0x49, 0xa0, 0xa6, 0xfe, 0x2d, 0x9e, 0x81, 0x05, 0x02, 0x96, 0x63, 0x0b, 
 0x56, 0x9e, 0xc0, 0xe6, 0x69, 0x64, 0xbd, 0x3a, 0x1e, 0xc2, 0xc5, 0xfb, 
 0x43, 0x9d, 0x4f, 0x11, 0x4b, 0xe3, 0xe9, 0x23, 0x61, 0xa5, 0xd2, 0xc6, 
 0x36, 0x5d, 0x11, 0xeb, 0x5e, 0x2d, 0x37, 0xeb, 0xe7, 0x14, 0xa8, 0xc9, 
 0x05, 0x66, 0x10, 0xec, 0xe8, 0xf1, 0x60, 0x12, 0x59, 0x0a, 0xb0, 0x3f, 
 0x0c, 0x66, 0xdf, 0xa7, 0x7f, 0xf9, 0xdf, 0xfb, 0x6d, 0xee, 0x02, 0x04, 
 0xa1, 0xbd, 0xa2, 0xaf, 0x4c, 0xf7, 0x18, 0xf5, 0x09, 0xc5, 0xc8, 0x42, 
 0xf4, 0x3a, 0x2a, 0xd1, 0x26, 0xa9, 0x4e, 0x9f, 0xe7, 0x59, 0xee, 0xa8, 
 0x3b, 0xea, 0x62, 0xcb, 0xc5, 0xe3, 0xe7, 0x2f, 0xfb, 0x35, 0x32, 0x6d, 
 0xb6, 0xd5, 0x4a, 0x00, 0x1f, 0xe4, 0xe3, 0xe1, 0x03, 0x4a, 0x06, 0xba, 
 0x28, 0xd2, 0xa7, 0xb1, 0xd7, 0xd4, 0x38, 0x40, 0xdc, 0x35, 0x13, 0xbc, 
 0x43, 0x4c, 0x37, 0x31, 0x1a, 0xc3, 0x65, 0x05, 0xdd, 0x2b, 0x9d, 0xba, 
 0xe2, 0x25, 0x32, 0x2b, 0xef, 0xc3, 0x60, 0x05, 0xb2, 0x2e, 0x48, 0x04, 
 0x02, 0xed, 0x22, 0xea, 0x7f, 0xbd, 0x30, 0x1c, 0x0b, 0xa0, 0xc8, 0x34, 
 0x20, 0x2c, 0x17, 0xbf, 0xc2, 0x54, 0x67, 0x66, 0x40, 0xf5, 0xc8, 0xc3, 
 0xfd, 0xe3, 0x67, 0xea, 0xd8, 0x12, 0xe3, 0xb2, 0xdd, 0x1e, 0x00, 0xe4, 
 0x49, 0xc5, 0x2c, 0x56, 0x1a, 0x00, 0x23, 0x6a, 0x58, 0xb0, 0x04, 0xf7, 
 0x76, 0xc3, 0x01, 0xbc, 0x8f, 0x8b, 0xeb, 0xca, 0xc7, 0x15, 0xfe, 0xf2, 
 0x4c, 0x99, 0x28, 0xde, 0xfc, 0x56, 0x67, 0x00, 0x5f, 0xc0, 0xf4, 0x49, 
 0xeb, 0x6c, 0xaa, 0x06, 0x30, 0xea, 0xbe, 0x16, 0x99, 0xde, 0x5d, 0xe5, 
 0x9a, 0x40, 0xc7, 0x00, 0x26, 0x87, 0xc1, 0x61, 0xb3, 0x17, 0x34, 0xdd, 
 0xed, 0x3f, 0xa9, 0x0d, 0x5d, 0x92, 0xf9, 0x67, 0xaa, 0xcb, 0x55, 0x0d, 
 0x59, 0x6c, 0xcc, 0xbc, 0xfb, 0x81, 0x45, 0x38, 0x90, 0x0b, 0x95, 0x62, 
 0x0f, 0xd9, 0xb1, 0xbe, 0xbf, 0xfa, 0xdd, 0x7e, 0x1c, 0xef, 0x4b, 0x2c, 
 0xa4, 0xe2, 0xd6, 0xae, 0x30, 0xf4, 0x70, 0x43, 0xbe, 0xfd, 0x9a, 0x77, 
 0x3c, 0x34, 0x05, 0x33, 0x05, 0x4b, 0x57, 0xa2, 0xa6, 0xbe, 0xd8, 0x94, 
 0xec, 0xc8, 0xec, 0x71, 0x3e, 0xa7, 0x1b, 0x08, 0x93, 0xde, 0xbb, 0x8d, 
 0x03, 0x2a, 0x1b, 0x59, 0x42, 0x1b, 0xd4, 0x21, 0xda, 0xdc, 0x57, 0xc5, 
 0xee, 0x91, 0x12, 0x0b, 0x1f, 0xaf, 0x12, 0x3d, 0xe9, 0xcd, 0x22, 0x6a, 
 0xeb, 0x47, 0x3f, 0x4f, 0x1c, 0x81, 0x1e, 0xe0, 0x07, 0xac, 0x36, 0x45, 
 0x86, 0x0e, 0xfd, 0xea, 0x61, 0x5a, 0xef, 0x41, 0xfe, 0x61, 0x9c, 0x43, 
 0xae, 0x81, 0x53, 0xcd, 0x3d, 0xb7, 0x97, 0xda, 0x98, 0xa2, 0x47, 0xec, 
 0x12, 0x02, 0x0e, 0x59, 0x63, 0x3b, 0x2a, 0x59, 0xe8, 0xf1, 0x08, 0x5d, 
 0xff, 0xf1, 0xa7, 0x4e, 0xa4, 0x42, 0xad, 0x66, 0xa1, 0x2a, 0x47, 0xbd, 
 0xdd, 0xdf, 0x35, 0x0a, 0x2a, 0xae, 0xd3, 0x0e, 0xfd, 0xbd, 0x3e, 0x9c, 
 0xb0, 0x07, 0xde, 0x04, 0xd3, 0x2e, 0x89, 0xb9, 0x1f, 0x69, 0x1f, 0x3d, 
 0x3c, 0x96, 0x4f, 0xe6, 0x20, 0x97, 0x30, 0x30, 0x9f, 0xb7, 0x81, 0xf9, 
 0x09, 0x2d, 0xa8, 0xc3, 0x49, 0x0d, 0xec, 0xf1, 0x30, 0xf8, 0x21, 0xc5, 
 0x0a, 0xd9, 0xba, 0x45, 0xe0, 0x93, 0x9b, 0x14, 0x30, 0x0d, 0xb3, 0x3c, 
 0x00, 0xdc, 0x23, 0x5c, 0x58, 0x3b, 0xba, 0xf6, 0xea, 0x95, 0xf6, 0xf2, 
 0x43, 0xc6, 0xb3, 0xcb, 0xea, 0x08, 0x13, 0xc8, 0xa3, 0x29, 0xe2, 0xb5, 
 0x4d, 0x93, 0xe0, 0xc1, 0x38, 0xc9, 0x0b, 0x0e, 0xec, 0xab, 0x10, 0x0a, 
 0x4b, 0xf9, 0x8f, 0x01, 0xd2, 0x1d, 0xd5, 0xca, 0x17, 0x20, 0x1c, 0x4a, 
 0x88, 0x4d, 0xde, 0xd2, 0x90, 0xf8, 0x19, 0x81, 0xe0, 0x17, 0x1d, 0x29, 
 0x2f, 0xaa, 0xb1, 0x9a, 0x1c, 0xd8, 0xf9, 0x63, 0xa2, 0x3e, 0x23, 0x16, 
 0xe3, 0xc1, 0x21, 0x0a, 0x08, 0xdb, 0xa2, 0xc7, 0x28, 0x17, 0x51, 0x01, 
 0xba, 0xa2, 0x46, 0x5e, 0x93, 0xb9, 0xf2, 0x54, 0x03, 0x70, 0x93, 0xd5, 
 0x88, 0x59, 0xbc, 0xbb, 0x9a, 0x9b, 0xf7, 0x11, 0xe3, 0x38, 0x26, 0x1d, 
 0x00, 0x0b, 0x4c, 0xc5, 0x22, 0x36, 0x3a, 0x10, 0x41, 0xef, 0x57, 0xc6, 
 0xa5, 0x30, 0x09, 0xd0, 0x19, 0x4b, 0x9f, 0x11, 0x25, 0x79, 0x7d, 0xee, 
 0xa6, 0xc8, 0x95, 0xa9, 0x06, 0x4e, 0x4e, 0x9d, 0x10, 0xbb, 0xe5, 0xc1, 
 0xc7, 0xb7, 0xf9, 0x65, 0xf5, 0xb6, 0x97, 0x14, 0xed, 0x8b, 0xe5, 0x11, 
 0x5f, 0x49, 0x58, 0xd7, 0x3f, 0xaf, 0x18, 0x57, 0x46, 0xd4, 0x81, 0xd7, 
 0x6d, 0xe9, 0x57, 0xd7, 0xe4, 0x18, 0xf8, 0xaf, 0xee, 0xeb, 0x38, 0xa7, 
 0xbe, 0x22, 0x2f, 0x01, 0x14, 0xd5, 0x04, 0x19, 0xfe, 0x98, 0x3e, 0xa7, 
 0x55, 0x58, 0x12, 0x1e, 0x4b, 0x63, 0x35, 0x74, 0xcc, 0x28, 0x3a, 0x0a, 
 0x9e, 0x23, 0xbb, 0xda, 0x4a, 0x49, 0x2a, 0x45, 0xfc, 0x09, 0x98, 0x41, 
 0x25, 0x3c, 0xd5, 0xb5, 0xa7, 0x90, 0xbe, 0xa6, 0xaf, 0x90, 0x13, 0xff, 
 0xa5, 0x65, 0xba, 0x51, 0xb1, 0x9d, 0xdf, 0x6a, 0xa7, 0xf3, 0x4c, 0x1e, 
 0xc3, 0x28, 0xbf, 0x02, 0xec, 0x03, 0xa8, 0x98, 0x1c, 0x8d, 0x38, 0x50, 
 0xb0, 0x5b, 0xd7, 0x6e, 0xae, 0x1f, 0x7f, 0x03, 0xf9, 0x16, 0x28, 0x14, 
 0xac, 0x09, 0xc1, 0x54, 0x23, 0xbd, 0x2a, 0xaf, 0x55, 0x58, 0xc2, 0x61, 
 0x3c, 0xc1, 0x26, 0xe3, 0x17, 0x58, 0x39, 0xc3, 0x61, 0x30, 0xaf, 0x4f, 
 0x3c, 0x47, 0x9e, 0x7f, 0x17, 0x04, 0x0e, 0x62, 0xa6, 0xa8, 0xd6, 0x6f, 
 0xc4, 0x98, 0x4a, 0xcb, 0xa0, 0xd4, 0xc9, 0x34, 0xc1, 0x54, 0xda, 0x42, 
 0xd7, 0xaa, 0x32, 0xbb, 0xa6, 0xb3, 0x4e, 0x86, 0xa4, 0x39, 0xb7, 0xe1, 
 0xe4, 0x0b, 0x1f, 0x25, 0x61, 0xee, 0x5b, 0xcc, 0x22, 0x0a, 0xc6, 0xed, 
 0xc3, 0x1c, 0x01, 0x77, 0x59, 0xc7, 0xf2, 0xf3, 0xd8, 0xec, 0x1b, 0xd0, 
 0xf5, 0x1b, 0x64, 0x1c, 0x34, 0xbf, 0xfe, 0xc5, 0x0e, 0x2d, 0x9e, 0x41, 
 0xd9, 0xcc, 0x30, 0x9e, 0x24, 0xb3, 0xf5, 0x4b, 0xd7, 0xf1, 0xb1, 0x68, 
 0xcf, 0x9f, 0xc6, 0xaa, 0x1f, 0x9c, 0x11, 0xd4, 0xc5, 0xfd, 0x96, 0x5b, 
 0xac, 0xdf, 0x28, 0x3c, 0xe8, 0xe4, 0x2f, 0xb5, 0x2f, 0x15, 0xbc, 0xe5, 
 0x45, 0xbb, 0x27, 0x3b, 0xbf, 0x4e, 0xb7, 0x3e, 0x5e, 0x18, 0xe0, 0xca, 
 0xea, 0xfa, 0x33, 0x61, 0x67, 0x3f, 0xd6, 0x48, 0xf9, 0x9e, 0x5a, 0x31, 
 0x3d, 0xe0, 0xee, 0xec, 0x1f, 0x81, 0x49, 0x9c, 0xd4, 0xba, 0xee, 0x0a, 
 0xb2, 0xc7, 0x45, 0x40, 0x14, 0xab, 0xde, 0x63, 0x17, 0xf8, 0x2d, 0xe0, 
 0x97, 0xa9, 0x32, 0x12, 0xa5, 0x75, 0xc0, 0xf9, 0x5f, 0x9a, 0x06, 0x22, 
 0xf5, 0x90, 0x21, 0xbb, 0xe3, 0xe3, 0xce, 0x05, 0x1d, 0x63, 0x99, 0x5f, 
 0xad, 0x00, 0xa5, 0xfe, 0x4c, 0xa0, 0x17, 0x7f, 0x39, 0xc0, 0xe4, 0x60, 
 0xe4, 0x4d, 0xa1, 0x2f, 0x0f, 0xba, 0xe8, 0xd3, 0x5d, 0xf2, 0xa7, 0x0f, 
 0xbc, 0xd0, 0x2a, 0x03, 0xa9, 0x1b, 0x6c, 0x33, 0xf0, 0xf9, 0xf8, 0x40, 
 0xa4, 0x61, 0xcd, 0xc3, 0xb6, 0xbd, 0xee, 0x00, 0x12, 0x1d, 0x1c, 0xf3, 
 0xae, 0x15, 0x3c, 0x23, 0x41, 0xd4, 0x31, 0xc1, 0x1e, 0x3b, 0x05, 0x9d, 
 0xd1, 0x30, 0x27, 0xb0, 0xe9, 0x09, 0x57, 0x9f, 0x9c, 0xd5, 0x04, 0xa0, 
 0x49, 0x6b, 0x55, 0xef, 0xde, 0xb0, 0x1b, 0x46, 0x08, 0x81, 0x3a, 0x28, 
 0x02, 0xe8, 0x96, 0xea, 0x97, 0x21, 0xe4, 0xf0, 0x2b, 0x56, 0x43, 0xc7, 
 0xad, 0xcb, 0xa3, 0xe1, 0x4b, 0x4a, 0x53, 0x56, 0x41, 0x17, 0xf7, 0x38, 
 0xe0, 0x26, 0xfc, 0x7b, 0x2d, 0x2b, 0xea, 0x53, 0xdc, 0xb4, 0xc6, 0x09, 
 0x87, 0xd0, 0x46, 0x1f, 0xd0, 0xff, 0x0e, 0xf5, 0xab, 0x5f, 0xca, 0xb3, 
 0xe0, 0x1f, 0x45, 0xda, 0x52, 0xac, 0x3c, 0x14, 0xd0, 0xbe, 0x3c, 0xef, 
 0x42, 0xba, 0x34, 0x40, 0x33, 0xe9, 0x4e, 0xd6, 0x2b, 0x8b, 0x1f, 0x3f, 
 0x28, 0xf6, 0x0f, 0xca, 0xfa, 0x4b, 0x69, 0x89, 0xd0, 0x46, 0x8b, 0x4e, 
 0x11, 0x2d, 0xe3, 0xc1, 0x32, 0x49, 0xfe, 0xd6, 0x17, 0xc1, 0xe9, 0x00, 
 0x1a, 0xe6, 0xd5, 0xfc, 0xca, 0x49, 0xc5, 0xf5, 0x91, 0x36, 0xa1, 0x3c, 
 0xe7, 0xfd, 0x03, 0xf1, 0x1d, 0xce, 0xc1, 0xf5, 0x2c, 0x3f, 0x01, 0xbd, 
 0x31, 0xb6, 0xc0, 0x64, 0x05, 0x32, 0x81, 0xc7, 0x34, 0x3b, 0xcf, 0xb5, 
 0xc9, 0x32, 0xc6, 0xdb, 0x0e, 0xf9, 0xff, 0xff, 0x04, 0x00, 0x00, 0x00, 
 0x80, 0x00, 0x00, 0x00, 0xd7, 0xdc, 0xff, 0xff, 0xf9, 0xeb, 0xff, 0xff, 
 0x98, 0xeb, 0xff, 0xff, 0x45, 0xfe, 0xff, 0xff, 0x75, 0x0e, 0x00, 0x00, 
 0x60, 0x0e, 0x00, 0x00, 0xde, 0x05, 0x00, 0x00, 0xb8, 0x0b, 0x00, 0x00, 
 0xea, 0xfa, 0xff, 0xff, 0xaa, 0xf5, 0xff, 0xff, 0x93, 0x02, 0x00, 0x00, 
 0x36, 0x11, 0x00, 0x00, 0x29, 0x06, 0x00, 0x00, 0xeb, 0x07, 0x00, 0x00, 
 0xba, 0xf2, 0xff, 0xff, 0xfc, 0xfa, 0xff, 0xff, 0x47, 0x11, 0x00, 0x00, 
 0x78, 0x0b, 0x00, 0x00, 0x18, 0xf5, 0xff, 0xff, 0x8e, 0xf2, 0xff, 0xff, 
 0x38, 0x08, 0x00, 0x00, 0x0f, 0x08, 0x00, 0x00, 0xce, 0x04, 0x00, 0x00, 
 0xb9, 0x21, 0x00, 0x00, 0x74, 0x16, 0x00, 0x00, 0x66, 0x05, 0x00, 0x00, 
 0xd3, 0x03, 0x00, 0x00, 0x7c, 0x0c, 0x00, 0x00, 0xe8, 0x0d, 0x00, 0x00, 
 0x6b, 0x0c, 0x00, 0x00, 0x8e, 0x02, 0x00, 0x00, 0xf2, 0x09, 0x00, 0x00, 
 0x9a, 0xf9, 0xff, 0xff, 0x04, 0x00, 0x00, 0x00, 0x00, 0x04, 0x00, 0x00, 
 0x27, 0xff, 0xd7, 0x7c, 0xa1, 0xea, 0x00, 0x89, 0x2d, 0x54, 0x21, 0x50, 
 0x48, 0x2d, 0x7e, 0xb5, 0xe4, 0xde, 0x73, 0x43, 0xa3, 0x14, 0x6b, 0xa9, 
 0x5e, 0xf3, 0xef, 0x93, 0x7f, 0xbf, 0x65, 0xc9, 0x96, 0xed, 0x08, 0xfb, 
 0x7f, 0x5e, 0x5b, 0xc5, 0xb5, 0xb2, 0x27, 0x09, 0xce, 0x71, 0x9e, 0x2c, 
 0x5c, 0x1b, 0x43, 0x99, 0x4c, 0x7d, 0xca, 0x95, 0x2d, 0x3a, 0x3f, 0x35, 
 0x69, 0xdc, 0x70, 0x64, 0xdc, 0x67, 0x19, 0x6b, 0x4c, 0x7f, 0xb3, 0x56, 
 0x5f, 0xb4, 0x29, 0xbc, 0x9f, 0x18, 0xcf, 0xf3, 0x23, 0x3b, 0xd2, 0xcd, 
 0x40, 0x1c, 0xd6, 0x57, 0xfc, 0x31, 0xdc, 0xf9, 0x3d, 0x68, 0xfc, 0x0f, 
 0x7f, 0x2c, 0xac, 0xdc, 0xb4, 0xf7, 0xb5, 0xcd, 0xf6, 0xec, 0x13, 0xde, 
 0x71, 0x9b, 0xe9, 0x47, 0x15, 0xb8, 0x4c, 0x2b, 0x66, 0xc1, 0xf9, 0xd3, 
 0x73, 0xea, 0x75, 0xca, 0xd3, 0xe2, 0xe1, 0x6d, 0x3b, 0xa3, 0xac, 0x0f, 
 0xfb, 0xcd, 0x2f, 0xe5, 0x57, 0x45, 0x4d, 0x0b, 0x3f, 0xad, 0x29, 0xe7, 
 0x5b, 0x38, 0xfc, 0x99, 0xfa, 0xb4, 0x41, 0xe5, 0x69, 0xe9, 0x4b, 0x7f, 
 0xfc, 0x35, 0xc9, 0x59, 0x23, 0xed, 0x05, 0xaa, 0x36, 0xb3, 0xdd, 0x14, 
 0xed, 0x24, 0xbf, 0x2a, 0xcc, 0x4d, 0xef, 0x13, 0xea, 0xfe, 0x0e, 0x1f, 
 0x73, 0x24, 0x6c, 0x7f, 0x0f, 0x2a, 0x0e, 0x31, 0xb2, 0x36, 0xb5, 0x34, 
 0xf3, 0x49, 0xff, 0x18, 0x1b, 0xf9, 0x4e, 0xad, 0x43, 0x79, 0xb0, 0x81, 
 0x11, 0xf3, 0x24, 0x19, 0xf2, 0x36, 0x59, 0xe8, 0x53, 0xf3, 0xb9, 0xd3, 
 0x75, 0xc1, 0xce, 0xce, 0xee, 0x0a, 0x70, 0x74, 0xad, 0x44, 0xd3, 0x5a, 
 0x2c, 0x6a, 0x31, 0x22, 0xb9, 0x5d, 0x24, 0xa9, 0xfb, 0x61, 0x64, 0x07, 
 0x15, 0xdb, 0x09, 0x67, 0x69, 0x22, 0x30, 0x59, 0xdd, 0x4c, 0x43, 0x00, 
 0x54, 0x7f, 0x6f, 0x9f, 0x41, 0xb9, 0x39, 0xfd, 0x50, 0x68, 0xfc, 0x31, 
 0x09, 0xa9, 0xab, 0xba, 0xd2, 0x66, 0xcd, 0x2f, 0xa7, 0xdf, 0x4a, 0xe1, 
 0xc5, 0x53, 0xf3, 0x15, 0x3a, 0xf3, 0xf1, 0x3c, 0x60, 0x7f, 0x09, 0xf3, 
 0x98, 0xb6, 0x6d, 0x3a, 0x2e, 0x0a, 0xcc, 0x0a, 0xb5, 0xe3, 0xfb, 0x6d, 
 0x43, 0x7f, 0x1d, 0x27, 0x71, 0xe1, 0x08, 0xf1, 0x6f, 0x1d, 0x2d, 0x04, 
 0x37, 0xfd, 0x31, 0x59, 0x07, 0xc7, 0x3e, 0x01, 0xa1, 0x8a, 0xc4, 0x2c, 
 0x03, 0x60, 0x1e, 0xe9, 0x2b, 0xa9, 0xab, 0xce, 0xae, 0x06, 0xce, 0x4b, 
 0xde, 0xa3, 0x30, 0x7e, 0xff, 0xae, 0x6d, 0x81, 0x00, 0xe8, 0xa1, 0x1c, 
 0xda, 0xea, 0x1a, 0x3a, 0xd7, 0x4d, 0x78, 0x1f, 0x08, 0xab, 0x1a, 0xe7, 
 0xbb, 0x6e, 0xed, 0xdd, 0x93, 0xa6, 0x81, 0xbf, 0xff, 0x63, 0x48, 0xfe, 
 0x26, 0xed, 0x73, 0x75, 0x70, 0xa3, 0x13, 0xf6, 0xd1, 0xce, 0xeb, 0x35, 
 0x54, 0x73, 0x48, 0x9e, 0x25, 0xd2, 0x3b, 0xd2, 0xcd, 0x94, 0xa7, 0xda, 
 0x43, 0xc1, 0x33, 0xd6, 0x7f, 0x7a, 0xb8, 0x66, 0xa8, 0xcd, 0x7c, 0x08, 
 0x33, 0x27, 0x79, 0x6e, 0xef, 0x41, 0xf8, 0xa9, 0x88, 0x87, 0x7b, 0xcc, 
 0x36, 0xdf, 0xe2, 0x19, 0xf9, 0x6f, 0xcf, 0xe3, 0x45, 0xfc, 0x9c, 0xa9, 
 0xa7, 0x48, 0x7b, 0xe8, 0xde, 0x5e, 0x63, 0x92, 0x9b, 0x1b, 0x66, 0xf8, 
 0x33, 0x81, 0x99, 0x06, 0xdc, 0x07, 0xcf, 0xf8, 0x9b, 0xe3, 0xe0, 0x81, 
 0xba, 0xab, 0x2b, 0x92, 0xd3, 0x3d, 0xd6, 0x94, 0xab, 0x86, 0x75, 0xc7, 
 0x56, 0xa4, 0x43, 0xc3, 0xe7, 0x0f, 0xc0, 0x4b, 0x2e, 0x45, 0x41, 0xe4, 
 0x56, 0x95, 0xcb, 0xdc, 0xdc, 0x38, 0x28, 0xa7, 0x6f, 0xeb, 0xe2, 0x73, 
 0x6a, 0x13, 0xd2, 0x7c, 0xe1, 0xb7, 0x5e, 0x5b, 0x18, 0x9b, 0x93, 0xc5, 
 0x2f, 0x2a, 0xeb, 0xbc, 0xc2, 0xe0, 0x7f, 0xb4, 0xd8, 0x16, 0xb1, 0x68, 
 0xf5, 0x6e, 0x49, 0xb4, 0x12, 0x10, 0xcd, 0x7e, 0x30, 0x32, 0x35, 0xa4, 
 0xda, 0xed, 0x7f, 0x1d, 0xfb, 0x12, 0xe6, 0x5b, 0xba, 0xd7, 0x05, 0xc8, 
 0x47, 0xc2, 0x3c, 0xdb, 0xb9, 0xe2, 0xe2, 0x5b, 0x36, 0xb9, 0xfd, 0x7f, 
 0x27, 0xad, 0x10, 0x22, 0x4b, 0x41, 0xcc, 0x4f, 0x61, 0x1d, 0xcd, 0xc2, 
 0x03, 0xd1, 0xce, 0x47, 0xd7, 0x58, 0x66, 0x68, 0x4f, 0xc8, 0x6d, 0xdc, 
 0x78, 0x07, 0x51, 0x0a, 0x8b, 0x5f, 0x13, 0x61, 0x35, 0x7f, 0x40, 0xe6, 
 0x93, 0xe1, 0x2f, 0xb3, 0x61, 0x99, 0x64, 0xac, 0x31, 0x06, 0x17, 0xff, 
 0x2d, 0x8c, 0x10, 0xf3, 0x4f, 0x65, 0x03, 0xb6, 0xf0, 0xf1, 0x28, 0xb4, 
 0xbe, 0x53, 0x5a, 0xf1, 0x67, 0x17, 0x35, 0x2b, 0xfb, 0xcf, 0x22, 0x7f, 
 0x3a, 0x89, 0xff, 0xa9, 0x51, 0x55, 0x07, 0x7d, 0x09, 0xde, 0xca, 0xed, 
 0x7f, 0x44, 0xa4, 0xaf, 0x8c, 0xe4, 0xeb, 0xf4, 0x0a, 0x47, 0x52, 0xe8, 
 0xf0, 0xf9, 0x3b, 0xce, 0x5b, 0xcc, 0xdc, 0x7f, 0x7e, 0x3b, 0x31, 0x8a, 
 0x25, 0xf6, 0xe6, 0x1c, 0xe1, 0xbb, 0x22, 0x9c, 0x3b, 0x40, 0x16, 0x9d, 
 0x28, 0xa3, 0x9b, 0x31, 0x32, 0x11, 0x5f, 0x05, 0x01, 0x66, 0x44, 0xae, 
 0x40, 0x81, 0x64, 0x15, 0xd1, 0x94, 0x7b, 0x0a, 0xec, 0x26, 0xdf, 0xc7, 
 0xe5, 0x60, 0x2a, 0xbd, 0xa1, 0x0c, 0x40, 0xc3, 0xaa, 0x9d, 0xae, 0xe3, 
 0x1c, 0xae, 0x39, 0x71, 0x30, 0x22, 0x7f, 0xfd, 0x4b, 0x52, 0x9a, 0x4d, 
 0x24, 0x1f, 0x74, 0x02, 0x0a, 0x45, 0x53, 0x2a, 0xd7, 0x36, 0x4c, 0xc7, 
 0xa1, 0xc0, 0x69, 0xe8, 0x23, 0x7f, 0x91, 0x19, 0x91, 0xbf, 0x14, 0x67, 
 0xb9, 0x0d, 0xc9, 0x4a, 0xc1, 0x72, 0xfd, 0xbc, 0x56, 0x8a, 0x40, 0x39, 
 0xbf, 0x45, 0x66, 0x87, 0x29, 0x07, 0xf7, 0x93, 0x8c, 0x0e, 0x72, 0xd4, 
 0xc5, 0x74, 0x04, 0x77, 0x46, 0xdd, 0x21, 0xc5, 0x76, 0x46, 0x5a, 0x1e, 
 0xed, 0xb1, 0x33, 0xac, 0xae, 0xb0, 0x7f, 0x79, 0xd3, 0xc5, 0x69, 0xfb, 
 0xc9, 0x19, 0x53, 0xcf, 0xee, 0x05, 0xbd, 0xf6, 0xfc, 0x97, 0xf1, 0x13, 
 0x3c, 0x65, 0x42, 0x1d, 0x4d, 0xa0, 0x7f, 0x07, 0x63, 0xa7, 0xbf, 0xcd, 
 0x68, 0x32, 0xf1, 0xdf, 0x4e, 0x76, 0x71, 0xfd, 0x3e, 0xb9, 0xfc, 0xe3, 
 0xfb, 0x2b, 0x09, 0x5d, 0x98, 0x46, 0xf5, 0x6c, 0x81, 0x84, 0xd9, 0x30, 
 0xe6, 0x0e, 0xb5, 0x10, 0x49, 0x03, 0xf3, 0x94, 0xcb, 0x60, 0xf7, 0xa9, 
 0x8a, 0xcc, 0x0c, 0x97, 0xe1, 0x9e, 0xa3, 0x67, 0x56, 0x75, 0xfb, 0xc8, 
 0x57, 0xd5, 0x38, 0x41, 0x47, 0x15, 0xe2, 0xa6, 0xf1, 0xbe, 0x32, 0x44, 
 0xc1, 0x7f, 0xef, 0xf7, 0x78, 0x15, 0x94, 0xca, 0x7e, 0x39, 0x3c, 0x0d, 
 0xe5, 0x05, 0xdf, 0x14, 0x38, 0x5c, 0x3e, 0x08, 0x10, 0x1f, 0xf1, 0xc4, 
 0x49, 0x7a, 0x47, 0x7f, 0x29, 0x4d, 0x47, 0xb0, 0x69, 0x14, 0xbd, 0x40, 
 0x43, 0x2d, 0xf1, 0xa3, 0x25, 0xf8, 0x0d, 0x3b, 0x12, 0x67, 0xe3, 0xf1, 
 0x9b, 0x70, 0x34, 0xa9, 0xa0, 0xba, 0xa1, 0x14, 0xf6, 0x45, 0x65, 0x17, 
 0xd4, 0x00, 0x78, 0xd7, 0x6d, 0x25, 0x0b, 0xfc, 0x58, 0xc7, 0xb4, 0x23, 
 0xf6, 0xeb, 0x7f, 0x59, 0x37, 0xe1, 0x63, 0xd8, 0x42, 0x36, 0xc8, 0xf2, 
 0x43, 0x2a, 0x1d, 0x5c, 0x78, 0xe9, 0x70, 0x36, 0xe6, 0xf3, 0x0e, 0xbb, 
 0xf7, 0xc9, 0xa4, 0x30, 0x0a, 0xfe, 0x9c, 0xbc, 0x1a, 0xc0, 0xd6, 0x36, 
 0x0a, 0xbf, 0xef, 0x7f, 0x2d, 0xd1, 0x1b, 0xe0, 0x9d, 0x06, 0xb5, 0x95, 
 0x47, 0x94, 0x3b, 0xdf, 0x85, 0x93, 0xc0, 0x3f, 0x57, 0x88, 0x30, 0x7f, 
 0x30, 0xd8, 0xd8, 0x97, 0xd6, 0xb0, 0x5a, 0x54, 0x3e, 0x86, 0x97, 0x1d, 
 0x7f, 0x0f, 0x19, 0x0d, 0xa6, 0xfd, 0xff, 0xff, 0x04, 0x00, 0x00, 0x00, 
 0x80, 0x00, 0x00, 0x00, 0x5e, 0xfe, 0xff, 0xff, 0x4c, 0x0a, 0x00, 0x00, 
 0xd0, 0x09, 0x00, 0x00, 0x00, 0x02, 0x00, 0x00, 0x04, 0x09, 0x00, 0x00, 
 0xe2, 0x0d, 0x00, 0x00, 0x86, 0xf7, 0xff, 0xff, 0x35, 0x08, 0x00, 0x00, 
 0x58, 0x0b, 0x00, 0x00, 0xc9, 0x08, 0x00, 0x00, 0x80, 0xf8, 0xff, 0xff, 
 0xdf, 0x07, 0x00, 0x00, 0xa8, 0x0a, 0x00, 0x00, 0x04, 0xf8, 0xff, 0xff, 
 0xf8, 0xf8, 0xff, 0xff, 0x7f, 0x05, 0x00, 0x00, 0x79, 0xfe, 0xff, 0xff, 
 0x92, 0x0a, 0x00, 0x00, 0xea, 0xf8, 0xff, 0xff, 0xa2, 0xf6, 0xff, 0xff, 
 0x40, 0x11, 0x00, 0x00, 0x1f, 0xf9, 0xff, 0xff, 0x09, 0x0a, 0x00, 0x00, 
 0x65, 0xfd, 0xff, 0xff, 0xf0, 0xfb, 0xff, 0xff, 0x55, 0x08, 0x00, 0x00, 
 0x3a, 0xfd, 0xff, 0xff, 0x24, 0x09, 0x00, 0x00, 0x48, 0x08, 0x00, 0x00, 
 0x89, 0x0a, 0x00, 0x00, 0xa5, 0x0f, 0x00, 0x00, 0xd5, 0xfa, 0xff, 0xff, 
 0x32, 0xfe, 0xff, 0xff, 0x04, 0x00, 0x00, 0x00, 0x40, 0x00, 0x00, 0x00, 
 0xc1, 0x69, 0xcb, 0x01, 0x26, 0xa4, 0x50, 0x02, 0x78, 0xe3, 0xf4, 0xda, 
 0x34, 0xb8, 0xd0, 0x24, 0x09, 0xec, 0xdb, 0xb7, 0x44, 0xf2, 0xee, 0x9e, 
 0xd7, 0x4f, 0x9f, 0x30, 0x72, 0x7f, 0x15, 0xbd, 0x1b, 0x11, 0x95, 0x27, 
 0xcd, 0x81, 0x6a, 0xc4, 0xd6, 0xa9, 0x34, 0xa1, 0x1b, 0xc4, 0x68, 0x5f, 
 0x20, 0xb6, 0xf4, 0x1a, 0xbc, 0x3c, 0x82, 0x51, 0x2d, 0xa3, 0x69, 0xfa, 
 0x06, 0x03, 0xb8, 0x73, 0x7e, 0xfe, 0xff, 0xff, 0x04, 0x00, 0x00, 0x00, 
 0x08, 0x00, 0x00, 0x00, 0x4f, 0x03, 0x00, 0x00, 0x68, 0xfc, 0xff, 0xff, 
 0x92, 0xfe, 0xff, 0xff, 0x04, 0x00, 0x00, 0x00, 0x04, 0x00, 0x00, 0x00, 
 0x01, 0x00, 0x00, 0x00, 0xa2, 0xfe, 0xff, 0xff, 0x04, 0x00, 0x00, 0x00, 
 0x0c, 0x00, 0x00, 0x00, 0xff, 0xff, 0xff, 0xff, 0x80, 0x00, 0x00, 0x00, 
 0x20, 0x00, 0x00, 0x00, 0xba, 0xfe, 0xff, 0xff, 0x04, 0x00, 0x00, 0x00, 
 0x0c, 0x00, 0x00, 0x00, 0xff, 0xff, 0xff, 0xff, 0x00, 0x01, 0x00, 0x00, 
 0x20, 0x00, 0x00, 0x00, 0xd2, 0xfe, 0xff, 0xff, 0x04, 0x00, 0x00, 0x00, 
 0x0c, 0x00, 0x00, 0x00, 0xff, 0xff, 0xff, 0xff, 0x00, 0x01, 0x00, 0x00, 
 0x10, 0x00, 0x00, 0x00, 0xea, 0xfe, 0xff, 0xff, 0x04, 0x00, 0x00, 0x00, 
 0x04, 0x00, 0x00, 0x00, 0x02, 0x00, 0x00, 0x00, 0xfa, 0xfe, 0xff, 0xff, 
 0x04, 0x00, 0x00, 0x00, 0x0c, 0x00, 0x00, 0x00, 0xff, 0xff, 0xff, 0xff, 
 0x00, 0x02, 0x00, 0x00, 0x10, 0x00, 0x00, 0x00, 0x12, 0xff, 0xff, 0xff, 
 0x04, 0x00, 0x00, 0x00, 0x04, 0x00, 0x00, 0x00, 0xfd, 0xff, 0xff, 0xff, 
 0x48, 0xe2, 0xff, 0xff, 0x4c, 0xe2, 0xff, 0xff, 0x0f, 0x00, 0x00, 0x00, 
 0x4d, 0x4c, 0x49, 0x52, 0x20, 0x43, 0x6f, 0x6e, 0x76, 0x65, 0x72, 0x74, 
 0x65, 0x64, 0x2e, 0x00, 0x01, 0x00, 0x00, 0x00, 0x14, 0x00, 0x00, 0x00, 
 0x00, 0x00, 0x0e, 0x00, 0x18, 0x00, 0x14, 0x00, 0x10, 0x00, 0x0c, 0x00, 
 0x08, 0x00, 0x04, 0x00, 0x0e, 0x00, 0x00, 0x00, 0x14, 0x00, 0x00, 0x00, 
 0x1c, 0x00, 0x00, 0x00, 0x10, 0x04, 0x00, 0x00, 0x14, 0x04, 0x00, 0x00, 
 0x18, 0x04, 0x00, 0x00, 0x04, 0x00, 0x00, 0x00, 0x6d, 0x61, 0x69, 0x6e, 
 0x00, 0x00, 0x00, 0x00, 0x12, 0x00, 0x00, 0x00, 0xd8, 0x03, 0x00, 0x00, 
 0x98, 0x03, 0x00, 0x00, 0x38, 0x03, 0x00, 0x00, 0x10, 0x03, 0x00, 0x00, 
 0xd0, 0x02, 0x00, 0x00, 0x7c, 0x02, 0x00, 0x00, 0x54, 0x02, 0x00, 0x00, 
 0x20, 0x02, 0x00, 0x00, 0xdc, 0x01, 0x00, 0x00, 0xb4, 0x01, 0x00, 0x00, 
 0x80, 0x01, 0x00, 0x00, 0x3c, 0x01, 0x00, 0x00, 0x14, 0x01, 0x00, 0x00, 
 0xe0, 0x00, 0x00, 0x00, 0x9c, 0x00, 0x00, 0x00, 0x64, 0x00, 0x00, 0x00, 
 0x28, 0x00, 0x00, 0x00, 0x04, 0x00, 0x00, 0x00, 0x36, 0xfd, 0xff, 0xff, 
 0x0c, 0x00, 0x00, 0x00, 0x10, 0x00, 0x00, 0x00, 0x08, 0x00, 0x00, 0x00, 
 0x01, 0x00, 0x00, 0x00, 0x21, 0x00, 0x00, 0x00, 0x01, 0x00, 0x00, 0x00, 
 0x20, 0x00, 0x00, 0x00, 0xda, 0xfc, 0xff, 0xff, 0x1c, 0x00, 0x00, 0x00, 
 0x00, 0x00, 0x00, 0x09, 0x1c, 0x00, 0x00, 0x00, 0x20, 0x00, 0x00, 0x00, 
 0x07, 0x00, 0x00, 0x00, 0x00, 0x00, 0x06, 0x00, 0x08, 0x00, 0x04, 0x00, 
 0x06, 0x00, 0x00, 0x00, 0x00, 0x00, 0x80, 0x3f, 0x01, 0x00, 0x00, 0x00, 
 0x20, 0x00, 0x00, 0x00, 0x01, 0x00, 0x00, 0x00, 0x1f, 0x00, 0x00, 0x00, 
 0x12, 0xfd, 0xff, 0xff, 0x14, 0x00, 0x00, 0x00, 0x00, 0x00, 0x00, 0x08, 
 0x10, 0x00, 0x00, 0x00, 0x14, 0x00, 0x00, 0x00, 0x06, 0x00, 0x00, 0x00, 
 0x5c, 0xe3, 0xff, 0xff, 0x01, 0x00, 0x00, 0x00, 0x1f, 0x00, 0x00, 0x00, 
 0x03, 0x00, 0x00, 0x00, 0x1e, 0x00, 0x00, 0x00, 0x09, 0x00, 0x00, 0x00, 
 0x08, 0x00, 0x00, 0x00, 0x46, 0xfd, 0xff, 0xff, 0x1c, 0x00, 0x00, 0x00, 
 0x00, 0x00, 0x00, 0x08, 0x1c, 0x00, 0x00, 0x00, 0x20, 0x00, 0x00, 0x00, 
 0x06, 0x00, 0x00, 0x00, 0x00, 0x00, 0x06, 0x00, 0x08, 0x00, 0x07, 0x00, 
 0x06, 0x00, 0x00, 0x00, 0x00, 0x00, 0x00, 0x01, 0x01, 0x00, 0x00, 0x00, 
 0x1e, 0x00, 0x00, 0x00, 0x03, 0x00, 0x00, 0x00, 0x1d, 0x00, 0x00, 0x00, 
 0x0b, 0x00, 0x00, 0x00, 0x0a, 0x00, 0x00, 0x00, 0x86, 0xfd, 0xff, 0xff, 
 0x14, 0x00, 0x00, 0x00, 0x00, 0x00, 0x00, 0x1b, 0x10, 0x00, 0x00, 0x00, 
 0x14, 0x00, 0x00, 0x00, 0x05, 0x00, 0x00, 0x00, 0xd0, 0xe3, 0xff, 0xff, 
 0x01, 0x00, 0x00, 0x00, 0x1d, 0x00, 0x00, 0x00, 0x02, 0x00, 0x00, 0x00, 
 0x1c, 0x00, 0x00, 0x00, 0x07, 0x00, 0x00, 0x00, 0x32, 0xfe, 0xff, 0xff, 
 0x0c, 0x00, 0x00, 0x00, 0x10, 0x00, 0x00, 0x00, 0x03, 0x00, 0x00, 0x00, 
 0x01, 0x00, 0x00, 0x00, 0x1c, 0x00, 0x00, 0x00, 0x02, 0x00, 0x00, 0x00, 
 0x1b, 0x00, 0x00, 0x00, 0x06, 0x00, 0x00, 0x00, 0xda, 0xfd, 0xff, 0xff, 
 0x14, 0x00, 0x00, 0x00, 0x00, 0x00, 0x00, 0x05, 0x24, 0x00, 0x00, 0x00, 
 0x28, 0x00, 0x00, 0x00, 0x04, 0x00, 0x00, 0x00, 0xd6, 0xfe, 0xff, 0xff, 
 0x02, 0x00, 0x00, 0x00, 0x01, 0x00, 0x00, 0x00, 0x02, 0x00, 0x00, 0x00, 
 0x01, 0x00, 0x00, 0x00, 0x00, 0x00, 0x00, 0x01, 0x01, 0x00, 0x00, 0x00, 
 0x1b, 0x00, 0x00, 0x00, 0x01, 0x00, 0x00, 0x00, 0x1a, 0x00, 0x00, 0x00, 
 0x1a, 0xfe, 0xff, 0xff, 0x14, 0x00, 0x00, 0x00, 0x00, 0x00, 0x00, 0x34, 
 0x10, 0x00, 0x00, 0x00, 0x14, 0x00, 0x00, 0x00, 0x01, 0x00, 0x00, 0x00, 
 0x64, 0xe4, 0xff, 0xff, 0x01, 0x00, 0x00, 0x00, 0x1a, 0x00, 0x00, 0x00, 
 0x02, 0x00, 0x00, 0x00, 0x19, 0x00, 0x00, 0x00, 0x03, 0x00, 0x00, 0x00, 
 0xc6, 0xfe, 0xff, 0xff, 0x0c, 0x00, 0x00, 0x00, 0x10, 0x00, 0x00, 0x00, 
 0x03, 0x00, 0x00, 0x00, 0x01, 0x00, 0x00, 0x00, 0x19, 0x00, 0x00, 0x00, 
 0x02, 0x00, 0x00, 0x00, 0x18, 0x00, 0x00, 0x00, 0x05, 0x00, 0x00, 0x00, 
 0x6e, 0xfe, 0xff, 0xff, 0x14, 0x00, 0x00, 0x00, 0x00, 0x00, 0x00, 0x01, 
 0x1c, 0x00, 0x00, 0x00, 0x20, 0x00, 0x00, 0x00, 0x02, 0x00, 0x00, 0x00, 
 0xbc, 0xfe, 0xff, 0xff, 0x00, 0x00, 0x00, 0x01, 0x01, 0x00, 0x00, 0x00, 
 0x01, 0x00, 0x00, 0x00, 0x01, 0x00, 0x00, 0x00, 0x18, 0x00, 0x00, 0x00, 
 0x03, 0x00, 0x00, 0x00, 0x17, 0x00, 0x00, 0x00, 0x0d, 0x00, 0x00, 0x00, 
 0x0c, 0x00, 0x00, 0x00, 0xae, 0xfe, 0xff, 0xff, 0x14, 0x00, 0x00, 0x00, 
 0x00, 0x00, 0x00, 0x34, 0x10, 0x00, 0x00, 0x00, 0x14, 0x00, 0x00, 0x00, 
 0x01, 0x00, 0x00, 0x00, 0xf8, 0xe4, 0xff, 0xff, 0x01, 0x00, 0x00, 0x00, 
 0x17, 0x00, 0x00, 0x00, 0x02, 0x00, 0x00, 0x00, 0x16, 0x00, 0x00, 0x00, 
 0x01, 0x00, 0x00, 0x00, 0x5a, 0xff, 0xff, 0xff, 0x0c, 0x00, 0x00, 0x00, 
 0x10, 0x00, 0x00, 0x00, 0x03, 0x00, 0x00, 0x00, 0x01, 0x00, 0x00, 0x00, 
 0x16, 0x00, 0x00, 0x00, 0x02, 0x00, 0x00, 0x00, 0x15, 0x00, 0x00, 0x00, 
 0x04, 0x00, 0x00, 0x00, 0x02, 0xff, 0xff, 0xff, 0x24, 0x00, 0x00, 0x00, 
 0x00, 0x00, 0x00, 0x05, 0x34, 0x00, 0x00, 0x00, 0x38, 0x00, 0x00, 0x00, 
 0x04, 0x00, 0x00, 0x00, 0x00, 0x00, 0x0e, 0x00, 0x18, 0x00, 0x17, 0x00, 
 0x10, 0x00, 0x0c, 0x00, 0x08, 0x00, 0x04, 0x00, 0x0e, 0x00, 0x00, 0x00, 
 0x02, 0x00, 0x00, 0x00, 0x01, 0x00, 0x00, 0x00, 0x02, 0x00, 0x00, 0x00, 
 0x01, 0x00, 0x00, 0x00, 0x00, 0x00, 0x00, 0x01, 0x01, 0x00, 0x00, 0x00, 
 0x15, 0x00, 0x00, 0x00, 0x01, 0x00, 0x00, 0x00, 0x14, 0x00, 0x00, 0x00, 
 0x52, 0xff, 0xff, 0xff, 0x14, 0x00, 0x00, 0x00, 0x00, 0x00, 0x00, 0x34, 
 0x10, 0x00, 0x00, 0x00, 0x14, 0x00, 0x00, 0x00, 0x01, 0x00, 0x00, 0x00, 
 0x9c, 0xe5, 0xff, 0xff, 0x01, 0x00, 0x00, 0x00, 0x14, 0x00, 0x00, 0x00, 
 0x02, 0x00, 0x00, 0x00, 0x13, 0x00, 0x00, 0x00, 0x03, 0x00, 0x00, 0x00, 
 0x00, 0x00, 0x0a, 0x00, 0x10, 0x00, 0x0c, 0x00, 0x08, 0x00, 0x04, 0x00, 
 0x0a, 0x00, 0x00, 0x00, 0x0c, 0x00, 0x00, 0x00, 0x10, 0x00, 0x00, 0x00, 
 0x03, 0x00, 0x00, 0x00, 0x01, 0x00, 0x00, 0x00, 0x13, 0x00, 0x00, 0x00, 
 0x02, 0x00, 0x00, 0x00, 0x12, 0x00, 0x00, 0x00, 0x02, 0x00, 0x00, 0x00, 
 0xb2, 0xff, 0xff, 0xff, 0x20, 0x00, 0x00, 0x00, 0x00, 0x00, 0x00, 0x01, 
 0x28, 0x00, 0x00, 0x00, 0x2c, 0x00, 0x00, 0x00, 0x02, 0x00, 0x00, 0x00, 
 0x0c, 0x00, 0x10, 0x00, 0x00, 0x00, 0x0c, 0x00, 0x08, 0x00, 0x07, 0x00, 
 0x0c, 0x00, 0x00, 0x00, 0x00, 0x00, 0x00, 0x01, 0x01, 0x00, 0x00, 0x00, 
 0x01, 0x00, 0x00, 0x00, 0x01, 0x00, 0x00, 0x00, 0x12, 0x00, 0x00, 0x00, 
 0x03, 0x00, 0x00, 0x00, 0x11, 0x00, 0x00, 0x00, 0x0f, 0x00, 0x00, 0x00, 
 0x0e, 0x00, 0x00, 0x00, 0x00, 0x00, 0x0e, 0x00, 0x18, 0x00, 0x14, 0x00, 
 0x10, 0x00, 0x0c, 0x00, 0x0b, 0x00, 0x04, 0x00, 0x0e, 0x00, 0x00, 0x00, 
 0x14, 0x00, 0x00, 0x00, 0x00, 0x00, 0x00, 0x34, 0x10, 0x00, 0x00, 0x00, 
 0x14, 0x00, 0x00, 0x00, 0x01, 0x00, 0x00, 0x00, 0x58, 0xe6, 0xff, 0xff, 
 0x01, 0x00, 0x00, 0x00, 0x11, 0x00, 0x00, 0x00, 0x02, 0x00, 0x00, 0x00, 
 0x10, 0x00, 0x00, 0x00, 0x01, 0x00, 0x00, 0x00, 0x00, 0x00, 0x0a, 0x00, 
 0x0c, 0x00, 0x00, 0x00, 0x08, 0x00, 0x04, 0x00, 0x0a, 0x00, 0x00, 0x00, 
 0x08, 0x00, 0x00, 0x00, 0x0c, 0x00, 0x00, 0x00, 0x01, 0x00, 0x00, 0x00, 
 0x10, 0x00, 0x00, 0x00, 0x01, 0x00, 0x00, 0x00, 0x00, 0x00, 0x00, 0x00, 
 0x01, 0x00, 0x00, 0x00, 0x21, 0x00, 0x00, 0x00, 0x01, 0x00, 0x00, 0x00, 
 0x00, 0x00, 0x00, 0x00, 0x22, 0x00, 0x00, 0x00, 0x28, 0x19, 0x00, 0x00, 
 0xd4, 0x18, 0x00, 0x00, 0x7c, 0x18, 0x00, 0x00, 0x40, 0x18, 0x00, 0x00, 
 0x00, 0x18, 0x00, 0x00, 0xc0, 0x17, 0x00, 0x00, 0x80, 0x17, 0x00, 0x00, 
 0x44, 0x17, 0x00, 0x00, 0xcc, 0x16, 0x00, 0x00, 0x5c, 0x16, 0x00, 0x00, 
 0x88, 0x14, 0x00, 0x00, 0xac, 0x12, 0x00, 0x00, 0xd8, 0x10, 0x00, 0x00, 
 0xf4, 0x0e, 0x00, 0x00, 0xe0, 0x0d, 0x00, 0x00, 0xbc, 0x0c, 0x00, 0x00, 
 0x44, 0x0c, 0x00, 0x00, 0x94, 0x0b, 0x00, 0x00, 0x40, 0x0a, 0x00, 0x00, 
 0x10, 0x09, 0x00, 0x00, 0x80, 0x08, 0x00, 0x00, 0xec, 0x07, 0x00, 0x00, 
 0x64, 0x07, 0x00, 0x00, 0xcc, 0x06, 0x00, 0x00, 0x78, 0x05, 0x00, 0x00, 
 0x48, 0x04, 0x00, 0x00, 0xb8, 0x03, 0x00, 0x00, 0x24, 0x03, 0x00, 0x00, 
 0x9c, 0x02, 0x00, 0x00, 0x24, 0x02, 0x00, 0x00, 0x78, 0x01, 0x00, 0x00, 
 0xdc, 0x00, 0x00, 0x00, 0x60, 0x00, 0x00, 0x00, 0x04, 0x00, 0x00, 0x00, 
 0x76, 0xe7, 0xff, 0xff, 0x00, 0x00, 0x00, 0x01, 0x14, 0x00, 0x00, 0x00, 
 0x1c, 0x00, 0x00, 0x00, 0x1c, 0x00, 0x00, 0x00, 0x22, 0x00, 0x00, 0x00, 
 0x34, 0x00, 0x00, 0x00, 0x02, 0x00, 0x00, 0x00, 0xff, 0xff, 0xff, 0xff, 
 0x02, 0x00, 0x00, 0x00, 0x5c, 0xe7, 0xff, 0xff, 0x19, 0x00, 0x00, 0x00, 
 0x53, 0x74, 0x61, 0x74, 0x65, 0x66, 0x75, 0x6c, 0x50, 0x61, 0x72, 0x74, 
 0x69, 0x74, 0x69, 0x6f, 0x6e, 0x65, 0x64, 0x43, 0x61, 0x6c, 0x6c, 0x3a, 
 0x30, 0x00, 0x00, 0x00, 0x02, 0x00, 0x00, 0x00, 0x01, 0x00, 0x00, 0x00, 
 0x02, 0x00, 0x00, 0x00, 0x72, 0xf4, 0xff, 0xff, 0x00, 0x00, 0x00, 0x01, 
 0x18, 0x00, 0x00, 0x00, 0x20, 0x00, 0x00, 0x00, 0x3c, 0x00, 0x00, 0x00, 
 0x21, 0x00, 0x00, 0x00, 0x00, 0x00, 0x00, 0x09, 0x50, 0x00, 0x00, 0x00, 
 0x02, 0x00, 0x00, 0x00, 0xff, 0xff, 0xff, 0xff, 0x02, 0x00, 0x00, 0x00, 
 0x04, 0xea, 0xff, 0xff, 0x08, 0x00, 0x00, 0x00, 0x10, 0x00, 0x00, 0x00, 
 0x01, 0x00, 0x00, 0x00, 0x80, 0xff, 0xff, 0xff, 0xff, 0xff, 0xff, 0xff, 
 0x01, 0x00, 0x00, 0x00, 0x00, 0x00, 0x80, 0x3b, 0x1a, 0x00, 0x00, 0x00, 
 0x53, 0x74, 0x61, 0x74, 0x65, 0x66, 0x75, 0x6c, 0x50, 0x61, 0x72, 0x74, 
 0x69, 0x74, 0x69, 0x6f, 0x6e, 0x65, 0x64, 0x43, 0x61, 0x6c, 0x6c, 0x3a, 
 0x30, 0x31, 0x00, 0x00, 0x02, 0x00, 0x00, 0x00, 0x01, 0x00, 0x00, 0x00, 
 0x02, 0x00, 0x00, 0x00, 0xea, 0xf4, 0xff, 0xff, 0x00, 0x00, 0x00, 0x01, 
 0x18, 0x00, 0x00, 0x00, 0x20, 0x00, 0x00, 0x00, 0x40, 0x00, 0x00, 0x00, 
 0x20, 0x00, 0x00, 0x00, 0x00, 0x00, 0x00, 0x09, 0x70, 0x00, 0x00, 0x00, 
 0x02, 0x00, 0x00, 0x00, 0xff, 0xff, 0xff, 0xff, 0x02, 0x00, 0x00, 0x00, 
 0x7c, 0xea, 0xff, 0xff, 0x08, 0x00, 0x00, 0x00, 0x14, 0x00, 0x00, 0x00, 
 0x01, 0x00, 0x00, 0x00, 0x12, 0x00, 0x00, 0x00, 0x00, 0x00, 0x00, 0x00, 
 0x00, 0x00, 0x00, 0x00, 0x01, 0x00, 0x00, 0x00, 0x3a, 0x7d, 0x78, 0x3c, 
 0x34, 0x00, 0x00, 0x00, 0x63, 0x6e, 0x6e, 0x31, 0x64, 0x5f, 0x62, 0x6c, 
 0x6f, 0x63, 0x6b, 0x73, 0x32, 0x2f, 0x70, 0x72, 0x65, 0x64, 0x2f, 0x4d, 
 0x61, 0x74, 0x4d, 0x75, 0x6c, 0x3b, 0x63, 0x6e, 0x6e, 0x31, 0x64, 0x5f, 
 0x62, 0x6c, 0x6f, 0x63, 0x6b, 0x73, 0x32, 0x2f, 0x70, 0x72, 0x65, 0x64, 
 0x2f, 0x42, 0x69, 0x61, 0x73, 0x41, 0x64, 0x64, 0x00, 0x00, 0x00, 0x00, 
 0x02, 0x00, 0x00, 0x00, 0x01, 0x00, 0x00, 0x00, 0x02, 0x00, 0x00, 0x00, 
 0x82, 0xf5, 0xff, 0xff, 0x00, 0x00, 0x00, 0x01, 0x18, 0x00, 0x00, 0x00, 
 0x20, 0x00, 0x00, 0x00, 0x40, 0x00, 0x00, 0x00, 0x1f, 0x00, 0x00, 0x00, 
 0x00, 0x00, 0x00, 0x09, 0x80, 0x00, 0x00, 0x00, 0x02, 0x00, 0x00, 0x00, 
 0xff, 0xff, 0xff, 0xff, 0x20, 0x00, 0x00, 0x00, 0x14, 0xeb, 0xff, 0xff, 
 0x08, 0x00, 0x00, 0x00, 0x14, 0x00, 0x00, 0x00, 0x01, 0x00, 0x00, 0x00, 
 0x80, 0xff, 0xff, 0xff, 0xff, 0xff, 0xff, 0xff, 0x00, 0x00, 0x00, 0x00, 
 0x01, 0x00, 0x00, 0x00, 0x24, 0x57, 0x20, 0x3c, 0x46, 0x00, 0x00, 0x00, 
 0x63, 0x6e, 0x6e, 0x31, 0x64, 0x5f, 0x62, 0x6c, 0x6f, 0x63, 0x6b, 0x73, 
 0x32, 0x2f, 0x66, 0x63, 0x2f, 0x4d, 0x61, 0x74, 0x4d, 0x75, 0x6c, 0x3b, 
 0x63, 0x6e, 0x6e, 0x31, 0x64, 0x5f, 0x62, 0x6c, 0x6f, 0x63, 0x6b, 0x73, 
 0x32, 0x2f, 0x66, 0x63, 0x2f, 0x52, 0x65, 0x6c, 0x75, 0x3b, 0x63, 0x6e, 
 0x6e, 0x31, 0x64, 0x5f, 0x62, 0x6c, 0x6f, 0x63, 0x6b, 0x73, 0x32, 0x2f, 
 0x66, 0x63, 0x2f, 0x42, 0x69, 0x61, 0x73, 0x41, 0x64, 0x64, 0x00, 0x00, 
 0x02, 0x00, 0x00, 0x00, 0x01, 0x00, 0x00, 0x00, 0x20, 0x00, 0x00, 0x00, 
 0x2a, 0xf6, 0xff, 0xff, 0x00, 0x00, 0x00, 0x01, 0x18, 0x00, 0x00, 0x00, 
 0x20, 0x00, 0x00, 0x00, 0x3c, 0x00, 0x00, 0x00, 0x1e, 0x00, 0x00, 0x00, 
 0x00, 0x00, 0x00, 0x09, 0x4c, 0x00, 0x00, 0x00, 0x02, 0x00, 0x00, 0x00, 
 0xff, 0xff, 0xff, 0xff, 0x20, 0x00, 0x00, 0x00, 0xbc, 0xeb, 0xff, 0xff, 
 0x08, 0x00, 0x00, 0x00, 0x10, 0x00, 0x00, 0x00, 0x01, 0x00, 0x00, 0x00, 
 0x80, 0xff, 0xff, 0xff, 0xff, 0xff, 0xff, 0xff, 0x01, 0x00, 0x00, 0x00, 
 0xc3, 0x1e, 0xc4, 0x3b, 0x16, 0x00, 0x00, 0x00, 0x63, 0x6e, 0x6e, 0x31, 
 0x64, 0x5f, 0x62, 0x6c, 0x6f, 0x63, 0x6b, 0x73, 0x32, 0x2f, 0x67, 0x61, 
 0x70, 0x2f, 0x4d, 0x65, 0x61, 0x6e, 0x00, 0x00, 0x02, 0x00, 0x00, 0x00, 
 0x01, 0x00, 0x00, 0x00, 0x20, 0x00, 0x00, 0x00, 0x9e, 0xf6, 0xff, 0xff, 
 0x00, 0x00, 0x00, 0x01, 0x18, 0x00, 0x00, 0x00, 0x24, 0x00, 0x00, 0x00, 
 0x40, 0x00, 0x00, 0x00, 0x1d, 0x00, 0x00, 0x00, 0x00, 0x00, 0x00, 0x09, 
 0x58, 0x00, 0x00, 0x00, 0x03, 0x00, 0x00, 0x00, 0xff, 0xff, 0xff, 0xff, 
 0x80, 0x00, 0x00, 0x00, 0x20, 0x00, 0x00, 0x00, 0x34, 0xec, 0xff, 0xff, 
 0x08, 0x00, 0x00, 0x00, 0x10, 0x00, 0x00, 0x00, 0x01, 0x00, 0x00, 0x00, 
 0x80, 0xff, 0xff, 0xff, 0xff, 0xff, 0xff, 0xff, 0x01, 0x00, 0x00, 0x00, 
 0x14, 0xcb, 0x84, 0x3d, 0x1c, 0x00, 0x00, 0x00, 0x63, 0x6e, 0x6e, 0x31, 
 0x64, 0x5f, 0x62, 0x6c, 0x6f, 0x63, 0x6b, 0x73, 0x32, 0x2f, 0x70, 0x6f, 
 0x6f, 0x6c, 0x5f, 0x32, 0x2f, 0x53, 0x71, 0x75, 0x65, 0x65, 0x7a, 0x65, 
 0x00, 0x00, 0x00, 0x00, 0x03, 0x00, 0x00, 0x00, 0x01, 0x00, 0x00, 0x00, 
 0x80, 0x00, 0x00, 0x00, 0x20, 0x00, 0x00, 0x00, 0x22, 0xf7, 0xff, 0xff, 
 0x00, 0x00, 0x00, 0x01, 0x18, 0x00, 0x00, 0x00, 0x28, 0x00, 0x00, 0x00, 
 0x48, 0x00, 0x00, 0x00, 0x1c, 0x00, 0x00, 0x00, 0x00, 0x00, 0x00, 0x09, 
 0x60, 0x00, 0x00, 0x00, 0x04, 0x00, 0x00, 0x00, 0xff, 0xff, 0xff, 0xff, 
 0x80, 0x00, 0x00, 0x00, 0x01, 0x00, 0x00, 0x00, 0x20, 0x00, 0x00, 0x00, 
 0xbc, 0xec, 0xff, 0xff, 0x08, 0x00, 0x00, 0x00, 0x14, 0x00, 0x00, 0x00, 
 0x01, 0x00, 0x00, 0x00, 0x80, 0xff, 0xff, 0xff, 0xff, 0xff, 0xff, 0xff, 
 0x00, 0x00, 0x00, 0x00, 0x01, 0x00, 0x00, 0x00, 0x14, 0xcb, 0x84, 0x3d, 
 0x1c, 0x00, 0x00, 0x00, 0x63, 0x6e, 0x6e, 0x31, 0x64, 0x5f, 0x62, 0x6c, 
 0x6f, 0x63, 0x6b, 0x73, 0x32, 0x2f, 0x70, 0x6f, 0x6f, 0x6c, 0x5f, 0x32, 
 0x2f, 0x4d, 0x61, 0x78, 0x50, 0x6f, 0x6f, 0x6c, 0x00, 0x00, 0x00, 0x00, 
 0x04, 0x00, 0x00, 0x00, 0x01, 0x00, 0x00, 0x00, 0x80, 0x00, 0x00, 0x00, 
 0x01, 0x00, 0x00, 0x00, 0x20, 0x00, 0x00, 0x00, 0xb2, 0xf7, 0xff, 0xff, 
 0x00, 0x00, 0x00, 0x01, 0x18, 0x00, 0x00, 0x00, 0x28, 0x00, 0x00, 0x00, 
 0x44, 0x00, 0x00, 0x00, 0x1b, 0x00, 0x00, 0x00, 0x00, 0x00, 0x00, 0x09, 
 0x5c, 0x00, 0x00, 0x00, 0x04, 0x00, 0x00, 0x00, 0xff, 0xff, 0xff, 0xff, 
 0x00, 0x01, 0x00, 0x00, 0x01, 0x00, 0x00, 0x00, 0x20, 0x00, 0x00, 0x00, 
 0x4c, 0xed, 0xff, 0xff, 0x08, 0x00, 0x00, 0x00, 0x10, 0x00, 0x00, 0x00, 
 0x01, 0x00, 0x00, 0x00, 0x80, 0xff, 0xff, 0xff, 0xff, 0xff, 0xff, 0xff, 
 0x01, 0x00, 0x00, 0x00, 0x14, 0xcb, 0x84, 0x3d, 0x1f, 0x00, 0x00, 0x00, 
 0x63, 0x6e, 0x6e, 0x31, 0x64, 0x5f, 0x62, 0x6c, 0x6f, 0x63, 0x6b, 0x73, 
 0x32, 0x2f, 0x70, 0x6f, 0x6f, 0x6c, 0x5f, 0x32, 0x2f, 0x45, 0x78, 0x70, 
 0x61, 0x6e, 0x64, 0x44, 0x69, 0x6d, 0x73, 0x00, 0x04, 0x00, 0x00, 0x00, 
 0x01, 0x00, 0x00, 0x00, 0x00, 0x01, 0x00, 0x00, 0x01, 0x00, 0x00, 0x00, 
 0x20, 0x00, 0x00, 0x00, 0x3e, 0xf8, 0xff, 0xff, 0x00, 0x00, 0x00, 0x01, 
 0x18, 0x00, 0x00, 0x00, 0x24, 0x00, 0x00, 0x00, 0x40, 0x00, 0x00, 0x00, 
 0x1a, 0x00, 0x00, 0x00, 0x00, 0x00, 0x00, 0x09, 0x00, 0x01, 0x00, 0x00, 
 0x03, 0x00, 0x00, 0x00, 0xff, 0xff, 0xff, 0xff, 0x00, 0x01, 0x00, 0x00, 
 0x20, 0x00, 0x00, 0x00, 0xd4, 0xed, 0xff, 0xff, 0x08, 0x00, 0x00, 0x00, 
 0x10, 0x00, 0x00, 0x00, 0x01, 0x00, 0x00, 0x00, 0x80, 0xff, 0xff, 0xff, 
 0xff, 0xff, 0xff, 0xff, 0x01, 0x00, 0x00, 0x00, 0x14, 0xcb, 0x84, 0x3d, 
 0xc4, 0x00, 0x00, 0x00, 0x63, 0x6e, 0x6e, 0x31, 0x64, 0x5f, 0x62, 0x6c, 
 0x6f, 0x63, 0x6b, 0x73, 0x32, 0x2f, 0x61, 0x63, 0x74, 0x5f, 0x32, 0x2f, 
 0x52, 0x65, 0x6c, 0x75, 0x3b, 0x63, 0x6e, 0x6e, 0x31, 0x64, 0x5f, 0x62, 
 0x6c, 0x6f, 0x63, 0x6b, 0x73, 0x32, 0x2f, 0x62, 0x6e, 0x5f, 0x32, 0x2f, 
 0x62, 0x61, 0x74, 0x63, 0x68, 0x6e, 0x6f, 0x72, 0x6d, 0x2f, 0x61, 0x64, 
 0x64, 0x5f, 0x31, 0x3b, 0x63, 0x6e, 0x6e, 0x31, 0x64, 0x5f, 0x62, 0x6c, 
 0x6f, 0x63, 0x6b, 0x73, 0x32, 0x2f, 0x63, 0x6f, 0x6e, 0x76, 0x5f, 0x32, 
 0x2f, 0x43, 0x6f, 0x6e, 0x76, 0x31, 0x44, 0x2f, 0x53, 0x71, 0x75, 0x65, 
 0x65, 0x7a, 0x65, 0x3b, 0x63, 0x6e, 0x6e, 0x31, 0x64, 0x5f, 0x62, 0x6c, 
 0x6f, 0x63, 0x6b, 0x73, 0x32, 0x2f, 0x62, 0x6e, 0x5f, 0x32, 0x2f, 0x62, 
 0x61, 0x74, 0x63, 0x68, 0x6e, 0x6f, 0x72, 0x6d, 0x2f, 0x6d, 0x75, 0x6c, 
 0x5f, 0x31, 0x3b, 0x63, 0x6e, 0x6e, 0x31, 0x64, 0x5f, 0x62, 0x6c, 0x6f, 
 0x63, 0x6b, 0x73, 0x32, 0x2f, 0x62, 0x6e, 0x5f, 0x32, 0x2f, 0x62, 0x61, 
 0x74, 0x63, 0x68, 0x6e, 0x6f, 0x72, 0x6d, 0x2f, 0x6d, 0x75, 0x6c, 0x3b, 
 0x63, 0x6e, 0x6e, 0x31, 0x64, 0x5f, 0x62, 0x6c, 0x6f, 0x63, 0x6b, 0x73, 
 0x32, 0x2f, 0x62, 0x6e, 0x5f, 0x32, 0x2f, 0x62, 0x61, 0x74, 0x63, 0x68, 
 0x6e, 0x6f, 0x72, 0x6d, 0x2f, 0x73, 0x75, 0x62, 0x00, 0x00, 0x00, 0x00, 
 0x03, 0x00, 0x00, 0x00, 0x01, 0x00, 0x00, 0x00, 0x00, 0x01, 0x00, 0x00, 
 0x20, 0x00, 0x00, 0x00, 0x6a, 0xf9, 0xff, 0xff, 0x00, 0x00, 0x00, 0x01, 
 0x18, 0x00, 0x00, 0x00, 0x28, 0x00, 0x00, 0x00, 0x44, 0x00, 0x00, 0x00, 
 0x19, 0x00, 0x00, 0x00, 0x00, 0x00, 0x00, 0x09, 0x20, 0x01, 0x00, 0x00, 
 0x04, 0x00, 0x00, 0x00, 0xff, 0xff, 0xff, 0xff, 0x01, 0x00, 0x00, 0x00, 
 0x00, 0x01, 0x00, 0x00, 0x20, 0x00, 0x00, 0x00, 0x04, 0xef, 0xff, 0xff, 
 0x08, 0x00, 0x00, 0x00, 0x10, 0x00, 0x00, 0x00, 0x01, 0x00, 0x00, 0x00, 
 0x80, 0xff, 0xff, 0xff, 0xff, 0xff, 0xff, 0xff, 0x01, 0x00, 0x00, 0x00, 
 0x14, 0xcb, 0x84, 0x3d, 0xe0, 0x00, 0x00, 0x00, 0x63, 0x6e, 0x6e, 0x31, 
 0x64, 0x5f, 0x62, 0x6c, 0x6f, 0x63, 0x6b, 0x73, 0x32, 0x2f, 0x61, 0x63, 
 0x74, 0x5f, 0x32, 0x2f, 0x52, 0x65, 0x6c, 0x75, 0x3b, 0x63, 0x6e, 0x6e, 
 0x31, 0x64, 0x5f, 0x62, 0x6c, 0x6f, 0x63, 0x6b, 0x73, 0x32, 0x2f, 0x62, 
 0x6e, 0x5f, 0x32, 0x2f, 0x62, 0x61, 0x74, 0x63, 0x68, 0x6e, 0x6f, 0x72, 
 0x6d, 0x2f, 0x61, 0x64, 0x64, 0x5f, 0x31, 0x3b, 0x63, 0x6e, 0x6e, 0x31, 
 0x64, 0x5f, 0x62, 0x6c, 0x6f, 0x63, 0x6b, 0x73, 0x32, 0x2f, 0x63, 0x6f, 
 0x6e, 0x76, 0x5f, 0x32, 0x2f, 0x43, 0x6f, 0x6e, 0x76, 0x31, 0x44, 0x2f, 
 0x53, 0x71, 0x75, 0x65, 0x65, 0x7a, 0x65, 0x3b, 0x63, 0x6e, 0x6e, 0x31, 
 0x64, 0x5f, 0x62, 0x6c, 0x6f, 0x63, 0x6b, 0x73, 0x32, 0x2f, 0x62, 0x6e, 
 0x5f, 0x32, 0x2f, 0x62, 0x61, 0x74, 0x63, 0x68, 0x6e, 0x6f, 0x72, 0x6d, 
 0x2f, 0x6d, 0x75, 0x6c, 0x5f, 0x31, 0x3b, 0x63, 0x6e, 0x6e, 0x31, 0x64, 
 0x5f, 0x62, 0x6c, 0x6f, 0x63, 0x6b, 0x73, 0x32, 0x2f, 0x62, 0x6e, 0x5f, 
 0x32, 0x2f, 0x62, 0x61, 0x74, 0x63, 0x68, 0x6e, 0x6f, 0x72, 0x6d, 0x2f, 
 0x6d, 0x75, 0x6c, 0x3b, 0x63, 0x6e, 0x6e, 0x31, 0x64, 0x5f, 0x62, 0x6c, 
 0x6f, 0x63, 0x6b, 0x73, 0x32, 0x2f, 0x62, 0x6e, 0x5f, 0x32, 0x2f, 0x62, 
 0x61, 0x74, 0x63, 0x68, 0x6e, 0x6f, 0x72, 0x6d, 0x2f, 0x73, 0x75, 0x62, 
 0x3b, 0x63, 0x6e, 0x6e, 0x31, 0x64, 0x5f, 0x62, 0x6c, 0x6f, 0x63, 0x6b, 
 0x73, 0x32, 0x2f, 0x63, 0x6f, 0x6e, 0x76, 0x5f, 0x32, 0x2f, 0x43, 0x6f, 
 0x6e, 0x76, 0x31, 0x44, 0x00, 0x00, 0x00, 0x00, 0x04, 0x00, 0x00, 0x00, 
 0x01, 0x00, 0x00, 0x00, 0x01, 0x00, 0x00, 0x00, 0x00, 0x01, 0x00, 0x00, 
 0x20, 0x00, 0x00, 0x00, 0xba, 0xfa, 0xff, 0xff, 0x00, 0x00, 0x00, 0x01, 
 0x18, 0x00, 0x00, 0x00, 0x28, 0x00, 0x00, 0x00, 0x44, 0x00, 0x00, 0x00, 
 0x18, 0x00, 0x00, 0x00, 0x00, 0x00, 0x00, 0x09, 0x64, 0x00, 0x00, 0x00, 
 0x04, 0x00, 0x00, 0x00, 0xff, 0xff, 0xff, 0xff, 0x01, 0x00, 0x00, 0x00, 
 0x00, 0x01, 0x00, 0x00, 0x10, 0x00, 0x00, 0x00, 0x54, 0xf0, 0xff, 0xff, 
 0x08, 0x00, 0x00, 0x00, 0x10, 0x00, 0x00, 0x00, 0x01, 0x00, 0x00, 0x00, 
 0x80, 0xff, 0xff, 0xff, 0xff, 0xff, 0xff, 0xff, 0x01, 0x00, 0x00, 0x00, 
 0x7b, 0x9e, 0x31, 0x3d, 0x26, 0x00, 0x00, 0x00, 0x63, 0x6e, 0x6e, 0x31, 
 0x64, 0x5f, 0x62, 0x6c, 0x6f, 0x63, 0x6b, 0x73, 0x32, 0x2f, 0x63, 0x6f, 
 0x6e, 0x76, 0x5f, 0x32, 0x2f, 0x43, 0x6f, 0x6e, 0x76, 0x31, 0x44, 0x2f, 
 0x45, 0x78, 0x70, 0x61, 0x6e, 0x64, 0x44, 0x69, 0x6d, 0x73, 0x00, 0x00, 
 0x04, 0x00, 0x00, 0x00, 0x01, 0x00, 0x00, 0x00, 0x01, 0x00, 0x00, 0x00, 
 0x00, 0x01, 0x00, 0x00, 0x10, 0x00, 0x00, 0x00, 0x4e, 0xfb, 0xff, 0xff, 
 0x00, 0x00, 0x00, 0x01, 0x18, 0x00, 0x00, 0x00, 0x24, 0x00, 0x00, 0x00, 
 0x40, 0x00, 0x00, 0x00, 0x17, 0x00, 0x00, 0x00, 0x00, 0x00, 0x00, 0x09, 
 0x58, 0x00, 0x00, 0x00, 0x03, 0x00, 0x00, 0x00, 0xff, 0xff, 0xff, 0xff, 
 0x00, 0x01, 0x00, 0x00, 0x10, 0x00, 0x00, 0x00, 0xe4, 0xf0, 0xff, 0xff, 
 0x08, 0x00, 0x00, 0x00, 0x10, 0x00, 0x00, 0x00, 0x01, 0x00, 0x00, 0x00, 
 0x80, 0xff, 0xff, 0xff, 0xff, 0xff, 0xff, 0xff, 0x01, 0x00, 0x00, 0x00, 
 0x7b, 0x9e, 0x31, 0x3d, 0x1c, 0x00, 0x00, 0x00, 0x63, 0x6e, 0x6e, 0x31, 
 0x64, 0x5f, 0x62, 0x6c, 0x6f, 0x63, 0x6b, 0x73, 0x32, 0x2f, 0x70, 0x6f, 
 0x6f, 0x6c, 0x5f, 0x31, 0x2f, 0x53, 0x71, 0x75, 0x65, 0x65, 0x7a, 0x65, 
 0x00, 0x00, 0x00, 0x00, 0x03, 0x00, 0x00, 0x00, 0x01, 0x00, 0x00, 0x00, 
 0x00, 0x01, 0x00, 0x00, 0x10, 0x00, 0x00, 0x00, 0xd2, 0xfb, 0xff, 0xff, 
 0x00, 0x00, 0x00, 0x01, 0x18, 0x00, 0x00, 0x00, 0x28, 0x00, 0x00, 0x00, 
 0x48, 0x00, 0x00, 0x00, 0x16, 0x00, 0x00, 0x00, 0x00, 0x00, 0x00, 0x09, 
 0x60, 0x00, 0x00, 0x00, 0x04, 0x00, 0x00, 0x00, 0xff, 0xff, 0xff, 0xff, 
 0x00, 0x01, 0x00, 0x00, 0x01, 0x00, 0x00, 0x00, 0x10, 0x00, 0x00, 0x00, 
 0x6c, 0xf1, 0xff, 0xff, 0x08, 0x00, 0x00, 0x00, 0x14, 0x00, 0x00, 0x00, 
 0x01, 0x00, 0x00, 0x00, 0x80, 0xff, 0xff, 0xff, 0xff, 0xff, 0xff, 0xff, 
 0x00, 0x00, 0x00, 0x00, 0x01, 0x00, 0x00, 0x00, 0x7b, 0x9e, 0x31, 0x3d, 
 0x1c, 0x00, 0x00, 0x00, 0x63, 0x6e, 0x6e, 0x31, 0x64, 0x5f, 0x62, 0x6c, 
 0x6f, 0x63, 0x6b, 0x73, 0x32, 0x2f, 0x70, 0x6f, 0x6f, 0x6c, 0x5f, 0x31, 
 0x2f, 0x4d, 0x61, 0x78, 0x50, 0x6f, 0x6f, 0x6c, 0x00, 0x00, 0x00, 0x00, 
 0x04, 0x00, 0x00, 0x00, 0x01, 0x00, 0x00, 0x00, 0x00, 0x01, 0x00, 0x00, 
 0x01, 0x00, 0x00, 0x00, 0x10, 0x00, 0x00, 0x00, 0x62, 0xfc, 0xff, 0xff, 
 0x00, 0x00, 0x00, 0x01, 0x18, 0x00, 0x00, 0x00, 0x28, 0x00, 0x00, 0x00, 
 0x44, 0x00, 0x00, 0x00, 0x15, 0x00, 0x00, 0x00, 0x00, 0x00, 0x00, 0x09, 
 0x5c, 0x00, 0x00, 0x00, 0x04, 0x00, 0x00, 0x00, 0xff, 0xff, 0xff, 0xff, 
 0x00, 0x02, 0x00, 0x00, 0x01, 0x00, 0x00, 0x00, 0x10, 0x00, 0x00, 0x00, 
 0xfc, 0xf1, 0xff, 0xff, 0x08, 0x00, 0x00, 0x00, 0x10, 0x00, 0x00, 0x00, 
 0x01, 0x00, 0x00, 0x00, 0x80, 0xff, 0xff, 0xff, 0xff, 0xff, 0xff, 0xff, 
 0x01, 0x00, 0x00, 0x00, 0x7b, 0x9e, 0x31, 0x3d, 0x1f, 0x00, 0x00, 0x00, 
 0x63, 0x6e, 0x6e, 0x31, 0x64, 0x5f, 0x62, 0x6c, 0x6f, 0x63, 0x6b, 0x73, 
 0x32, 0x2f, 0x70, 0x6f, 0x6f, 0x6c, 0x5f, 0x31, 0x2f, 0x45, 0x78, 0x70, 
 0x61, 0x6e, 0x64, 0x44, 0x69, 0x6d, 0x73, 0x00, 0x04, 0x00, 0x00, 0x00, 
 0x01, 0x00, 0x00, 0x00, 0x00, 0x02, 0x00, 0x00, 0x01, 0x00, 0x00, 0x00, 
 0x10, 0x00, 0x00, 0x00, 0xee, 0xfc, 0xff, 0xff, 0x00, 0x00, 0x00, 0x01, 
 0x18, 0x00, 0x00, 0x00, 0x24, 0x00, 0x00, 0x00, 0x40, 0x00, 0x00, 0x00, 
 0x14, 0x00, 0x00, 0x00, 0x00, 0x00, 0x00, 0x09, 0x00, 0x01, 0x00, 0x00, 
 0x03, 0x00, 0x00, 0x00, 0xff, 0xff, 0xff, 0xff, 0x00, 0x02, 0x00, 0x00, 
 0x10, 0x00, 0x00, 0x00, 0x84, 0xf2, 0xff, 0xff, 0x08, 0x00, 0x00, 0x00, 
 0x10, 0x00, 0x00, 0x00, 0x01, 0x00, 0x00, 0x00, 0x80, 0xff, 0xff, 0xff, 
 0xff, 0xff, 0xff, 0xff, 0x01, 0x00, 0x00, 0x00, 0x7b, 0x9e, 0x31, 0x3d, 
 0xc4, 0x00, 0x00, 0x00, 0x63, 0x6e, 0x6e, 0x31, 0x64, 0x5f, 0x62, 0x6c, 
 0x6f, 0x63, 0x6b, 0x73, 0x32, 0x2f, 0x61, 0x63, 0x74, 0x5f, 0x31, 0x2f, 
 0x52, 0x65, 0x6c, 0x75, 0x3b, 0x63, 0x6e, 0x6e, 0x31, 0x64, 0x5f, 0x62, 
 0x6c, 0x6f, 0x63, 0x6b, 0x73, 0x32, 0x2f, 0x62, 0x6e, 0x5f, 0x31, 0x2f, 
 0x62, 0x61, 0x74, 0x63, 0x68, 0x6e, 0x6f, 0x72, 0x6d, 0x2f, 0x61, 0x64, 
 0x64, 0x5f, 0x31, 0x3b, 0x63, 0x6e, 0x6e, 0x31, 0x64, 0x5f, 0x62, 0x6c, 
 0x6f, 0x63, 0x6b, 0x73, 0x32, 0x2f, 0x63, 0x6f, 0x6e, 0x76, 0x5f, 0x31, 
 0x2f, 0x43, 0x6f, 0x6e, 0x76, 0x31, 0x44, 0x2f, 0x53, 0x71, 0x75, 0x65, 
 0x65, 0x7a, 0x65, 0x3b, 0x63, 0x6e, 0x6e, 0x31, 0x64, 0x5f, 0x62, 0x6c, 
 0x6f, 0x63, 0x6b, 0x73, 0x32, 0x2f, 0x62, 0x6e, 0x5f, 0x31, 0x2f, 0x62, 
 0x61, 0x74, 0x63, 0x68, 0x6e, 0x6f, 0x72, 0x6d, 0x2f, 0x6d, 0x75, 0x6c, 
 0x5f, 0x31, 0x3b, 0x63, 0x6e, 0x6e, 0x31, 0x64, 0x5f, 0x62, 0x6c, 0x6f, 
 0x63, 0x6b, 0x73, 0x32, 0x2f, 0x62, 0x6e, 0x5f, 0x31, 0x2f, 0x62, 0x61, 
 0x74, 0x63, 0x68, 0x6e, 0x6f, 0x72, 0x6d, 0x2f, 0x6d, 0x75, 0x6c, 0x3b, 
 0x63, 0x6e, 0x6e, 0x31, 0x64, 0x5f, 0x62, 0x6c, 0x6f, 0x63, 0x6b, 0x73, 
 0x32, 0x2f, 0x62, 0x6e, 0x5f, 0x31, 0x2f, 0x62, 0x61, 0x74, 0x63, 0x68, 
 0x6e, 0x6f, 0x72, 0x6d, 0x2f, 0x73, 0x75, 0x62, 0x00, 0x00, 0x00, 0x00, 
 0x03, 0x00, 0x00, 0x00, 0x01, 0x00, 0x00, 0x00, 0x00, 0x02, 0x00, 0x00, 
 0x10, 0x00, 0x00, 0x00, 0x1a, 0xfe, 0xff, 0xff, 0x00, 0x00, 0x00, 0x01, 
 0x18, 0x00, 0x00, 0x00, 0x28, 0x00, 0x00, 0x00, 0x44, 0x00, 0x00, 0x00, 
 0x13, 0x00, 0x00, 0x00, 0x00, 0x00, 0x00, 0x09, 0x20, 0x01, 0x00, 0x00, 
 0x04, 0x00, 0x00, 0x00, 0xff, 0xff, 0xff, 0xff, 0x01, 0x00, 0x00, 0x00, 
 0x00, 0x02, 0x00, 0x00, 0x10, 0x00, 0x00, 0x00, 0xb4, 0xf3, 0xff, 0xff, 
 0x08, 0x00, 0x00, 0x00, 0x10, 0x00, 0x00, 0x00, 0x01, 0x00, 0x00, 0x00, 
 0x80, 0xff, 0xff, 0xff, 0xff, 0xff, 0xff, 0xff, 0x01, 0x00, 0x00, 0x00, 
 0x7b, 0x9e, 0x31, 0x3d, 0xe0, 0x00, 0x00, 0x00, 0x63, 0x6e, 0x6e, 0x31, 
 0x64, 0x5f, 0x62, 0x6c, 0x6f, 0x63, 0x6b, 0x73, 0x32, 0x2f, 0x61, 0x63, 
 0x74, 0x5f, 0x31, 0x2f, 0x52, 0x65, 0x6c, 0x75, 0x3b, 0x63, 0x6e, 0x6e, 
 0x31, 0x64, 0x5f, 0x62, 0x6c, 0x6f, 0x63, 0x6b, 0x73, 0x32, 0x2f, 0x62, 
 0x6e, 0x5f, 0x31, 0x2f, 0x62, 0x61, 0x74, 0x63, 0x68, 0x6e, 0x6f, 0x72, 
 0x6d, 0x2f, 0x61, 0x64, 0x64, 0x5f, 0x31, 0x3b, 0x63, 0x6e, 0x6e, 0x31, 
 0x64, 0x5f, 0x62, 0x6c, 0x6f, 0x63, 0x6b, 0x73, 0x32, 0x2f, 0x63, 0x6f, 
 0x6e, 0x76, 0x5f, 0x31, 0x2f, 0x43, 0x6f, 0x6e, 0x76, 0x31, 0x44, 0x2f, 
 0x53, 0x71, 0x75, 0x65, 0x65, 0x7a, 0x65, 0x3b, 0x63, 0x6e, 0x6e, 0x31, 
 0x64, 0x5f, 0x62, 0x6c, 0x6f, 0x63, 0x6b, 0x73, 0x32, 0x2f, 0x62, 0x6e, 
 0x5f, 0x31, 0x2f, 0x62, 0x61, 0x74, 0x63, 0x68, 0x6e, 0x6f, 0x72, 0x6d, 
 0x2f, 0x6d, 0x75, 0x6c, 0x5f, 0x31, 0x3b, 0x63, 0x6e, 0x6e, 0x31, 0x64, 
 0x5f, 0x62, 0x6c, 0x6f, 0x63, 0x6b, 0x73, 0x32, 0x2f, 0x62, 0x6e, 0x5f, 
 0x31, 0x2f, 0x62, 0x61, 0x74, 0x63, 0x68, 0x6e, 0x6f, 0x72, 0x6d, 0x2f, 
 0x6d, 0x75, 0x6c, 0x3b, 0x63, 0x6e, 0x6e, 0x31, 0x64, 0x5f, 0x62, 0x6c, 
 0x6f, 0x63, 0x6b, 0x73, 0x32, 0x2f, 0x62, 0x6e, 0x5f, 0x31, 0x2f, 0x62, 
 0x61, 0x74, 0x63, 0x68, 0x6e, 0x6f, 0x72, 0x6d, 0x2f, 0x73, 0x75, 0x62, 
 0x3b, 0x63, 0x6e, 0x6e, 0x31, 0x64, 0x5f, 0x62, 0x6c, 0x6f, 0x63, 0x6b, 
 0x73, 0x32, 0x2f, 0x63, 0x6f, 0x6e, 0x76, 0x5f, 0x31, 0x2f, 0x43, 0x6f, 
 0x6e, 0x76, 0x31, 0x44, 0x00, 0x00, 0x00, 0x00, 0x04, 0x00, 0x00, 0x00, 
 0x01, 0x00, 0x00, 0x00, 0x01, 0x00, 0x00, 0x00, 0x00, 0x02, 0x00, 0x00, 
 0x10, 0x00, 0x00, 0x00, 0x6a, 0xff, 0xff, 0xff, 0x00, 0x00, 0x00, 0x01, 
 0x18, 0x00, 0x00, 0x00, 0x28, 0x00, 0x00, 0x00, 0x44, 0x00, 0x00, 0x00, 
 0x12, 0x00, 0x00, 0x00, 0x00, 0x00, 0x00, 0x09, 0x64, 0x00, 0x00, 0x00, 
 0x04, 0x00, 0x00, 0x00, 0xff, 0xff, 0xff, 0xff, 0x01, 0x00, 0x00, 0x00, 
 0x00, 0x02, 0x00, 0x00, 0x01, 0x00, 0x00, 0x00, 0x04, 0xf5, 0xff, 0xff, 
 0x08, 0x00, 0x00, 0x00, 0x10, 0x00, 0x00, 0x00, 0x01, 0x00, 0x00, 0x00, 
 0xf1, 0xff, 0xff, 0xff, 0xff, 0xff, 0xff, 0xff, 0x01, 0x00, 0x00, 0x00, 
 0x3b, 0xa7, 0x53, 0x3d, 0x26, 0x00, 0x00, 0x00, 0x63, 0x6e, 0x6e, 0x31, 
 0x64, 0x5f, 0x62, 0x6c, 0x6f, 0x63, 0x6b, 0x73, 0x32, 0x2f, 0x63, 0x6f, 
 0x6e, 0x76, 0x5f, 0x31, 0x2f, 0x43, 0x6f, 0x6e, 0x76, 0x31, 0x44, 0x2f, 
 0x45, 0x78, 0x70, 0x61, 0x6e, 0x64, 0x44, 0x69, 0x6d, 0x73, 0x00, 0x00, 
 0x04, 0x00, 0x00, 0x00, 0x01, 0x00, 0x00, 0x00, 0x01, 0x00, 0x00, 0x00, 
 0x00, 0x02, 0x00, 0x00, 0x01, 0x00, 0x00, 0x00, 0x00, 0x00, 0x16, 0x00, 
 0x20, 0x00, 0x1c, 0x00, 0x1b, 0x00, 0x14, 0x00, 0x10, 0x00, 0x0c, 0x00, 
 0x00, 0x00, 0x00, 0x00, 0x08, 0x00, 0x07, 0x00, 0x16, 0x00, 0x00, 0x00, 
 0x00, 0x00, 0x00, 0x01, 0x18, 0x00, 0x00, 0x00, 0x24, 0x00, 0x00, 0x00, 
 0x40, 0x00, 0x00, 0x00, 0x11, 0x00, 0x00, 0x00, 0x00, 0x00, 0x00, 0x09, 
 0x48, 0x00, 0x00, 0x00, 0x03, 0x00, 0x00, 0x00, 0xff, 0xff, 0xff, 0xff, 
 0x00, 0x02, 0x00, 0x00, 0x01, 0x00, 0x00, 0x00, 0xac, 0xf5, 0xff, 0xff, 
 0x08, 0x00, 0x00, 0x00, 0x10, 0x00, 0x00, 0x00, 0x01, 0x00, 0x00, 0x00, 
 0xf1, 0xff, 0xff, 0xff, 0xff, 0xff, 0xff, 0xff, 0x01, 0x00, 0x00, 0x00, 
 0x3b, 0xa7, 0x53, 0x3d, 0x0c, 0x00, 0x00, 0x00, 0x74, 0x66, 0x6c, 0x2e, 
 0x71, 0x75, 0x61, 0x6e, 0x74, 0x69, 0x7a, 0x65, 0x00, 0x00, 0x00, 0x00, 
 0x03, 0x00, 0x00, 0x00, 0x01, 0x00, 0x00, 0x00, 0x00, 0x02, 0x00, 0x00, 
 0x01, 0x00, 0x00, 0x00, 0x36, 0xf4, 0xff, 0xff, 0x00, 0x00, 0x00, 0x01, 
 0x14, 0x00, 0x00, 0x00, 0xe8, 0x00, 0x00, 0x00, 0x10, 0x00, 0x00, 0x00, 
 0x00, 0x00, 0x00, 0x09, 0xf4, 0x00, 0x00, 0x00, 0x0c, 0xf6, 0xff, 0xff, 
 0x08, 0x00, 0x00, 0x00, 0x8c, 0x00, 0x00, 0x00, 0x10, 0x00, 0x00, 0x00, 
 0x00, 0x00, 0x00, 0x00, 0x00, 0x00, 0x00, 0x00, 0x00, 0x00, 0x00, 0x00, 
 0x00, 0x00, 0x00, 0x00, 0x00, 0x00, 0x00, 0x00, 0x00, 0x00, 0x00, 0x00, 
 0x00, 0x00, 0x00, 0x00, 0x00, 0x00, 0x00, 0x00, 0x00, 0x00, 0x00, 0x00, 
 0x00, 0x00, 0x00, 0x00, 0x00, 0x00, 0x00, 0x00, 0x00, 0x00, 0x00, 0x00, 
 0x00, 0x00, 0x00, 0x00, 0x00, 0x00, 0x00, 0x00, 0x00, 0x00, 0x00, 0x00, 
 0x00, 0x00, 0x00, 0x00, 0x00, 0x00, 0x00, 0x00, 0x00, 0x00, 0x00, 0x00, 
 0x00, 0x00, 0x00, 0x00, 0x00, 0x00, 0x00, 0x00, 0x00, 0x00, 0x00, 0x00, 
 0x00, 0x00, 0x00, 0x00, 0x00, 0x00, 0x00, 0x00, 0x00, 0x00, 0x00, 0x00, 
 0x00, 0x00, 0x00, 0x00, 0x00, 0x00, 0x00, 0x00, 0x00, 0x00, 0x00, 0x00, 
 0x00, 0x00, 0x00, 0x00, 0x00, 0x00, 0x00, 0x00, 0x00, 0x00, 0x00, 0x00, 
 0x00, 0x00, 0x00, 0x00, 0x00, 0x00, 0x00, 0x00, 0x00, 0x00, 0x00, 0x00, 
 0x10, 0x00, 0x00, 0x00, 0xf5, 0x81, 0xcb, 0x3b, 0x3c, 0x37, 0x59, 0x3b, 
 0x30, 0xa7, 0x04, 0x3c, 0x46, 0x2c, 0x41, 0x3b, 0x85, 0x65, 0x12, 0x3c, 
 0x82, 0xf2, 0xa2, 0x3b, 0x41, 0x6e, 0x30, 0x3c, 0x61, 0x9d, 0xaf, 0x3b, 
 0x30, 0x21, 0xf6, 0x3b, 0x7d, 0xc9, 0x1d, 0x3c, 0xb2, 0x7e, 0xf0, 0x3b, 
 0xa3, 0xf1, 0x3b, 0x3b, 0x9f, 0x41, 0x6f, 0x3c, 0xdb, 0x75, 0xb3, 0x3c, 
 0xb9, 0xf5, 0x23, 0x3b, 0xce, 0xff, 0x4d, 0x3b, 0x12, 0x00, 0x00, 0x00, 
 0x74, 0x66, 0x6c, 0x2e, 0x70, 0x73, 0x65, 0x75, 0x64, 0x6f, 0x5f, 0x71, 
 0x63, 0x6f, 0x6e, 0x73, 0x74, 0x37, 0x00, 0x00, 0x04, 0x00, 0x00, 0x00, 
 0x10, 0x00, 0x00, 0x00, 0x01, 0x00, 0x00, 0x00, 0x07, 0x00, 0x00, 0x00, 
 0x01, 0x00, 0x00, 0x00, 0x56, 0xf5, 0xff, 0xff, 0x00, 0x00, 0x00, 0x01, 
 0x14, 0x00, 0x00, 0x00, 0xe4, 0x00, 0x00, 0x00, 0x0f, 0x00, 0x00, 0x00, 
 0x00, 0x00, 0x00, 0x02, 0xf0, 0x00, 0x00, 0x00, 0x2c, 0xf7, 0xff, 0xff, 
 0x08, 0x00, 0x00, 0x00, 0x88, 0x00, 0x00, 0x00, 0x10, 0x00, 0x00, 0x00, 
 0x00, 0x00, 0x00, 0x00, 0x00, 0x00, 0x00, 0x00, 0x00, 0x00, 0x00, 0x00, 
 0x00, 0x00, 0x00, 0x00, 0x00, 0x00, 0x00, 0x00, 0x00, 0x00, 0x00, 0x00, 
 0x00, 0x00, 0x00, 0x00, 0x00, 0x00, 0x00, 0x00, 0x00, 0x00, 0x00, 0x00, 
 0x00, 0x00, 0x00, 0x00, 0x00, 0x00, 0x00, 0x00, 0x00, 0x00, 0x00, 0x00, 
 0x00, 0x00, 0x00, 0x00, 0x00, 0x00, 0x00, 0x00, 0x00, 0x00, 0x00, 0x00, 
 0x00, 0x00, 0x00, 0x00, 0x00, 0x00, 0x00, 0x00, 0x00, 0x00, 0x00, 0x00, 
 0x00, 0x00, 0x00, 0x00, 0x00, 0x00, 0x00, 0x00, 0x00, 0x00, 0x00, 0x00, 
 0x00, 0x00, 0x00, 0x00, 0x00, 0x00, 0x00, 0x00, 0x00, 0x00, 0x00, 0x00, 
 0x00, 0x00, 0x00, 0x00, 0x00, 0x00, 0x00, 0x00, 0x00, 0x00, 0x00, 0x00, 
 0x00, 0x00, 0x00, 0x00, 0x00, 0x00, 0x00, 0x00, 0x00, 0x00, 0x00, 0x00, 
 0x00, 0x00, 0x00, 0x00, 0x00, 0x00, 0x00, 0x00, 0x10, 0x00, 0x00, 0x00, 
 0x0e, 0x41, 0xa8, 0x39, 0x6c, 0x96, 0x33, 0x39, 0xe8, 0x58, 0xdb, 0x39, 
 0xae, 0xb5, 0x1f, 0x39, 0x9d, 0x12, 0xf2, 0x39, 0x53, 0xb8, 0x86, 0x39, 
 0x20, 0xde, 0x11, 0x3a, 0x6f, 0x31, 0x91, 0x39, 0x23, 0x7e, 0xcb, 0x39, 
 0x25, 0x74, 0x02, 0x3a, 0x87, 0xd5, 0xc6, 0x39, 0xef, 0x62, 0x1b, 0x39, 
 0x61, 0xcf, 0x45, 0x3a, 0x5f, 0x5f, 0x94, 0x3a, 0xa3, 0x8e, 0x07, 0x39, 
 0x68, 0x50, 0x2a, 0x39, 0x12, 0x00, 0x00, 0x00, 0x74, 0x66, 0x6c, 0x2e, 
 0x70, 0x73, 0x65, 0x75, 0x64, 0x6f, 0x5f, 0x71, 0x63, 0x6f, 0x6e, 0x73, 
 0x74, 0x36, 0x00, 0x00, 0x01, 0x00, 0x00, 0x00, 0x10, 0x00, 0x00, 0x00, 
 0x66, 0xf6, 0xff, 0xff, 0x00, 0x00, 0x00, 0x01, 0x14, 0x00, 0x00, 0x00, 
 0xa8, 0x01, 0x00, 0x00, 0x0e, 0x00, 0x00, 0x00, 0x00, 0x00, 0x00, 0x09, 
 0xb4, 0x01, 0x00, 0x00, 0x3c, 0xf8, 0xff, 0xff, 0x08, 0x00, 0x00, 0x00, 
 0x0c, 0x01, 0x00, 0x00, 0x20, 0x00, 0x00, 0x00, 0x00, 0x00, 0x00, 0x00, 
 0x00, 0x00, 0x00, 0x00, 0x00, 0x00, 0x00, 0x00, 0x00, 0x00, 0x00, 0x00, 
 0x00, 0x00, 0x00, 0x00, 0x00, 0x00, 0x00, 0x00, 0x00, 0x00, 0x00, 0x00, 
 0x00, 0x00, 0x00, 0x00, 0x00, 0x00, 0x00, 0x00, 0x00, 0x00, 0x00, 0x00, 
 0x00, 0x00, 0x00, 0x00, 0x00, 0x00, 0x00, 0x00, 0x00, 0x00, 0x00, 0x00, 
 0x00, 0x00, 0x00, 0x00, 0x00, 0x00, 0x00, 0x00, 0x00, 0x00, 0x00, 0x00, 
 0x00, 0x00, 0x00, 0x00, 0x00, 0x00, 0x00, 0x00, 0x00, 0x00, 0x00, 0x00, 
 0x00, 0x00, 0x00, 0x00, 0x00, 0x00, 0x00, 0x00, 0x00, 0x00, 0x00, 0x00, 
 0x00, 0x00, 0x00, 0x00, 0x00, 0x00, 0x00, 0x00, 0x00, 0x00, 0x00, 0x00, 
 0x00, 0x00, 0x00, 0x00, 0x00, 0x00, 0x00, 0x00, 0x00, 0x00, 0x00, 0x00, 
 0x00, 0x00, 0x00, 0x00, 0x00, 0x00, 0x00, 0x00, 0x00, 0x00, 0x00, 0x00, 
 0x00, 0x00, 0x00, 0x00, 0x00, 0x00, 0x00, 0x00, 0x00, 0x00, 0x00, 0x00, 
 0x00, 0x00, 0x00, 0x00, 0x00, 0x00, 0x00, 0x00, 0x00, 0x00, 0x00, 0x00, 
 0x00, 0x00, 0x00, 0x00, 0x00, 0x00, 0x00, 0x00, 0x00, 0x00, 0x00, 0x00, 
 0x00, 0x00, 0x00, 0x00, 0x00, 0x00, 0x00, 0x00, 0x00, 0x00, 0x00, 0x00, 
 0x00, 0x00, 0x00, 0x00, 0x00, 0x00, 0x00, 0x00, 0x00, 0x00, 0x00, 0x00, 
 0x00, 0x00, 0x00, 0x00, 0x00, 0x00, 0x00, 0x00, 0x00, 0x00, 0x00, 0x00, 
 0x00, 0x00, 0x00, 0x00, 0x00, 0x00, 0x00, 0x00, 0x00, 0x00, 0x00, 0x00, 
 0x00, 0x00, 0x00, 0x00, 0x00, 0x00, 0x00, 0x00, 0x00, 0x00, 0x00, 0x00, 
 0x00, 0x00, 0x00, 0x00, 0x00, 0x00, 0x00, 0x00, 0x00, 0x00, 0x00, 0x00, 
 0x00, 0x00, 0x00, 0x00, 0x00, 0x00, 0x00, 0x00, 0x00, 0x00, 0x00, 0x00, 
 0x00, 0x00, 0x00, 0x00, 0x00, 0x00, 0x00, 0x00, 0x00, 0x00, 0x00, 0x00, 
 0x00, 0x00, 0x00, 0x00, 0x20, 0x00, 0x00, 0x00, 0x88, 0x14, 0x04, 0x3b, 
 0x9c, 0xf9, 0x4e, 0x3b, 0x21, 0xdb, 0xb3, 0x3a, 0xab, 0x51, 0x3c, 0x3b, 
 0x94, 0xc2, 0x43, 0x3b, 0x6d, 0x03, 0x24, 0x3b, 0x84, 0xf9, 0x99, 0x3b, 
 0xa6, 0xce, 0x90, 0x3b, 0x16, 0x84, 0x19, 0x3b, 0x22, 0x58, 0xa5, 0x3b, 
 0xb7, 0xa0, 0x8f, 0x3b, 0x2a, 0x09, 0x2e, 0x3b, 0x2c, 0x5f, 0x41, 0x3b, 
 0xde, 0x44, 0xac, 0x3b, 0xfc, 0x5b, 0x82, 0x3b, 0x5a, 0x57, 0x55, 0x3b, 
 0xff, 0x7c, 0x2e, 0x3b, 0xf8, 0xd7, 0x89, 0x3b, 0x97, 0x33, 0xbd, 0x3b, 
 0x8a, 0xfb, 0x9d, 0x3b, 0xa9, 0x3a, 0xa7, 0x3b, 0x45, 0xb9, 0xb9, 0x3b, 
 0x24, 0xc5, 0xe5, 0x3b, 0x03, 0xd0, 0xc8, 0x3a, 0x90, 0x14, 0x00, 0x3b, 
 0x5d, 0x85, 0x1e, 0x3b, 0x23, 0x91, 0x7a, 0x3b, 0xab, 0xbf, 0x82, 0x3b, 
 0x23, 0xde, 0x2f, 0x3b, 0xe9, 0x8e, 0x6c, 0x3b, 0xa6, 0x37, 0x86, 0x3b, 
 0x7e, 0x1e, 0x29, 0x3b, 0x12, 0x00, 0x00, 0x00, 0x74, 0x66, 0x6c, 0x2e, 
 0x70, 0x73, 0x65, 0x75, 0x64, 0x6f, 0x5f, 0x71, 0x63, 0x6f, 0x6e, 0x73, 
 0x74, 0x35, 0x00, 0x00, 0x04, 0x00, 0x00, 0x00, 0x20, 0x00, 0x00, 0x00, 
 0x01, 0x00, 0x00, 0x00, 0x05, 0x00, 0x00, 0x00, 0x10, 0x00, 0x00, 0x00, 
 0x46, 0xf8, 0xff, 0xff, 0x00, 0x00, 0x00, 0x01, 0x14, 0x00, 0x00, 0x00, 
 0xa4, 0x01, 0x00, 0x00, 0x0d, 0x00, 0x00, 0x00, 0x00, 0x00, 0x00, 0x02, 
 0xb0, 0x01, 0x00, 0x00, 0x1c, 0xfa, 0xff, 0xff, 0x08, 0x00, 0x00, 0x00, 
 0x08, 0x01, 0x00, 0x00, 0x20, 0x00, 0x00, 0x00, 0x00, 0x00, 0x00, 0x00, 
 0x00, 0x00, 0x00, 0x00, 0x00, 0x00, 0x00, 0x00, 0x00, 0x00, 0x00, 0x00, 
 0x00, 0x00, 0x00, 0x00, 0x00, 0x00, 0x00, 0x00, 0x00, 0x00, 0x00, 0x00, 
 0x00, 0x00, 0x00, 0x00, 0x00, 0x00, 0x00, 0x00, 0x00, 0x00, 0x00, 0x00, 
 0x00, 0x00, 0x00, 0x00, 0x00, 0x00, 0x00, 0x00, 0x00, 0x00, 0x00, 0x00, 
 0x00, 0x00, 0x00, 0x00, 0x00, 0x00, 0x00, 0x00, 0x00, 0x00, 0x00, 0x00, 
 0x00, 0x00, 0x00, 0x00, 0x00, 0x00, 0x00, 0x00, 0x00, 0x00, 0x00, 0x00, 
 0x00, 0x00, 0x00, 0x00, 0x00, 0x00, 0x00, 0x00, 0x00, 0x00, 0x00, 0x00, 
 0x00, 0x00, 0x00, 0x00, 0x00, 0x00, 0x00, 0x00, 0x00, 0x00, 0x00, 0x00, 
 0x00, 0x00, 0x00, 0x00, 0x00, 0x00, 0x00, 0x00, 0x00, 0x00, 0x00, 0x00, 
 0x00, 0x00, 0x00, 0x00, 0x00, 0x00, 0x00, 0x00, 0x00, 0x00, 0x00, 0x00, 
 0x00, 0x00, 0x00, 0x00, 0x00, 0x00, 0x00, 0x00, 0x00, 0x00, 0x00, 0x00, 
 0x00, 0x00, 0x00, 0x00, 0x00, 0x00, 0x00, 0x00, 0x00, 0x00, 0x00, 0x00, 
 0x00, 0x00, 0x00, 0x00, 0x00, 0x00, 0x00, 0x00, 0x00, 0x00, 0x00, 0x00, 
 0x00, 0x00, 0x00, 0x00, 0x00, 0x00, 0x00, 0x00, 0x00, 0x00, 0x00, 0x00, 
 0x00, 0x00, 0x00, 0x00, 0x00, 0x00, 0x00, 0x00, 0x00, 0x00, 0x00, 0x00, 
 0x00, 0x00, 0x00, 0x00, 0x00, 0x00, 0x00, 0x00, 0x00, 0x00, 0x00, 0x00, 
 0x00, 0x00, 0x00, 0x00, 0x00, 0x00, 0x00, 0x00, 0x00, 0x00, 0x00, 0x00, 
 0x00, 0x00, 0x00, 0x00, 0x00, 0x00, 0x00, 0x00, 0x00, 0x00, 0x00, 0x00, 
 0x00, 0x00, 0x00, 0x00, 0x00, 0x00, 0x00, 0x00, 0x00, 0x00, 0x00, 0x00, 
 0x00, 0x00, 0x00, 0x00, 0x00, 0x00, 0x00, 0x00, 0x00, 0x00, 0x00, 0x00, 
 0x00, 0x00, 0x00, 0x00, 0x00, 0x00, 0x00, 0x00, 0x00, 0x00, 0x00, 0x00, 
 0x20, 0x00, 0x00, 0x00, 0xec, 0x47, 0xb7, 0x38, 0xb6, 0x9a, 0x0f, 0x39, 
 0xb3, 0x93, 0x79, 0x38, 0x0c, 0xa9, 0x02, 0x39, 0xb8, 0xd2, 0x07, 0x39, 
 0xcf, 0x97, 0xe3, 0x38, 0xac, 0xa9, 0x55, 0x39, 0x0c, 0xf1, 0x48, 0x39, 
 0xb9, 0x06, 0xd5, 0x38, 0x97, 0x70, 0x65, 0x39, 0x11, 0x4e, 0x47, 0x39, 
 0x27, 0x80, 0xf1, 0x38, 0x83, 0x2a, 0x06, 0x39, 0x86, 0x0c, 0x6f, 0x39, 
 0x99, 0xe4, 0x34, 0x39, 0x78, 0x05, 0x14, 0x39, 0xe3, 0x20, 0xf2, 0x38, 
 0x50, 0x47, 0x3f, 0x39, 0xcc, 0x45, 0x83, 0x39, 0x6f, 0x39, 0x5b, 0x39, 
 0x2b, 0x0e, 0x68, 0x39, 0x12, 0xdc, 0x80, 0x39, 0x8c, 0x6b, 0x9f, 0x39, 
 0x23, 0x54, 0x8b, 0x38, 0x04, 0xbb, 0xb1, 0x38, 0xb0, 0xf8, 0xdb, 0x38, 
 0x77, 0xd9, 0x2d, 0x39, 0xed, 0x6e, 0x35, 0x39, 0xec, 0x0a, 0xf4, 0x38, 
 0x41, 0x21, 0x24, 0x39, 0x21, 0x3f, 0x3a, 0x39, 0x8e, 0xad, 0xea, 0x38, 
 0x12, 0x00, 0x00, 0x00, 0x74, 0x66, 0x6c, 0x2e, 0x70, 0x73, 0x65, 0x75, 
 0x64, 0x6f, 0x5f, 0x71, 0x63, 0x6f, 0x6e, 0x73, 0x74, 0x34, 0x00, 0x00, 
 0x01, 0x00, 0x00, 0x00, 0x20, 0x00, 0x00, 0x00, 0x16, 0xfa, 0xff, 0xff, 
 0x00, 0x00, 0x00, 0x01, 0x14, 0x00, 0x00, 0x00, 0xa8, 0x01, 0x00, 0x00, 
 0x0c, 0x00, 0x00, 0x00, 0x00, 0x00, 0x00, 0x09, 0xb4, 0x01, 0x00, 0x00, 
 0xec, 0xfb, 0xff, 0xff, 0x08, 0x00, 0x00, 0x00, 0x0c, 0x01, 0x00, 0x00, 
 0x20, 0x00, 0x00, 0x00, 0x00, 0x00, 0x00, 0x00, 0x00, 0x00, 0x00, 0x00, 
 0x00, 0x00, 0x00, 0x00, 0x00, 0x00, 0x00, 0x00, 0x00, 0x00, 0x00, 0x00, 
 0x00, 0x00, 0x00, 0x00, 0x00, 0x00, 0x00, 0x00, 0x00, 0x00, 0x00, 0x00, 
 0x00, 0x00, 0x00, 0x00, 0x00, 0x00, 0x00, 0x00, 0x00, 0x00, 0x00, 0x00, 
 0x00, 0x00, 0x00, 0x00, 0x00, 0x00, 0x00, 0x00, 0x00, 0x00, 0x00, 0x00, 
 0x00, 0x00, 0x00, 0x00, 0x00, 0x00, 0x00, 0x00, 0x00, 0x00, 0x00, 0x00, 
 0x00, 0x00, 0x00, 0x00, 0x00, 0x00, 0x00, 0x00, 0x00, 0x00, 0x00, 0x00, 
 0x00, 0x00, 0x00, 0x00, 0x00, 0x00, 0x00, 0x00, 0x00, 0x00, 0x00, 0x00, 
 0x00, 0x00, 0x00, 0x00, 0x00, 0x00, 0x00, 0x00, 0x00, 0x00, 0x00, 0x00, 
 0x00, 0x00, 0x00, 0x00, 0x00, 0x00, 0x00, 0x00, 0x00, 0x00, 0x00, 0x00, 
 0x00, 0x00, 0x00, 0x00, 0x00, 0x00, 0x00, 0x00, 0x00, 0x00, 0x00, 0x00, 
 0x00, 0x00, 0x00, 0x00, 0x00, 0x00, 0x00, 0x00, 0x00, 0x00, 0x00, 0x00, 
 0x00, 0x00, 0x00, 0x00, 0x00, 0x00, 0x00, 0x00, 0x00, 0x00, 0x00, 0x00, 
 0x00, 0x00, 0x00, 0x00, 0x00, 0x00, 0x00, 0x00, 0x00, 0x00, 0x00, 0x00, 
 0x00, 0x00, 0x00, 0x00, 0x00, 0x00, 0x00, 0x00, 0x00, 0x00, 0x00, 0x00, 
 0x00, 0x00, 0x00, 0x00, 0x00, 0x00, 0x00, 0x00, 0x00, 0x00, 0x00, 0x00, 
 0x00, 0x00, 0x00, 0x00, 0x00, 0x00, 0x00, 0x00, 0x00, 0x00, 0x00, 0x00, 
 0x00, 0x00, 0x00, 0x00, 0x00, 0x00, 0x00, 0x00, 0x00, 0x00, 0x00, 0x00, 
 0x00, 0x00, 0x00, 0x00, 0x00, 0x00, 0x00, 0x00, 0x00, 0x00, 0x00, 0x00, 
 0x00, 0x00, 0x00, 0x00, 0x00, 0x00, 0x00, 0x00, 0x00, 0x00, 0x00, 0x00, 
 0x00, 0x00, 0x00, 0x00, 0x00, 0x00, 0x00, 0x00, 0x00, 0x00, 0x00, 0x00, 
 0x00, 0x00, 0x00, 0x00, 0x00, 0x00, 0x00, 0x00, 0x00, 0x00, 0x00, 0x00, 
 0x20, 0x00, 0x00, 0x00, 0x6f, 0x36, 0x24, 0x3b, 0x7a, 0x95, 0x25, 0x3b, 
 0x1c, 0x38, 0x2c, 0x3b, 0xe6, 0x06, 0x22, 0x3b, 0x6b, 0x49, 0x2e, 0x3b, 
 0xf6, 0x26, 0x2f, 0x3b, 0x7e, 0x3a, 0x08, 0x3b, 0x7d, 0x48, 0x33, 0x3b, 
 0x43, 0xe6, 0x2e, 0x3b, 0x37, 0x04, 0x35, 0x3b, 0x20, 0xe7, 0x1f, 0x3b, 
 0x53, 0x00, 0x22, 0x3b, 0xb4, 0x7b, 0x21, 0x3b, 0x6f, 0x17, 0x20, 0x3b, 
 0x5c, 0x3f, 0x15, 0x3b, 0x7b, 0xb9, 0x1d, 0x3b, 0xaa, 0xc1, 0x25, 0x3b, 
 0x16, 0xd1, 0x38, 0x3b, 0x55, 0x89, 0x27, 0x3b, 0x99, 0x9c, 0x0d, 0x3b, 
 0xe9, 0xc0, 0x13, 0x3b, 0x8e, 0x5d, 0x2c, 0x3b, 0x43, 0x51, 0x25, 0x3b, 
 0xe1, 0xb0, 0x20, 0x3b, 0xd3, 0x40, 0x22, 0x3b, 0x36, 0x3f, 0x33, 0x3b, 
 0x1c, 0x90, 0x1f, 0x3b, 0x41, 0xe0, 0x36, 0x3b, 0x4c, 0xb8, 0x2f, 0x3b, 
 0x19, 0x7c, 0x34, 0x3b, 0xbe, 0xf0, 0x43, 0x3b, 0x1e, 0x3e, 0x0c, 0x3b, 
 0x12, 0x00, 0x00, 0x00, 0x74, 0x66, 0x6c, 0x2e, 0x70, 0x73, 0x65, 0x75, 
 0x64, 0x6f, 0x5f, 0x71, 0x63, 0x6f, 0x6e, 0x73, 0x74, 0x33, 0x00, 0x00, 
 0x02, 0x00, 0x00, 0x00, 0x20, 0x00, 0x00, 0x00, 0x20, 0x00, 0x00, 0x00, 
 0xee, 0xfb, 0xff, 0xff, 0x00, 0x00, 0x00, 0x01, 0x14, 0x00, 0x00, 0x00, 
 0xa4, 0x01, 0x00, 0x00, 0x0b, 0x00, 0x00, 0x00, 0x00, 0x00, 0x00, 0x02, 
 0xb0, 0x01, 0x00, 0x00, 0xc4, 0xfd, 0xff, 0xff, 0x08, 0x00, 0x00, 0x00, 
 0x08, 0x01, 0x00, 0x00, 0x20, 0x00, 0x00, 0x00, 0x00, 0x00, 0x00, 0x00, 
 0x00, 0x00, 0x00, 0x00, 0x00, 0x00, 0x00, 0x00, 0x00, 0x00, 0x00, 0x00, 
 0x00, 0x00, 0x00, 0x00, 0x00, 0x00, 0x00, 0x00, 0x00, 0x00, 0x00, 0x00, 
 0x00, 0x00, 0x00, 0x00, 0x00, 0x00, 0x00, 0x00, 0x00, 0x00, 0x00, 0x00, 
 0x00, 0x00, 0x00, 0x00, 0x00, 0x00, 0x00, 0x00, 0x00, 0x00, 0x00, 0x00, 
 0x00, 0x00, 0x00, 0x00, 0x00, 0x00, 0x00, 0x00, 0x00, 0x00, 0x00, 0x00, 
 0x00, 0x00, 0x00, 0x00, 0x00, 0x00, 0x00, 0x00, 0x00, 0x00, 0x00, 0x00, 
 0x00, 0x00, 0x00, 0x00, 0x00, 0x00, 0x00, 0x00, 0x00, 0x00, 0x00, 0x00, 
 0x00, 0x00, 0x00, 0x00, 0x00, 0x00, 0x00, 0x00, 0x00, 0x00, 0x00, 0x00, 
 0x00, 0x00, 0x00, 0x00, 0x00, 0x00, 0x00, 0x00, 0x00, 0x00, 0x00, 0x00, 
 0x00, 0x00, 0x00, 0x00, 0x00, 0x00, 0x00, 0x00, 0x00, 0x00, 0x00, 0x00, 
 0x00, 0x00, 0x00, 0x00, 0x00, 0x00, 0x00, 0x00, 0x00, 0x00, 0x00, 0x00, 
 0x00, 0x00, 0x00, 0x00, 0x00, 0x00, 0x00, 0x00, 0x00, 0x00, 0x00, 0x00, 
 0x00, 0x00, 0x00, 0x00, 0x00, 0x00, 0x00, 0x00, 0x00, 0x00, 0x00, 0x00, 
 0x00, 0x00, 0x00, 0x00, 0x00, 0x00, 0x00, 0x00, 0x00, 0x00, 0x00, 0x00, 
 0x00, 0x00, 0x00, 0x00, 0x00, 0x00, 0x00, 0x00, 0x00, 0x00, 0x00, 0x00, 
 0x00, 0x00, 0x00, 0x00, 0x00, 0x00, 0x00, 0x00, 0x00, 0x00, 0x00, 0x00, 
 0x00, 0x00, 0x00, 0x00, 0x00, 0x00, 0x00, 0x00, 0x00, 0x00, 0x00, 0x00, 
 0x00, 0x00, 0x00, 0x00, 0x00, 0x00, 0x00, 0x00, 0x00, 0x00, 0x00, 0x00, 
 0x00, 0x00, 0x00, 0x00, 0x00, 0x00, 0x00, 0x00, 0x00, 0x00, 0x00, 0x00, 
 0x00, 0x00, 0x00, 0x00, 0x00, 0x00, 0x00, 0x00, 0x00, 0x00, 0x00, 0x00, 
 0x00, 0x00, 0x00, 0x00, 0x00, 0x00, 0x00, 0x00, 0x00, 0x00, 0x00, 0x00, 
 0x20, 0x00, 0x00, 0x00, 0xd1, 0x9a, 0x7b, 0x37, 0xae, 0xb4, 0x7d, 0x37, 
 0xa7, 0xef, 0x83, 0x37, 0x81, 0x41, 0x78, 0x37, 0x27, 0x85, 0x85, 0x37, 
 0xe0, 0x2e, 0x86, 0x37, 0x4e, 0xba, 0x50, 0x37, 0x0b, 0x59, 0x89, 0x37, 
 0x50, 0xfd, 0x85, 0x37, 0xfa, 0xac, 0x8a, 0x37, 0x57, 0x00, 0x75, 0x37, 
 0x6e, 0x37, 0x78, 0x37, 0x3b, 0x6c, 0x77, 0x37, 0x5b, 0x4a, 0x75, 0x37, 
 0xe3, 0xac, 0x64, 0x37, 0xec, 0xa9, 0x71, 0x37, 0x62, 0xf8, 0x7d, 0x37, 
 0x4a, 0x96, 0x8d, 0x37, 0x47, 0x59, 0x80, 0x37, 0xd3, 0xf9, 0x58, 0x37, 
 0xe7, 0x62, 0x62, 0x37, 0x57, 0x0c, 0x84, 0x37, 0x29, 0x4c, 0x7d, 0x37, 
 0x77, 0x35, 0x76, 0x37, 0x41, 0x9a, 0x78, 0x37, 0xef, 0x51, 0x89, 0x37, 
 0x04, 0x7b, 0x74, 0x37, 0xab, 0x19, 0x8c, 0x37, 0x38, 0x9e, 0x86, 0x37, 
 0xb3, 0x44, 0x8a, 0x37, 0xdd, 0x1b, 0x96, 0x37, 0xd2, 0xe0, 0x56, 0x37, 
 0x12, 0x00, 0x00, 0x00, 0x74, 0x66, 0x6c, 0x2e, 0x70, 0x73, 0x65, 0x75, 
 0x64, 0x6f, 0x5f, 0x71, 0x63, 0x6f, 0x6e, 0x73, 0x74, 0x32, 0x00, 0x00, 
 0x01, 0x00, 0x00, 0x00, 0x20, 0x00, 0x00, 0x00, 0xbe, 0xfd, 0xff, 0xff, 
 0x00, 0x00, 0x00, 0x01, 0x14, 0x00, 0x00, 0x00, 0x3c, 0x00, 0x00, 0x00, 
 0x0a, 0x00, 0x00, 0x00, 0x00, 0x00, 0x00, 0x09, 0x48, 0x00, 0x00, 0x00, 
 0x94, 0xff, 0xff, 0xff, 0x08, 0x00, 0x00, 0x00, 0x18, 0x00, 0x00, 0x00, 
 0x02, 0x00, 0x00, 0x00, 0x00, 0x00, 0x00, 0x00, 0x00, 0x00, 0x00, 0x00, 
 0x00, 0x00, 0x00, 0x00, 0x00, 0x00, 0x00, 0x00, 0x02, 0x00, 0x00, 0x00, 
 0x49, 0x7f, 0x79, 0x3b, 0x7f, 0xcd, 0x65, 0x3b, 0x12, 0x00, 0x00, 0x00, 
 0x74, 0x66, 0x6c, 0x2e, 0x70, 0x73, 0x65, 0x75, 0x64, 0x6f, 0x5f, 0x71, 
 0x63, 0x6f, 0x6e, 0x73, 0x74, 0x31, 0x00, 0x00, 0x02, 0x00, 0x00, 0x00, 
 0x02, 0x00, 0x00, 0x00, 0x20, 0x00, 0x00, 0x00, 0x2a, 0xfe, 0xff, 0xff, 
 0x00, 0x00, 0x00, 0x01, 0x20, 0x00, 0x00, 0x00, 0x48, 0x00, 0x00, 0x00, 
 0x09, 0x00, 0x00, 0x00, 0x00, 0x00, 0x00, 0x02, 0x54, 0x00, 0x00, 0x00, 
 0x0c, 0x00, 0x0c, 0x00, 0x00, 0x00, 0x00, 0x00, 0x08, 0x00, 0x04, 0x00, 
 0x0c, 0x00, 0x00, 0x00, 0x08, 0x00, 0x00, 0x00, 0x18, 0x00, 0x00, 0x00, 
 0x02, 0x00, 0x00, 0x00, 0x00, 0x00, 0x00, 0x00, 0x00, 0x00, 0x00, 0x00, 
 0x00, 0x00, 0x00, 0x00, 0x00, 0x00, 0x00, 0x00, 0x02, 0x00, 0x00, 0x00, 
 0x7b, 0x44, 0x1c, 0x38, 0xa9, 0xee, 0x0f, 0x38, 0x11, 0x00, 0x00, 0x00, 
 0x74, 0x66, 0x6c, 0x2e, 0x70, 0x73, 0x65, 0x75, 0x64, 0x6f, 0x5f, 0x71, 
 0x63, 0x6f, 0x6e, 0x73, 0x74, 0x00, 0x00, 0x00, 0x01, 0x00, 0x00, 0x00, 
 0x02, 0x00, 0x00, 0x00, 0x9e, 0xfe, 0xff, 0xff, 0x00, 0x00, 0x00, 0x01, 
 0x14, 0x00, 0x00, 0x00, 0x14, 0x00, 0x00, 0x00, 0x08, 0x00, 0x00, 0x00, 
 0x00, 0x00, 0x00, 0x02, 0x1c, 0x00, 0x00, 0x00, 0x28, 0xfe, 0xff, 0xff, 
 0x0f, 0x00, 0x00, 0x00, 0x61, 0x72, 0x69, 0x74, 0x68, 0x2e, 0x63, 0x6f, 
 0x6e, 0x73, 0x74, 0x61, 0x6e, 0x74, 0x36, 0x00, 0x00, 0x00, 0x00, 0x00, 
 0xd6, 0xfe, 0xff, 0xff, 0x00, 0x00, 0x00, 0x01, 0x14, 0x00, 0x00, 0x00, 
 0x14, 0x00, 0x00, 0x00, 0x07, 0x00, 0x00, 0x00, 0x00, 0x00, 0x00, 0x02, 
 0x1c, 0x00, 0x00, 0x00, 0x60, 0xfe, 0xff, 0xff, 0x0f, 0x00, 0x00, 0x00, 
 0x61, 0x72, 0x69, 0x74, 0x68, 0x2e, 0x63, 0x6f, 0x6e, 0x73, 0x74, 0x61, 
 0x6e, 0x74, 0x35, 0x00, 0x01, 0x00, 0x00, 0x00, 0x03, 0x00, 0x00, 0x00, 
 0x12, 0xff, 0xff, 0xff, 0x00, 0x00, 0x00, 0x01, 0x14, 0x00, 0x00, 0x00, 
 0x14, 0x00, 0x00, 0x00, 0x06, 0x00, 0x00, 0x00, 0x00, 0x00, 0x00, 0x02, 
 0x1c, 0x00, 0x00, 0x00, 0x9c, 0xfe, 0xff, 0xff, 0x0f, 0x00, 0x00, 0x00, 
 0x61, 0x72, 0x69, 0x74, 0x68, 0x2e, 0x63, 0x6f, 0x6e, 0x73, 0x74, 0x61, 
 0x6e, 0x74, 0x34, 0x00, 0x01, 0x00, 0x00, 0x00, 0x03, 0x00, 0x00, 0x00, 
 0x4e, 0xff, 0xff, 0xff, 0x00, 0x00, 0x00, 0x01, 0x14, 0x00, 0x00, 0x00, 
 0x14, 0x00, 0x00, 0x00, 0x05, 0x00, 0x00, 0x00, 0x00, 0x00, 0x00, 0x02, 
 0x1c, 0x00, 0x00, 0x00, 0xd8, 0xfe, 0xff, 0xff, 0x0f, 0x00, 0x00, 0x00, 
 0x61, 0x72, 0x69, 0x74, 0x68, 0x2e, 0x63, 0x6f, 0x6e, 0x73, 0x74, 0x61, 
 0x6e, 0x74, 0x33, 0x00, 0x01, 0x00, 0x00, 0x00, 0x03, 0x00, 0x00, 0x00, 
 0x8a, 0xff, 0xff, 0xff, 0x00, 0x00, 0x00, 0x01, 0x14, 0x00, 0x00, 0x00, 
 0x14, 0x00, 0x00, 0x00, 0x04, 0x00, 0x00, 0x00, 0x00, 0x00, 0x00, 0x02, 
 0x1c, 0x00, 0x00, 0x00, 0x14, 0xff, 0xff, 0xff, 0x0f, 0x00, 0x00, 0x00, 
 0x61, 0x72, 0x69, 0x74, 0x68, 0x2e, 0x63, 0x6f, 0x6e, 0x73, 0x74, 0x61, 
 0x6e, 0x74, 0x32, 0x00, 0x00, 0x00, 0x00, 0x00, 0xc2, 0xff, 0xff, 0xff, 
 0x00, 0x00, 0x00, 0x01, 0x14, 0x00, 0x00, 0x00, 0x14, 0x00, 0x00, 0x00, 
 0x03, 0x00, 0x00, 0x00, 0x00, 0x00, 0x00, 0x02, 0x1c, 0x00, 0x00, 0x00, 
 0x4c, 0xff, 0xff, 0xff, 0x0f, 0x00, 0x00, 0x00, 0x61, 0x72, 0x69, 0x74, 
 0x68, 0x2e, 0x63, 0x6f, 0x6e, 0x73, 0x74, 0x61, 0x6e, 0x74, 0x31, 0x00, 
 0x01, 0x00, 0x00, 0x00, 0x03, 0x00, 0x00, 0x00, 0x00, 0x00, 0x16, 0x00, 
 0x1c, 0x00, 0x18, 0x00, 0x17, 0x00, 0x10, 0x00, 0x0c, 0x00, 0x08, 0x00, 
 0x00, 0x00, 0x00, 0x00, 0x00, 0x00, 0x07, 0x00, 0x16, 0x00, 0x00, 0x00, 
 0x00, 0x00, 0x00, 0x01, 0x14, 0x00, 0x00, 0x00, 0x14, 0x00, 0x00, 0x00, 
 0x02, 0x00, 0x00, 0x00, 0x00, 0x00, 0x00, 0x02, 0x1c, 0x00, 0x00, 0x00, 
 0xa0, 0xff, 0xff, 0xff, 0x0e, 0x00, 0x00, 0x00, 0x61, 0x72, 0x69, 0x74, 
 0x68, 0x2e, 0x63, 0x6f, 0x6e, 0x73, 0x74, 0x61, 0x6e, 0x74, 0x00, 0x00, 
 0x00, 0x00, 0x00, 0x00, 0x00, 0x00, 0x16, 0x00, 0x1c, 0x00, 0x18, 0x00, 
 0x00, 0x00, 0x14, 0x00, 0x10, 0x00, 0x0c, 0x00, 0x00, 0x00, 0x00, 0x00, 
 0x08, 0x00, 0x07, 0x00, 0x16, 0x00, 0x00, 0x00, 0x00, 0x00, 0x00, 0x01, 
 0x14, 0x00, 0x00, 0x00, 0x24, 0x00, 0x00, 0x00, 0x24, 0x00, 0x00, 0x00, 
 0x01, 0x00, 0x00, 0x00, 0x38, 0x00, 0x00, 0x00, 0x03, 0x00, 0x00, 0x00, 
 0xff, 0xff, 0xff, 0xff, 0x00, 0x02, 0x00, 0x00, 0x01, 0x00, 0x00, 0x00, 
 0x04, 0x00, 0x04, 0x00, 0x04, 0x00, 0x00, 0x00, 0x16, 0x00, 0x00, 0x00, 
 0x73, 0x65, 0x72, 0x76, 0x69, 0x6e, 0x67, 0x5f, 0x64, 0x65, 0x66, 0x61, 
 0x75, 0x6c, 0x74, 0x5f, 0x78, 0x5f, 0x69, 0x6e, 0x3a, 0x30, 0x00, 0x00, 
 0x03, 0x00, 0x00, 0x00, 0x01, 0x00, 0x00, 0x00, 0x00, 0x02, 0x00, 0x00, 
 0x01, 0x00, 0x00, 0x00, 0x09, 0x00, 0x00, 0x00, 0xb4, 0x00, 0x00, 0x00, 
 0x98, 0x00, 0x00, 0x00, 0x84, 0x00, 0x00, 0x00, 0x68, 0x00, 0x00, 0x00, 
 0x54, 0x00, 0x00, 0x00, 0x40, 0x00, 0x00, 0x00, 0x2c, 0x00, 0x00, 0x00, 
 0x18, 0x00, 0x00, 0x00, 0x04, 0x00, 0x00, 0x00, 0xa4, 0xff, 0xff, 0xff, 
 0x06, 0x00, 0x00, 0x00, 0x02, 0x00, 0x00, 0x00, 0x00, 0x00, 0x00, 0x06, 
 0xb4, 0xff, 0xff, 0xff, 0x19, 0x00, 0x00, 0x00, 0x02, 0x00, 0x00, 0x00, 
 0x00, 0x00, 0x00, 0x19, 0xc4, 0xff, 0xff, 0xff, 0x09, 0x00, 0x00, 0x00, 
 0x04, 0x00, 0x00, 0x00, 0x00, 0x00, 0x00, 0x09, 0xd4, 0xff, 0xff, 0xff, 
 0x28, 0x00, 0x00, 0x00, 0x02, 0x00, 0x00, 0x00, 0x00, 0x00, 0x00, 0x28, 
 0xe4, 0xff, 0xff, 0xff, 0x11, 0x00, 0x00, 0x00, 0x02, 0x00, 0x00, 0x00, 
 0x00, 0x00, 0x00, 0x11, 0xcc, 0xff, 0xff, 0xff, 0x16, 0x00, 0x00, 0x00, 
 0x00, 0x00, 0x00, 0x16, 0x0c, 0x00, 0x10, 0x00, 0x0f, 0x00, 0x00, 0x00, 
 0x08, 0x00, 0x04, 0x00, 0x0c, 0x00, 0x00, 0x00, 0x03, 0x00, 0x00, 0x00, 
 0x03, 0x00, 0x00, 0x00, 0x00, 0x00, 0x00, 0x03, 0xf4, 0xff, 0xff, 0xff, 
 0x46, 0x00, 0x00, 0x00, 0x00, 0x00, 0x00, 0x46, 0x0c, 0x00, 0x0c, 0x00, 
 0x0b, 0x00, 0x00, 0x00, 0x00, 0x00, 0x04, 0x00, 0x0c, 0x00, 0x00, 0x00, 
 0x72, 0x00, 0x00, 0x00, 0x00, 0x00, 0x00, 0x72
};

#endif // _1D_CNN_DISTILL_INT8_H
